#ifndef MODEL_H
#define MODEL_H


unsigned int model_len = 7728;
unsigned char model[] = {
 0x1c, 0x00, 0x00, 0x00, 0x54, 0x46, 0x4c, 0x33, 0x00, 0x00, 0x12, 0x00,
  0x1c, 0x00, 0x04, 0x00, 0x08, 0x00, 0x0c, 0x00, 0x10, 0x00, 0x14, 0x00,
  0x00, 0x00, 0x18, 0x00, 0x12, 0x00, 0x00, 0x00, 0x03, 0x00, 0x00, 0x00,
  0xcc, 0x1d, 0x00, 0x00, 0x10, 0x18, 0x00, 0x00, 0xf8, 0x17, 0x00, 0x00,
  0x3c, 0x00, 0x00, 0x00, 0x04, 0x00, 0x00, 0x00, 0x01, 0x00, 0x00, 0x00,
  0x0c, 0x00, 0x00, 0x00, 0x08, 0x00, 0x0c, 0x00, 0x04, 0x00, 0x08, 0x00,
  0x08, 0x00, 0x00, 0x00, 0x08, 0x00, 0x00, 0x00, 0x0c, 0x00, 0x00, 0x00,
  0x13, 0x00, 0x00, 0x00, 0x6d, 0x69, 0x6e, 0x5f, 0x72, 0x75, 0x6e, 0x74,
  0x69, 0x6d, 0x65, 0x5f, 0x76, 0x65, 0x72, 0x73, 0x69, 0x6f, 0x6e, 0x00,
  0x0d, 0x00, 0x00, 0x00, 0xac, 0x17, 0x00, 0x00, 0x98, 0x17, 0x00, 0x00,
  0x5c, 0x17, 0x00, 0x00, 0xb8, 0x16, 0x00, 0x00, 0x34, 0x16, 0x00, 0x00,
  0xe0, 0x14, 0x00, 0x00, 0x2c, 0x0f, 0x00, 0x00, 0x78, 0x00, 0x00, 0x00,
  0x6c, 0x00, 0x00, 0x00, 0x58, 0x00, 0x00, 0x00, 0x44, 0x00, 0x00, 0x00,
  0x30, 0x00, 0x00, 0x00, 0x04, 0x00, 0x00, 0x00, 0xf2, 0xe7, 0xff, 0xff,
  0x04, 0x00, 0x00, 0x00, 0x10, 0x00, 0x00, 0x00, 0x31, 0x2e, 0x35, 0x2e,
  0x30, 0x00, 0x00, 0x00, 0x00, 0x00, 0x00, 0x00, 0x00, 0x00, 0x00, 0x00,
  0x00, 0x00, 0x00, 0x00, 0x00, 0x00, 0x00, 0x00, 0x00, 0x00, 0x00, 0x00,
  0x04, 0xe3, 0xff, 0xff, 0x00, 0x00, 0x00, 0x00, 0x00, 0x00, 0x00, 0x00,
  0x00, 0x00, 0x00, 0x00, 0x14, 0xe3, 0xff, 0xff, 0x00, 0x00, 0x00, 0x00,
  0x00, 0x00, 0x00, 0x00, 0x00, 0x00, 0x00, 0x00, 0x24, 0xe3, 0xff, 0xff,
  0x00, 0x00, 0x00, 0x00, 0x00, 0x00, 0x00, 0x00, 0x00, 0x00, 0x00, 0x00,
  0x34, 0xe3, 0xff, 0xff, 0x00, 0x00, 0x00, 0x00, 0x52, 0xe8, 0xff, 0xff,
  0x04, 0x00, 0x00, 0x00, 0xa0, 0x0e, 0x00, 0x00, 0xf6, 0x79, 0xd9, 0xbe,
  0x21, 0x2e, 0xac, 0xbf, 0xa0, 0xf1, 0x12, 0x3e, 0x01, 0xe4, 0xac, 0xbf,
  0x74, 0x5d, 0xc5, 0xbf, 0x32, 0x4c, 0x87, 0xbe, 0x74, 0xac, 0x84, 0xbe,
  0xbb, 0x23, 0xba, 0xbd, 0xbc, 0x4d, 0xaa, 0x3e, 0x97, 0x45, 0x00, 0xc0,
  0x0d, 0x46, 0x83, 0x3e, 0x8f, 0x09, 0x27, 0xbf, 0x2f, 0xbf, 0xb8, 0x3d,
  0x6c, 0x2d, 0x2c, 0xbf, 0xe3, 0x40, 0x01, 0x3f, 0x4b, 0xb0, 0x66, 0xbf,
  0xe1, 0xee, 0x41, 0xbe, 0x18, 0xb0, 0x3b, 0xbd, 0x08, 0xdb, 0x83, 0xbd,
  0x56, 0xe4, 0x10, 0x3d, 0x42, 0xe1, 0x53, 0xbe, 0x40, 0x43, 0x02, 0x3d,
  0x78, 0x84, 0x56, 0x3d, 0xa2, 0x63, 0x49, 0x3d, 0xe1, 0x48, 0x01, 0x3f,
  0xec, 0xc8, 0x01, 0x3f, 0x59, 0x61, 0x1b, 0x3f, 0x0a, 0x93, 0x1b, 0x3f,
  0x52, 0x70, 0xb1, 0x3e, 0xbd, 0xd3, 0xba, 0x3e, 0x91, 0xa9, 0x93, 0xbf,
  0xf2, 0x98, 0x1a, 0xc0, 0x9e, 0x8f, 0x64, 0xbf, 0xe5, 0x48, 0x04, 0x3f,
  0x27, 0x39, 0x44, 0xc0, 0x03, 0xb9, 0xd9, 0xbd, 0x03, 0x79, 0x49, 0x3f,
  0x87, 0xf4, 0x87, 0xbf, 0x4a, 0x19, 0x3a, 0x3e, 0xb1, 0x6e, 0x9d, 0x3f,
  0x10, 0xcc, 0xcd, 0x3e, 0xee, 0x42, 0x15, 0x3e, 0x49, 0xc7, 0x1d, 0xbe,
  0xae, 0xfe, 0x39, 0x3d, 0xea, 0xab, 0x44, 0xc0, 0xf0, 0x08, 0xb3, 0x3e,
  0xd3, 0x6d, 0x93, 0x3e, 0xc3, 0xc7, 0x30, 0xbf, 0xa5, 0x21, 0xa3, 0xbf,
  0x18, 0xda, 0x12, 0x3f, 0xdf, 0x34, 0x99, 0xbf, 0x0a, 0xf9, 0xad, 0xbd,
  0x09, 0x8e, 0x7e, 0xbf, 0x26, 0xdc, 0x98, 0xbd, 0x2b, 0xb6, 0x21, 0xc0,
  0x53, 0xe7, 0xf7, 0x3e, 0x76, 0x06, 0x95, 0xbe, 0x1e, 0x66, 0x0e, 0xbf,
  0x38, 0xdc, 0x41, 0x3e, 0xd5, 0x37, 0xa4, 0xbe, 0x7c, 0xa3, 0x43, 0xbf,
  0x81, 0xee, 0x34, 0x3f, 0x04, 0xdf, 0xe7, 0x3e, 0xd1, 0x45, 0xe8, 0x3f,
  0xb1, 0xdd, 0xe0, 0x3e, 0x8b, 0x0e, 0x4e, 0xbf, 0x8e, 0xcd, 0xa7, 0xbf,
  0xf3, 0xe4, 0xee, 0x3e, 0xb7, 0xd2, 0x24, 0xbf, 0x1a, 0x81, 0xba, 0xbf,
  0x6a, 0x50, 0xad, 0x3e, 0x98, 0x64, 0x39, 0x3d, 0x48, 0xbf, 0xc3, 0xbe,
  0x6c, 0x85, 0x8e, 0xbe, 0x0a, 0x02, 0x36, 0x3e, 0x33, 0x24, 0x1c, 0xbf,
  0x8b, 0x1e, 0x34, 0xbf, 0x08, 0x4c, 0x02, 0x3e, 0xf4, 0x16, 0x60, 0x3e,
  0x76, 0x19, 0x0a, 0xbc, 0x3a, 0xfd, 0x89, 0xbf, 0xdb, 0x48, 0xb8, 0xbe,
  0x2d, 0xd9, 0x2a, 0x3e, 0x97, 0xc3, 0xef, 0xbf, 0x4a, 0x3d, 0x8a, 0xbf,
  0xa8, 0xcc, 0x63, 0x3e, 0x11, 0x11, 0xcb, 0xbc, 0xa0, 0x44, 0x30, 0x3e,
  0x88, 0x33, 0x0c, 0xbe, 0x94, 0x04, 0x95, 0x3d, 0x5d, 0x3a, 0xf2, 0xbf,
  0xff, 0xfb, 0x13, 0x3f, 0x30, 0xc6, 0xa7, 0xbc, 0x1a, 0x8e, 0x22, 0xbe,
  0x94, 0xbf, 0xfe, 0xbd, 0x45, 0x64, 0x19, 0x3e, 0xfc, 0x2f, 0xba, 0x3e,
  0x90, 0xcd, 0xc0, 0x3e, 0xc5, 0x46, 0x10, 0x3f, 0xc7, 0xfe, 0x69, 0x3f,
  0xf8, 0x98, 0x07, 0x3f, 0x6b, 0xdf, 0x67, 0x3e, 0xef, 0x38, 0x96, 0xbf,
  0x4d, 0x01, 0x19, 0xbe, 0x06, 0x14, 0x56, 0xbf, 0x8b, 0x48, 0x95, 0x3e,
  0x9f, 0xae, 0x8b, 0xbf, 0x64, 0x37, 0x0d, 0x3e, 0x6e, 0xc5, 0x28, 0x3e,
  0x43, 0x26, 0x1b, 0x3f, 0x30, 0x44, 0x3a, 0xbd, 0xe0, 0xe6, 0x19, 0x3f,
  0x49, 0xfa, 0x86, 0xbe, 0xf0, 0x2d, 0x22, 0x3e, 0x20, 0xa7, 0x95, 0x3e,
  0xb2, 0x0e, 0x64, 0x3f, 0x0e, 0x13, 0x5b, 0xc0, 0xbd, 0xa4, 0x9e, 0xbd,
  0x38, 0x3b, 0x98, 0xbd, 0xf3, 0x43, 0x0f, 0xc0, 0x2a, 0x79, 0xb0, 0xbe,
  0x6a, 0xbf, 0xc5, 0xbf, 0xe5, 0x56, 0xd4, 0x3e, 0xd9, 0x2b, 0x9a, 0x3d,
  0xa3, 0x9f, 0x06, 0x3e, 0x84, 0x55, 0x1a, 0xbe, 0x73, 0x80, 0x8a, 0xbe,
  0x97, 0xda, 0x12, 0xbf, 0x2e, 0x18, 0xb0, 0xbd, 0xc8, 0x79, 0x68, 0xbe,
  0x30, 0x9f, 0xd8, 0x3c, 0xa5, 0xb0, 0xa0, 0x3e, 0x51, 0x02, 0x17, 0x3f,
  0xce, 0x2d, 0xed, 0xbe, 0x26, 0x63, 0x31, 0xbf, 0x06, 0x16, 0xd2, 0xbf,
  0x93, 0xc8, 0xa6, 0x3e, 0xed, 0x0b, 0xe0, 0x3e, 0xbd, 0x83, 0x19, 0xbe,
  0x99, 0xb1, 0xc2, 0x3e, 0x35, 0xff, 0xa1, 0xbc, 0x3a, 0x4d, 0xc3, 0x3e,
  0xf4, 0xfd, 0x6c, 0xbf, 0x53, 0x36, 0x71, 0xbe, 0xdd, 0xcd, 0x3d, 0x3f,
  0xdc, 0x46, 0x45, 0x3f, 0xd6, 0xb7, 0x0c, 0x3e, 0x86, 0xfe, 0x4e, 0x3f,
  0x20, 0xfd, 0xf9, 0xbe, 0xc0, 0xe1, 0x6d, 0x3e, 0x4a, 0x7a, 0x44, 0xbe,
  0x7e, 0xa8, 0x77, 0x3f, 0xd7, 0x9b, 0x93, 0xbe, 0x1d, 0xdc, 0x41, 0xbf,
  0x44, 0x6c, 0xe6, 0xbf, 0xd2, 0x0e, 0xbf, 0x3e, 0x39, 0x7e, 0x0d, 0x3f,
  0x0d, 0xd9, 0xbe, 0xbe, 0x8c, 0x76, 0x89, 0xbd, 0x6c, 0xe5, 0xd0, 0xbf,
  0xa8, 0x5e, 0xde, 0x3e, 0x0e, 0xfc, 0x36, 0x3e, 0x54, 0xbe, 0x05, 0x3f,
  0x67, 0xfe, 0xd1, 0xbf, 0x08, 0x90, 0x43, 0x3e, 0x61, 0xeb, 0xbd, 0x3d,
  0x2b, 0x6d, 0x98, 0xbe, 0x94, 0x89, 0x70, 0xbe, 0x87, 0xdd, 0x52, 0xbf,
  0x58, 0xfd, 0x83, 0xbf, 0xef, 0x02, 0xfd, 0xbe, 0x14, 0xc9, 0xae, 0xbf,
  0x90, 0x99, 0x36, 0x3e, 0x48, 0xe7, 0x1e, 0xbf, 0xa5, 0x19, 0x9c, 0x3e,
  0x39, 0xd7, 0xf4, 0xbe, 0xc6, 0x07, 0xd0, 0x3d, 0x94, 0x05, 0x4c, 0xbf,
  0xca, 0x26, 0x6e, 0xc0, 0x94, 0xcb, 0x82, 0xbe, 0x30, 0x3f, 0xa0, 0x3e,
  0x60, 0xb2, 0x90, 0xbf, 0x08, 0x7f, 0xbf, 0xbd, 0xa2, 0x7d, 0x59, 0xbf,
  0x70, 0xfb, 0x89, 0x3e, 0x00, 0x6c, 0x49, 0x3e, 0x1d, 0xe9, 0x90, 0xbe,
  0x49, 0x38, 0x75, 0xbf, 0x76, 0x05, 0x7c, 0x3f, 0xee, 0xaa, 0x0a, 0xbd,
  0x33, 0xdf, 0x21, 0x3e, 0x5c, 0xa8, 0x4a, 0x3f, 0xb4, 0xd8, 0xba, 0xbd,
  0xdb, 0x5f, 0x36, 0x3f, 0x02, 0xac, 0x03, 0xc0, 0x5c, 0x3b, 0xd1, 0xbf,
  0x00, 0xaf, 0xc1, 0xbd, 0x85, 0x34, 0x9a, 0xbe, 0xe7, 0x50, 0x0f, 0xbd,
  0xb2, 0x21, 0xcc, 0x3e, 0x7c, 0xae, 0x5c, 0x3e, 0x1b, 0x43, 0x01, 0xbd,
  0x98, 0xb1, 0x5e, 0x3e, 0x57, 0x00, 0x9a, 0xbf, 0xb4, 0x4e, 0xca, 0xbf,
  0x02, 0x8e, 0xad, 0x3e, 0x74, 0x47, 0x80, 0x3e, 0x7e, 0x87, 0x0a, 0x3e,
  0x33, 0xc2, 0x2c, 0xbf, 0x44, 0x40, 0x33, 0xc0, 0xf2, 0x8f, 0xbf, 0x3e,
  0x3b, 0x12, 0xe7, 0xbd, 0x62, 0x6e, 0x0c, 0xbf, 0xf8, 0xb7, 0xd5, 0xbf,
  0x69, 0x9a, 0x02, 0x3d, 0x3d, 0xdd, 0x82, 0xbe, 0x5c, 0xd4, 0x6f, 0x3f,
  0xaf, 0x23, 0x12, 0xc0, 0x00, 0x0e, 0x44, 0x3d, 0x95, 0xdd, 0xc3, 0x3e,
  0x15, 0xae, 0x2a, 0xbf, 0x50, 0x86, 0x94, 0x3d, 0x72, 0xef, 0x8c, 0xbe,
  0x01, 0xd1, 0xf5, 0x3e, 0x8d, 0x9b, 0x6a, 0xbf, 0xe0, 0x08, 0xcf, 0xbf,
  0xdf, 0x25, 0x0b, 0x3e, 0xe6, 0x51, 0x36, 0xbf, 0xbb, 0x45, 0xac, 0x3e,
  0x36, 0xa4, 0x39, 0x3f, 0xb2, 0xb3, 0xa5, 0x3e, 0x82, 0xc3, 0x4c, 0xbd,
  0x80, 0x02, 0xbb, 0xbe, 0x10, 0xb0, 0xed, 0x3d, 0xf8, 0x90, 0x05, 0xbf,
  0xed, 0x28, 0x7a, 0x3e, 0x8e, 0xe6, 0x7c, 0xbe, 0xd1, 0xa2, 0x93, 0xbf,
  0x4c, 0xbb, 0x29, 0xbe, 0x07, 0x96, 0x9d, 0x3e, 0x0a, 0xc7, 0xb0, 0xbd,
  0x64, 0x6e, 0xa2, 0x3d, 0xf5, 0x43, 0x3b, 0x3f, 0x25, 0x47, 0x3e, 0xbe,
  0xb5, 0x38, 0x12, 0xbf, 0x1a, 0x92, 0x97, 0xbe, 0xce, 0x09, 0x4a, 0xbf,
  0x16, 0x5b, 0xf5, 0xbb, 0x25, 0x59, 0x61, 0xbe, 0x1f, 0x71, 0xe7, 0x3c,
  0x31, 0x3f, 0x08, 0xc0, 0xe2, 0x08, 0x7f, 0x3e, 0xc7, 0x24, 0x80, 0x3f,
  0xd9, 0x1f, 0x68, 0xc0, 0xd0, 0xd0, 0x16, 0xbd, 0x5c, 0x03, 0x86, 0x3f,
  0xe2, 0xcb, 0xc8, 0x3c, 0xa8, 0x6f, 0x1f, 0xbd, 0xa6, 0xd0, 0x7d, 0xbe,
  0xfd, 0x3a, 0x79, 0x3f, 0x8b, 0x1c, 0x57, 0xbf, 0x83, 0x8a, 0xd4, 0xbf,
  0x6a, 0xbb, 0x04, 0x3e, 0x9c, 0x0c, 0xcd, 0x3e, 0x94, 0x67, 0x3b, 0x3f,
  0xe8, 0xfc, 0x8b, 0x3f, 0x31, 0xd2, 0x4b, 0xbf, 0x12, 0xf2, 0xaa, 0xbd,
  0xfb, 0x57, 0x10, 0xc0, 0x6c, 0x69, 0x80, 0x3e, 0x10, 0xd9, 0x4a, 0xbe,
  0xc1, 0xc8, 0x2f, 0x3e, 0x98, 0xe7, 0x99, 0xbe, 0x2f, 0xb8, 0x52, 0xc0,
  0x08, 0xd9, 0x46, 0x3d, 0xe9, 0xe5, 0x55, 0x3e, 0x57, 0x87, 0x5b, 0xbf,
  0x07, 0x55, 0x47, 0x3f, 0x7c, 0xfb, 0x1d, 0x3e, 0xcc, 0x9a, 0x92, 0xbf,
  0xce, 0xa6, 0x35, 0xc0, 0x14, 0x91, 0x53, 0xbf, 0xa8, 0xd6, 0x3e, 0xbf,
  0xdb, 0xb4, 0xe0, 0x3e, 0xd4, 0x9a, 0x59, 0x3f, 0x0f, 0xcd, 0x0e, 0xbf,
  0x11, 0x12, 0x33, 0xbe, 0x1a, 0xfe, 0xd0, 0xbc, 0xb8, 0xdf, 0xf8, 0xbf,
  0x63, 0xd7, 0xdf, 0x3e, 0xa8, 0x85, 0x24, 0xbe, 0xf1, 0xb0, 0x51, 0xc0,
  0xa5, 0x80, 0xba, 0x3e, 0x08, 0x7c, 0x5b, 0xbd, 0x68, 0x59, 0x39, 0x3e,
  0x74, 0x67, 0x06, 0xc0, 0xda, 0xbe, 0x8a, 0x3f, 0x61, 0x75, 0xb9, 0x3e,
  0x50, 0x55, 0x2f, 0xbd, 0x9b, 0x14, 0xc2, 0x3e, 0x0d, 0x88, 0x96, 0xbe,
  0x74, 0xf9, 0x32, 0xc0, 0x7e, 0x99, 0xc7, 0xbf, 0x84, 0x72, 0x40, 0xbf,
  0x9f, 0x14, 0x50, 0x3f, 0xe0, 0x1f, 0x77, 0x3e, 0xa4, 0x7c, 0x2f, 0x3f,
  0x89, 0xb5, 0x25, 0xbd, 0x98, 0x36, 0x58, 0xbd, 0x66, 0x1d, 0x12, 0x3f,
  0xd0, 0xb2, 0x24, 0x3d, 0xd4, 0xcc, 0x9e, 0xbf, 0x4d, 0x5d, 0x01, 0xc0,
  0xcc, 0xdf, 0x67, 0xbf, 0x6f, 0x1d, 0xea, 0xbe, 0x54, 0x89, 0x0e, 0xc0,
  0xe2, 0xad, 0x85, 0x3f, 0xd5, 0x6a, 0x1b, 0xc0, 0xbe, 0x02, 0x47, 0x3f,
  0xd0, 0x21, 0x3a, 0xc0, 0x57, 0xb8, 0xa6, 0xc0, 0x4b, 0x38, 0xa0, 0xbe,
  0x93, 0x1b, 0xfa, 0xbe, 0x87, 0x8b, 0x85, 0xbe, 0x8a, 0x80, 0x9b, 0x3f,
  0xb3, 0x20, 0x4b, 0xc0, 0xe8, 0xde, 0x0c, 0x3d, 0xfa, 0x98, 0x86, 0x3f,
  0x2a, 0x20, 0x59, 0xbf, 0x24, 0x64, 0x20, 0xbe, 0x95, 0x16, 0x11, 0xbe,
  0xb9, 0x04, 0x12, 0x3f, 0xfc, 0x87, 0xf3, 0x3e, 0x58, 0xb1, 0x4c, 0xc0,
  0xd5, 0x00, 0xdf, 0xbc, 0xb2, 0x9c, 0x00, 0x3f, 0xd7, 0xa1, 0xcb, 0x3e,
  0x67, 0x50, 0x67, 0x3f, 0x96, 0x2e, 0x50, 0xbf, 0xe1, 0x01, 0xba, 0xbf,
  0x42, 0x3a, 0xd2, 0xbe, 0x2a, 0xf6, 0x82, 0xbe, 0xa6, 0x70, 0xa7, 0xbe,
  0xb0, 0x34, 0x48, 0x3e, 0xec, 0x9f, 0x55, 0xbe, 0xcd, 0xa6, 0x8f, 0xbe,
  0x70, 0x9b, 0x3f, 0x3e, 0xa2, 0x21, 0xa2, 0xbf, 0x34, 0xc9, 0xdd, 0xbf,
  0x32, 0xd6, 0x60, 0x3f, 0x8e, 0xb2, 0x89, 0x3f, 0x43, 0x39, 0xbd, 0x3f,
  0x34, 0x1e, 0xbf, 0xbe, 0x9a, 0xf8, 0xab, 0xbf, 0x5d, 0xd6, 0x50, 0xbf,
  0xdc, 0x04, 0x1e, 0x3e, 0xe2, 0x23, 0x09, 0xbf, 0xf2, 0x98, 0xa9, 0xbe,
  0x43, 0x3f, 0x1b, 0xc0, 0x8f, 0x7a, 0x89, 0x3e, 0xd4, 0xdb, 0x0c, 0xc0,
  0x1a, 0x41, 0xad, 0x3e, 0xb0, 0x9b, 0xae, 0x3d, 0xcb, 0x10, 0xf8, 0xbf,
  0xa6, 0x7f, 0x63, 0x3e, 0x38, 0x17, 0xee, 0xbd, 0x4e, 0x8e, 0x83, 0x3e,
  0x67, 0xd0, 0x3e, 0xc0, 0xb9, 0x74, 0x09, 0xc0, 0x57, 0x65, 0xea, 0x39,
  0x6b, 0x4c, 0xa5, 0x3d, 0x0f, 0x92, 0x3d, 0x3d, 0xdb, 0xde, 0x08, 0xbf,
  0x85, 0x2f, 0xb6, 0x3d, 0x3d, 0x87, 0x9b, 0xbf, 0x70, 0x86, 0xb8, 0x3d,
  0xf4, 0x04, 0x18, 0xbd, 0xb8, 0x17, 0xa1, 0x3d, 0x5f, 0x6c, 0x84, 0xbe,
  0x97, 0xce, 0xd1, 0x3e, 0x7e, 0xb3, 0x98, 0x3e, 0xcd, 0x0b, 0x09, 0x3f,
  0x70, 0xbb, 0x8d, 0x3c, 0xc2, 0x23, 0x3f, 0xbf, 0x29, 0xb0, 0xe0, 0x3d,
  0x23, 0xc5, 0x0c, 0xbe, 0x0d, 0xfd, 0xed, 0xbe, 0xe5, 0xc9, 0x05, 0xbe,
  0x1a, 0xa5, 0x11, 0x3e, 0x4d, 0xa5, 0xb5, 0xbd, 0xbb, 0x00, 0x21, 0x3e,
  0xc9, 0xc7, 0xcd, 0x3e, 0xe6, 0xfc, 0xcf, 0xbe, 0xfb, 0x35, 0x1a, 0xbf,
  0xb4, 0x0a, 0x1f, 0xbc, 0x61, 0x24, 0x99, 0xbe, 0x64, 0xa9, 0x2b, 0xc0,
  0x2e, 0xd3, 0x66, 0x3f, 0x90, 0x51, 0x54, 0xbd, 0x3a, 0x68, 0xcf, 0xbf,
  0x4d, 0xed, 0xf6, 0xbd, 0xb0, 0x85, 0x6b, 0x3e, 0x75, 0xe9, 0x47, 0xbe,
  0x58, 0xb6, 0x16, 0xbf, 0xeb, 0xf7, 0xea, 0xbf, 0xeb, 0x5e, 0xec, 0x3e,
  0x2e, 0xfa, 0xfd, 0x3c, 0x9f, 0x50, 0xc3, 0xbf, 0xb6, 0x85, 0xd9, 0xbf,
  0x71, 0x75, 0xe7, 0xbf, 0x7b, 0xfb, 0x98, 0x3e, 0x66, 0xee, 0x45, 0x3e,
  0x72, 0xb9, 0x09, 0x3f, 0x14, 0x1d, 0xe0, 0xbd, 0x3e, 0x27, 0x4e, 0xbf,
  0xbd, 0xdf, 0xa7, 0x3e, 0xc0, 0x67, 0x10, 0xbe, 0x7b, 0x78, 0x2c, 0x3f,
  0xfc, 0xe0, 0xbd, 0x3d, 0xd7, 0x86, 0xf4, 0x3e, 0xb4, 0x91, 0x39, 0x3e,
  0xef, 0xe5, 0xf4, 0xbe, 0xc1, 0x42, 0xce, 0x3c, 0xde, 0xbf, 0x8f, 0xbe,
  0x21, 0xc6, 0xda, 0x3e, 0xa6, 0xf1, 0x5a, 0x3e, 0xd2, 0x53, 0x45, 0x3e,
  0x64, 0x1d, 0x62, 0xbe, 0x25, 0x3d, 0x9e, 0xbf, 0xac, 0x19, 0x6b, 0x3e,
  0xd6, 0xf4, 0x5b, 0xbf, 0x3c, 0x3a, 0x2a, 0xbe, 0xd3, 0xa8, 0x98, 0x3e,
  0x8f, 0x3e, 0x55, 0xbf, 0xe0, 0xe7, 0x9e, 0x3e, 0x5a, 0x8a, 0x7a, 0x3d,
  0x8d, 0x4a, 0xa2, 0x3d, 0xf7, 0x54, 0x31, 0xbe, 0x6c, 0x20, 0x83, 0x3e,
  0x9d, 0x38, 0xf4, 0x3e, 0x91, 0x0a, 0x8a, 0x3e, 0x05, 0xee, 0x7e, 0xbf,
  0xbb, 0x09, 0x50, 0xbd, 0x49, 0x4c, 0x9f, 0x3e, 0xa6, 0xcf, 0xb5, 0x3e,
  0xdc, 0x6d, 0xb7, 0x3e, 0x02, 0xb3, 0x6f, 0xbe, 0x7e, 0x88, 0x74, 0xc0,
  0x85, 0x40, 0x1f, 0x3e, 0x60, 0xcc, 0x08, 0x3d, 0x79, 0x76, 0x78, 0x3e,
  0xe0, 0x91, 0xd3, 0x3e, 0x46, 0xff, 0x20, 0xbe, 0x52, 0xf7, 0x38, 0xbe,
  0xa0, 0x08, 0xab, 0x3d, 0x86, 0x9f, 0x6e, 0xbf, 0x74, 0x7c, 0x1f, 0xbf,
  0xd4, 0x70, 0xb3, 0x3e, 0x20, 0x2e, 0xfd, 0x3d, 0x61, 0x99, 0xd7, 0x3e,
  0x6b, 0x08, 0x89, 0xbe, 0x14, 0x40, 0xbc, 0xbe, 0xde, 0xb8, 0xad, 0x3d,
  0x08, 0xeb, 0x13, 0xbf, 0x45, 0x30, 0x96, 0xbe, 0x53, 0x4e, 0xa5, 0xbd,
  0x01, 0x17, 0x2f, 0xc0, 0xd2, 0x4b, 0x65, 0x3e, 0x53, 0x91, 0x39, 0x3f,
  0xef, 0x9c, 0x09, 0xbf, 0x8c, 0x14, 0x49, 0x3e, 0xd0, 0x3d, 0x4f, 0x3f,
  0x4a, 0x93, 0xb9, 0xbe, 0xba, 0x76, 0x02, 0xbe, 0x84, 0x5b, 0x87, 0xbe,
  0xa1, 0xeb, 0x55, 0x3f, 0xfb, 0xe7, 0x89, 0xbe, 0xff, 0x69, 0xdc, 0xbf,
  0xc8, 0xf6, 0x1f, 0xbf, 0x48, 0xc2, 0xc7, 0x3e, 0xb8, 0x97, 0x2d, 0x3e,
  0xfa, 0x00, 0x26, 0x3c, 0xcf, 0xc3, 0xe1, 0x3c, 0x13, 0xe1, 0x9e, 0x3e,
  0x72, 0x9c, 0x00, 0xbe, 0x68, 0xde, 0x72, 0x3d, 0xdd, 0x02, 0x11, 0x3f,
  0x88, 0xe4, 0x2f, 0xbf, 0xd8, 0xcc, 0x26, 0xbd, 0x2c, 0x6e, 0xaf, 0xbf,
  0xee, 0x28, 0x3c, 0x3e, 0x71, 0xc9, 0x96, 0x3e, 0x7d, 0xcd, 0x67, 0x3e,
  0x5a, 0xf1, 0x98, 0xbe, 0xbf, 0x55, 0x69, 0xbe, 0x7b, 0x82, 0x12, 0xc0,
  0x1d, 0x20, 0xb3, 0xbf, 0x2b, 0x06, 0xc9, 0x3b, 0x31, 0x5b, 0x36, 0x3e,
  0xf8, 0x24, 0x2e, 0x3e, 0xab, 0xc7, 0xbd, 0x3e, 0xa0, 0x42, 0xf3, 0x3d,
  0x79, 0xdd, 0x10, 0x3f, 0x2c, 0x2e, 0x23, 0xbe, 0xad, 0x98, 0xda, 0xbf,
  0xbf, 0xc5, 0x1f, 0x3f, 0xc1, 0xc4, 0x52, 0xbe, 0x7b, 0x8f, 0xe8, 0xbf,
  0x97, 0xe8, 0x2c, 0x3e, 0x60, 0x94, 0x23, 0xbd, 0x1c, 0x3f, 0x3a, 0x3e,
  0x0f, 0x9d, 0xd2, 0xbe, 0xa7, 0xfa, 0x2e, 0xbe, 0xfb, 0x94, 0x3b, 0xbc,
  0x4d, 0x2f, 0x23, 0xbf, 0x79, 0x5e, 0x1d, 0x3e, 0x49, 0x7e, 0xe6, 0x3e,
  0x00, 0x04, 0x55, 0xbe, 0xac, 0xdd, 0x41, 0xbf, 0x26, 0xf7, 0x0c, 0xc0,
  0xf5, 0x27, 0x22, 0x3f, 0x90, 0x0a, 0xe9, 0x3c, 0x60, 0x84, 0xcd, 0x3d,
  0xed, 0x28, 0xfe, 0xbe, 0x89, 0xa3, 0x1e, 0xbe, 0x0f, 0x8b, 0x4e, 0x3f,
  0x7a, 0xd3, 0x2c, 0x3e, 0x73, 0xa0, 0xcf, 0xbf, 0x4c, 0x77, 0xf1, 0xbe,
  0x6b, 0x92, 0x05, 0xbf, 0x60, 0x76, 0xbd, 0xbf, 0xba, 0x17, 0xa2, 0x3e,
  0x4e, 0x2a, 0xb8, 0x3d, 0x8e, 0xa7, 0x26, 0xbf, 0x24, 0x3a, 0x35, 0x3f,
  0xdd, 0x66, 0x0c, 0xbe, 0x6c, 0xa6, 0xdb, 0xbe, 0x77, 0xf7, 0x5e, 0xbf,
  0x7e, 0xae, 0x71, 0x3e, 0xf0, 0x7d, 0x58, 0xbe, 0x65, 0x63, 0x31, 0x3f,
  0x0c, 0x31, 0x08, 0xc0, 0x24, 0x64, 0x48, 0xbe, 0x65, 0x0b, 0x29, 0x3f,
  0xc3, 0x72, 0xa4, 0xbd, 0x5e, 0x54, 0x84, 0xbe, 0x92, 0xbc, 0x81, 0xbe,
  0x50, 0x4a, 0x63, 0x3e, 0x53, 0xe4, 0x35, 0xc0, 0x2e, 0xa6, 0x8b, 0xbe,
  0xba, 0x56, 0xff, 0x3e, 0xee, 0x9d, 0x74, 0xbf, 0x05, 0xd8, 0x87, 0xbe,
  0xb9, 0xc7, 0x61, 0x3f, 0x63, 0x99, 0x12, 0xbe, 0xf1, 0xe5, 0xda, 0x3e,
  0xb0, 0xd3, 0x14, 0xc0, 0xe0, 0x3a, 0x70, 0x3d, 0x93, 0x64, 0x05, 0xc0,
  0x50, 0x50, 0xcb, 0x3e, 0xef, 0x7c, 0x17, 0xbe, 0x83, 0x36, 0x10, 0xc0,
  0xac, 0x9f, 0x2f, 0x3e, 0x8e, 0xa7, 0x9f, 0x3e, 0xf5, 0x1a, 0x66, 0x3e,
  0xf2, 0x13, 0xd5, 0x3e, 0x94, 0x21, 0x60, 0x3e, 0x16, 0xbf, 0x11, 0x3f,
  0xa5, 0x51, 0x80, 0xbf, 0x72, 0x77, 0x0d, 0x3e, 0x26, 0xc4, 0x0c, 0xc0,
  0x37, 0x7c, 0xf2, 0x3e, 0x9c, 0x0c, 0x0f, 0x3f, 0x1f, 0x5a, 0x42, 0xbe,
  0xd9, 0xa0, 0x92, 0x3d, 0x80, 0x91, 0x8b, 0xbe, 0xca, 0x7c, 0x06, 0x3e,
  0xd1, 0x06, 0x32, 0xc0, 0x58, 0x3f, 0x6d, 0x3e, 0x28, 0x82, 0x90, 0xbe,
  0xe6, 0x9b, 0xae, 0xbf, 0x73, 0xa7, 0x9b, 0xbe, 0xe0, 0xb2, 0x13, 0xbd,
  0xd0, 0x90, 0x12, 0x3d, 0xc1, 0xde, 0xc9, 0xbf, 0x7d, 0x0f, 0x2e, 0xc0,
  0xca, 0xc9, 0x18, 0x3f, 0x61, 0x32, 0x58, 0xc0, 0x04, 0xcc, 0x15, 0xbf,
  0xc7, 0xdc, 0x10, 0xbf, 0xbb, 0x73, 0xd4, 0x3e, 0xfb, 0xd0, 0x87, 0xbd,
  0xd3, 0x63, 0x25, 0xc0, 0x20, 0x97, 0x6b, 0xbc, 0x88, 0x3d, 0xa9, 0xbf,
  0x5a, 0xce, 0xba, 0xbd, 0x34, 0xa3, 0x88, 0xbe, 0x5f, 0x5f, 0x27, 0xc0,
  0x9c, 0x93, 0xc1, 0x3d, 0xae, 0x38, 0xd8, 0x3e, 0x54, 0x6a, 0xeb, 0x3e,
  0xcb, 0xc8, 0x14, 0x3f, 0xc4, 0xe6, 0x47, 0x3f, 0x15, 0xa9, 0x93, 0x3f,
  0x3d, 0xba, 0xb9, 0x3e, 0xad, 0xd4, 0xdb, 0x3e, 0x84, 0x6f, 0x31, 0xc0,
  0x09, 0xb0, 0x98, 0xbf, 0x7a, 0x45, 0x72, 0x3e, 0xb3, 0x33, 0xd8, 0x3e,
  0x83, 0xea, 0x6c, 0xbf, 0x91, 0x7e, 0xb3, 0x3d, 0x64, 0xa4, 0x7c, 0x3e,
  0x00, 0xd9, 0xd4, 0xbe, 0x80, 0x6a, 0xba, 0x3b, 0x2b, 0x8b, 0x2a, 0xbe,
  0x7a, 0x28, 0x3f, 0x3e, 0x4b, 0xa3, 0x9c, 0xbe, 0xf0, 0x55, 0x22, 0x3e,
  0x99, 0x8a, 0x80, 0xbe, 0xbd, 0x87, 0x8a, 0xc0, 0x0e, 0x62, 0xc7, 0x3c,
  0xae, 0xc4, 0x0c, 0x3f, 0x5f, 0x00, 0x0c, 0xbc, 0x7b, 0x8a, 0x09, 0xbe,
  0xf5, 0x4d, 0xb1, 0xbb, 0x80, 0x78, 0xa1, 0xbd, 0x18, 0xc9, 0xe1, 0x3c,
  0x52, 0x71, 0x94, 0xbf, 0xd0, 0xe1, 0x62, 0x3e, 0xb4, 0xf7, 0x31, 0x3c,
  0x81, 0xb5, 0xa4, 0xbe, 0xde, 0x60, 0x9e, 0xbd, 0xaa, 0x05, 0xa4, 0xbf,
  0xc0, 0xa8, 0x88, 0x3d, 0x71, 0x37, 0xb4, 0x3e, 0x83, 0x6f, 0x15, 0x3f,
  0x91, 0x3c, 0x9a, 0x3e, 0xaf, 0x81, 0xe2, 0xbe, 0xb9, 0xf9, 0x20, 0xc0,
  0x3e, 0xbf, 0x2d, 0xbf, 0xab, 0x6c, 0xdc, 0x3e, 0x13, 0xb6, 0xde, 0xbe,
  0x87, 0xbb, 0xaf, 0x3e, 0xb2, 0xf7, 0x85, 0x3e, 0x0d, 0x0d, 0x9f, 0x3f,
  0xbd, 0xb9, 0xad, 0x3e, 0xaf, 0x7c, 0x7a, 0xbe, 0xb1, 0x63, 0x0a, 0xc0,
  0x16, 0xba, 0xa4, 0x3e, 0xee, 0xc9, 0x8f, 0xbd, 0xf0, 0xf1, 0x3d, 0xc0,
  0x4a, 0xfc, 0x45, 0xbf, 0x40, 0xad, 0x90, 0xbb, 0x6c, 0x03, 0xd0, 0xbd,
  0x02, 0x64, 0x74, 0xbe, 0xc4, 0x2d, 0x5c, 0x3f, 0x93, 0xbb, 0x96, 0xbf,
  0x1b, 0xeb, 0x94, 0xbf, 0xa6, 0x1c, 0x07, 0x3f, 0xb3, 0x11, 0x12, 0x3f,
  0x19, 0x99, 0x01, 0x3e, 0x2f, 0xe5, 0x61, 0x3f, 0x6c, 0x83, 0x91, 0xbf,
  0xa9, 0xfa, 0x00, 0x3f, 0xa0, 0x1c, 0xbc, 0xbd, 0xc2, 0x08, 0x80, 0x3f,
  0x73, 0xf6, 0xb8, 0xbf, 0xe4, 0xb4, 0x49, 0xbe, 0xe8, 0xeb, 0x1a, 0x3f,
  0xd6, 0x60, 0x6a, 0xbe, 0x6a, 0x45, 0x39, 0xc0, 0xa9, 0x04, 0x8a, 0xbe,
  0xbf, 0x1e, 0xbb, 0xbf, 0x90, 0x8d, 0x84, 0xbf, 0x2a, 0xc0, 0x18, 0xc0,
  0x9e, 0x0a, 0x05, 0x3e, 0xad, 0x95, 0x47, 0xbe, 0x41, 0xbd, 0x20, 0x3f,
  0x3e, 0x6b, 0x4a, 0xc0, 0x27, 0x47, 0x23, 0x3f, 0x5f, 0xbd, 0x22, 0x3f,
  0x1b, 0x02, 0x0b, 0xc0, 0x0c, 0x01, 0x7e, 0xbe, 0xde, 0x5e, 0x87, 0xbf,
  0xc6, 0x94, 0x0b, 0x3c, 0x20, 0x9f, 0x50, 0xbc, 0x19, 0xcd, 0xb8, 0xbf,
  0xac, 0x68, 0x15, 0x3e, 0xc0, 0xc2, 0xe5, 0xbb, 0xb8, 0x91, 0x2c, 0x3e,
  0x4d, 0xd3, 0x3f, 0xbe, 0x08, 0x11, 0x94, 0xbe, 0x12, 0xf0, 0xa3, 0xbe,
  0x71, 0x92, 0xa3, 0xbd, 0xec, 0xf1, 0xc9, 0x3d, 0xd0, 0x21, 0x6d, 0x3d,
  0x50, 0x96, 0x50, 0xbf, 0x71, 0x8e, 0x1e, 0x3f, 0x6d, 0x58, 0x95, 0xbe,
  0x9a, 0x19, 0x6f, 0xbe, 0x4c, 0x5d, 0x51, 0x3e, 0x88, 0x0e, 0x7a, 0x3d,
  0x7b, 0x75, 0x9f, 0xbd, 0x74, 0xfd, 0x80, 0x3e, 0x2d, 0xb3, 0x8e, 0xbe,
  0xf8, 0x07, 0x56, 0xbd, 0xf1, 0xdd, 0x32, 0x3e, 0x78, 0xea, 0x2a, 0x3e,
  0xc1, 0x6e, 0x7e, 0x3d, 0xdf, 0xaa, 0x19, 0xbe, 0x8f, 0xbd, 0x0e, 0xbf,
  0x92, 0x66, 0x2f, 0x3e, 0xb2, 0x7c, 0x6e, 0x3d, 0xfb, 0x81, 0xe4, 0x3a,
  0xcf, 0x70, 0x6c, 0xbf, 0x82, 0x2a, 0x2c, 0xbe, 0x2c, 0x57, 0x3d, 0x3e,
  0x57, 0x03, 0xd4, 0xbe, 0x27, 0xab, 0x8f, 0xbe, 0xf8, 0x92, 0x4e, 0x3e,
  0xad, 0xea, 0x8d, 0x3d, 0x94, 0x6a, 0x9a, 0x3d, 0x8f, 0x96, 0x43, 0xbf,
  0x6e, 0xea, 0xf2, 0x3e, 0x5c, 0x86, 0x60, 0x3e, 0x87, 0x3d, 0x94, 0xbe,
  0x9d, 0x20, 0x16, 0xc0, 0x38, 0xa6, 0x58, 0xbf, 0xbd, 0x5a, 0x0c, 0x3f,
  0x90, 0x71, 0x21, 0xbe, 0xf3, 0x35, 0x93, 0x3e, 0x15, 0x99, 0xd0, 0xbf,
  0xf6, 0xf1, 0xbf, 0x3e, 0xc1, 0x15, 0x26, 0xc0, 0x4b, 0x5a, 0x8e, 0x3e,
  0x1d, 0xab, 0xe5, 0xbf, 0xcd, 0x3a, 0x38, 0xbe, 0x59, 0x45, 0xb9, 0xbe,
  0x30, 0x16, 0x73, 0x3e, 0xc8, 0x3b, 0x1d, 0x3e, 0x1a, 0xe5, 0xe1, 0xbe,
  0xe0, 0xb3, 0x34, 0x3e, 0xe9, 0xc4, 0xc8, 0xbe, 0x22, 0xad, 0xf3, 0xbd,
  0xae, 0x2a, 0xe4, 0xbe, 0x37, 0x95, 0x60, 0xc0, 0x2e, 0xc6, 0x03, 0xbe,
  0xa4, 0x49, 0x54, 0xc0, 0xd6, 0xaf, 0x5a, 0xbf, 0xfc, 0x83, 0x47, 0x3e,
  0x3e, 0x6c, 0x98, 0x3e, 0xd5, 0x41, 0x0a, 0x3f, 0xd4, 0x7d, 0xa3, 0xbf,
  0xff, 0x23, 0x4a, 0x3f, 0xfe, 0xaf, 0x3e, 0x3e, 0xa6, 0xd5, 0xfc, 0xbf,
  0xd6, 0x64, 0xb4, 0x3e, 0x9e, 0xd6, 0x8e, 0xbe, 0xdb, 0x7b, 0xca, 0x3e,
  0x4f, 0xed, 0x44, 0x3e, 0x90, 0xef, 0x4f, 0xbd, 0x5c, 0x3d, 0x0e, 0xbe,
  0xfd, 0x88, 0x91, 0x3e, 0x99, 0xca, 0x55, 0xc0, 0x5b, 0x49, 0x6a, 0x3e,
  0xd7, 0x98, 0x1b, 0xbe, 0xed, 0x36, 0xc0, 0xbc, 0x4d, 0x47, 0xd5, 0xbe,
  0xd8, 0x0a, 0x99, 0xbe, 0x98, 0xa4, 0x1e, 0xc0, 0xa9, 0xec, 0xc0, 0x3e,
  0xcf, 0x7b, 0xed, 0x3e, 0x10, 0xe2, 0x81, 0x3c, 0x0b, 0xb4, 0x8f, 0xbe,
  0x1a, 0xe0, 0xaa, 0xbe, 0x41, 0xaa, 0x08, 0xbe, 0x88, 0x36, 0x3e, 0xbe,
  0x18, 0xc0, 0x9b, 0x3e, 0xeb, 0xa7, 0x3e, 0x3d, 0x8d, 0xfa, 0x90, 0xbe,
  0xd8, 0x8d, 0x63, 0xbf, 0xbe, 0xc1, 0x83, 0xbf, 0x2e, 0xb5, 0x2e, 0xc0,
  0x00, 0x98, 0x4e, 0x3d, 0xbb, 0xcd, 0xd1, 0xbe, 0xfb, 0x50, 0x07, 0x3d,
  0xaf, 0x83, 0x02, 0x3f, 0x5d, 0x78, 0xd3, 0x3e, 0x4c, 0xc6, 0x73, 0xbf,
  0x67, 0xc4, 0x1d, 0x3e, 0xa1, 0xa0, 0x63, 0x3e, 0xef, 0xcc, 0xd8, 0xbf,
  0xb5, 0xdf, 0x5e, 0x3e, 0xf8, 0x1d, 0x14, 0x3d, 0x80, 0x43, 0x0b, 0xbf,
  0x9c, 0x36, 0xed, 0x3e, 0x20, 0xa1, 0x7d, 0x3c, 0x00, 0xd6, 0xc7, 0xbc,
  0xb8, 0x24, 0x1c, 0xc0, 0x83, 0xde, 0x8f, 0xc0, 0xef, 0xa5, 0x3a, 0x3f,
  0x5f, 0xed, 0xe5, 0x3e, 0xca, 0x94, 0x87, 0xbf, 0x9c, 0x41, 0x4e, 0xc0,
  0xc2, 0xf2, 0x49, 0x3d, 0x51, 0xfc, 0xcb, 0xbf, 0x31, 0x13, 0x22, 0x3f,
  0x80, 0x50, 0xb7, 0xbe, 0x87, 0x82, 0x8c, 0xbe, 0x4d, 0xe2, 0x36, 0xc0,
  0xe9, 0xbb, 0x84, 0x3e, 0x1e, 0x4c, 0x9b, 0x3e, 0xb0, 0xe3, 0x27, 0x3f,
  0xf0, 0xc4, 0x9a, 0xbc, 0xca, 0x2f, 0x90, 0xbf, 0xd4, 0x9c, 0xcb, 0xbc,
  0xcb, 0xda, 0xd8, 0x3d, 0x62, 0xc7, 0xe9, 0xbf, 0x88, 0x2f, 0x88, 0x3f,
  0x57, 0x8e, 0xe9, 0x3e, 0x52, 0x46, 0x1b, 0xbf, 0x8f, 0x18, 0x0c, 0xbf,
  0x58, 0x9d, 0xb7, 0x3e, 0x11, 0x1e, 0x4c, 0xbf, 0x3b, 0xcc, 0x0d, 0xc0,
  0x88, 0xed, 0x06, 0x3f, 0x67, 0x89, 0x11, 0xbe, 0xea, 0x14, 0xbf, 0xbf,
  0x32, 0x37, 0x82, 0x3f, 0x40, 0x13, 0xb9, 0xbc, 0x37, 0xa0, 0x4f, 0x3d,
  0xbf, 0x72, 0xa9, 0xbe, 0xf4, 0x19, 0x49, 0x3e, 0x3c, 0xa3, 0x49, 0xbe,
  0x83, 0x9a, 0x12, 0x3f, 0x56, 0xc0, 0xb4, 0xbf, 0x57, 0xb0, 0xb3, 0x3e,
  0x27, 0x6e, 0x79, 0xbf, 0x15, 0x57, 0xb8, 0xbe, 0x02, 0x63, 0x9b, 0xbe,
  0x67, 0xd3, 0x6f, 0xc0, 0xe0, 0xd6, 0x0e, 0x3f, 0xc3, 0xb7, 0x8c, 0x3b,
  0xf0, 0xe6, 0x6b, 0x3f, 0x58, 0xb7, 0x03, 0xbd, 0x28, 0x5c, 0x2b, 0x3d,
  0xbc, 0x02, 0x85, 0xbf, 0x00, 0x92, 0xc6, 0xba, 0x9e, 0x1d, 0x4b, 0x3e,
  0x98, 0x5f, 0x2a, 0xbd, 0x18, 0xe2, 0x69, 0x3f, 0x61, 0x99, 0xa8, 0x3e,
  0x9b, 0x82, 0x03, 0xc0, 0x3d, 0x43, 0x96, 0xbf, 0x7b, 0x59, 0xe4, 0xbe,
  0x39, 0xc2, 0x6d, 0x3f, 0xef, 0x51, 0x13, 0x3e, 0xe5, 0x7b, 0x65, 0x3d,
  0xc1, 0x37, 0xdd, 0xbe, 0x56, 0x64, 0x6d, 0xbf, 0xad, 0xdb, 0x8c, 0xbc,
  0xb6, 0x24, 0x9e, 0xbf, 0x3d, 0x7e, 0xbf, 0xbc, 0x9c, 0xe6, 0x9b, 0xbf,
  0x8b, 0x01, 0xbb, 0xbe, 0x40, 0x4c, 0xb7, 0x3d, 0xee, 0xbf, 0x8b, 0xbf,
  0x06, 0x2c, 0xcd, 0x3e, 0x94, 0xe5, 0x9a, 0x3e, 0xf2, 0x9e, 0x32, 0xbe,
  0xaa, 0x15, 0x24, 0xc0, 0xdf, 0x35, 0x53, 0x3f, 0x05, 0xff, 0x36, 0xbe,
  0x8a, 0xb5, 0x31, 0x3e, 0x06, 0x8e, 0xb4, 0x3e, 0xfe, 0xdf, 0xd2, 0xbe,
  0xc6, 0xee, 0xd2, 0xbe, 0x47, 0x9e, 0x55, 0xbf, 0x0a, 0x5b, 0xff, 0xbf,
  0xf4, 0x94, 0xbe, 0x3d, 0xc0, 0x2f, 0x4f, 0xbe, 0xa0, 0xd7, 0xb0, 0x3c,
  0x69, 0x8a, 0x08, 0x3f, 0x31, 0x8a, 0x12, 0xbe, 0xaf, 0x9d, 0x1f, 0x3f,
  0xf4, 0xb9, 0x83, 0xbe, 0x4a, 0x12, 0x2a, 0xc0, 0x6e, 0x37, 0x8f, 0xbf,
  0xea, 0x76, 0xec, 0xbb, 0x3d, 0x0a, 0x1f, 0x3f, 0x60, 0x4b, 0x51, 0xbf,
  0xf6, 0x57, 0xe8, 0x3e, 0xa5, 0x68, 0xae, 0xbf, 0x94, 0xf6, 0x08, 0x3f,
  0xd2, 0x1a, 0x9f, 0xbf, 0xb0, 0x0c, 0x35, 0xc0, 0x48, 0x55, 0x8c, 0x3e,
  0x68, 0xc1, 0xaa, 0xbf, 0xf3, 0xd9, 0x37, 0x3d, 0x82, 0x24, 0x6c, 0xbe,
  0x74, 0x51, 0xe2, 0xbd, 0x3e, 0x58, 0xc3, 0xbd, 0x67, 0x39, 0x7e, 0x3f,
  0xf4, 0x2d, 0x65, 0xbf, 0x49, 0xf3, 0x82, 0xbe, 0xb4, 0x02, 0x65, 0x3e,
  0x39, 0x65, 0x6a, 0x3f, 0xaa, 0x03, 0x5a, 0xc0, 0xb7, 0x85, 0xf8, 0xbe,
  0xc9, 0x2e, 0x4c, 0x3e, 0x71, 0xc3, 0xf9, 0xbf, 0x4b, 0xa7, 0x8f, 0xbe,
  0xde, 0xc6, 0x77, 0xbf, 0x4b, 0xe4, 0xe3, 0x3e, 0x8d, 0xd4, 0xde, 0x3e,
  0xea, 0xd7, 0x03, 0xbf, 0x90, 0x31, 0x37, 0x3e, 0x29, 0xb0, 0x68, 0xbf,
  0x3c, 0x33, 0x22, 0xbf, 0x00, 0x7f, 0xd0, 0x3d, 0xe9, 0xff, 0x0b, 0xc0,
  0xc2, 0x82, 0x5f, 0xbe, 0x19, 0xf2, 0x3a, 0x3f, 0x28, 0x5c, 0xf5, 0x3d,
  0xd8, 0x93, 0x98, 0xbd, 0x19, 0x0b, 0x75, 0xbe, 0x1b, 0xba, 0xdc, 0x3e,
  0x1c, 0x13, 0xd9, 0x3d, 0xdf, 0x6d, 0x44, 0x3f, 0x68, 0xb4, 0x1a, 0xc0,
  0xe6, 0x43, 0x43, 0xbe, 0xf6, 0xe8, 0x1d, 0x3e, 0x82, 0x8b, 0x22, 0x3e,
  0x3e, 0xee, 0x8f, 0xbe, 0x31, 0x61, 0xea, 0x3d, 0x00, 0x00, 0x00, 0x00,
  0x02, 0xf7, 0xff, 0xff, 0x04, 0x00, 0x00, 0x00, 0xa0, 0x05, 0x00, 0x00,
  0xf9, 0x35, 0xac, 0xbe, 0x64, 0x7f, 0x57, 0x3f, 0x99, 0xce, 0x6c, 0x3f,
  0xf6, 0x81, 0x92, 0xbf, 0x3e, 0x3c, 0x92, 0xbf, 0x00, 0x3c, 0xe0, 0x3e,
  0x0a, 0xda, 0x27, 0xbf, 0xcb, 0xf8, 0x3e, 0x3f, 0x00, 0x7c, 0x98, 0x3b,
  0xcb, 0x9e, 0x2b, 0x3e, 0xa7, 0xd2, 0x8f, 0xbe, 0x7c, 0xde, 0x4d, 0xbe,
  0x80, 0x89, 0x55, 0x3f, 0xa9, 0x61, 0xf0, 0x3f, 0xf6, 0x42, 0x4f, 0x3e,
  0x93, 0xc1, 0xc7, 0xbe, 0xc0, 0xa9, 0x8b, 0x3f, 0xe8, 0x28, 0xf6, 0xbf,
  0x28, 0xd2, 0x23, 0x3d, 0x41, 0x66, 0x9d, 0x3e, 0x74, 0xa8, 0x89, 0x3d,
  0x65, 0xcc, 0x4e, 0xbe, 0x3b, 0x9a, 0x5c, 0xbe, 0x45, 0x1b, 0xb1, 0xbe,
  0x74, 0xcd, 0x58, 0xbe, 0x50, 0xcd, 0xe5, 0xbc, 0x3d, 0x05, 0x8c, 0xbe,
  0x9c, 0x78, 0x95, 0xbe, 0xe8, 0x03, 0xf8, 0xbd, 0x10, 0x81, 0xdc, 0x3d,
  0x51, 0x95, 0x1c, 0xbf, 0x58, 0x86, 0x29, 0x3f, 0x17, 0x34, 0xbf, 0x3f,
  0x6e, 0x91, 0x91, 0xbf, 0xad, 0x82, 0x05, 0xbf, 0x1b, 0xac, 0x3e, 0x3f,
  0xb7, 0xe2, 0xa4, 0xbd, 0x63, 0xfc, 0x91, 0xbf, 0x40, 0xda, 0x5b, 0x3d,
  0xcf, 0x4d, 0x08, 0x3f, 0x65, 0x1c, 0xa3, 0x3f, 0x5d, 0x59, 0x22, 0x3f,
  0x41, 0xf6, 0xaf, 0xbe, 0xe4, 0xf8, 0xa2, 0x3d, 0x40, 0x60, 0x70, 0x3f,
  0xb9, 0x27, 0x6b, 0xbf, 0x35, 0xd0, 0x94, 0x3f, 0x80, 0xcd, 0x7d, 0xbe,
  0x01, 0xc2, 0xb8, 0x3e, 0x03, 0x01, 0x64, 0xbe, 0xec, 0xad, 0x87, 0xbe,
  0xf8, 0x44, 0x6d, 0xbe, 0xa2, 0xd0, 0xaa, 0xbe, 0xa2, 0xe5, 0x62, 0x3e,
  0x4c, 0xaf, 0xc5, 0xbd, 0x70, 0x9b, 0xa3, 0xbd, 0xcf, 0x15, 0x87, 0xbe,
  0x21, 0x35, 0x92, 0xbe, 0xfa, 0x54, 0x2f, 0x3e, 0x5c, 0x72, 0xd4, 0xbd,
  0xd8, 0xf1, 0x9d, 0x3d, 0xb3, 0x73, 0x59, 0xbe, 0x04, 0x26, 0xa4, 0xbe,
  0x9e, 0xe2, 0x3c, 0xbe, 0x00, 0xfa, 0xa6, 0xbb, 0xcc, 0x96, 0x63, 0xbe,
  0x1c, 0xba, 0x01, 0x3e, 0x90, 0x0a, 0x94, 0xbd, 0xdb, 0xb9, 0x52, 0xbe,
  0x31, 0xe1, 0x7a, 0xbe, 0x93, 0x91, 0x26, 0xbf, 0xc5, 0xfe, 0xfc, 0x3e,
  0xc2, 0xb5, 0xb4, 0x3f, 0xc6, 0x33, 0xd3, 0xbe, 0x68, 0x84, 0x22, 0xbf,
  0x9c, 0x71, 0x98, 0x3f, 0xba, 0x08, 0x39, 0xbf, 0xb1, 0x78, 0x06, 0xbf,
  0x4e, 0x2b, 0x67, 0x3e, 0x07, 0x0a, 0x15, 0x3f, 0x51, 0x56, 0x39, 0x3f,
  0x86, 0xd7, 0x4a, 0xbe, 0xef, 0x05, 0x65, 0x3f, 0xf3, 0x42, 0x23, 0x3f,
  0x75, 0x93, 0xa0, 0x3f, 0xfa, 0xab, 0xdb, 0xbe, 0x5e, 0x60, 0x99, 0xbf,
  0xb0, 0xfe, 0xda, 0x3f, 0xae, 0xfa, 0x36, 0xbe, 0xd8, 0xd4, 0x8b, 0xbf,
  0x28, 0x57, 0x4b, 0x3f, 0x1d, 0x2f, 0xcd, 0x3e, 0x44, 0x4a, 0x0e, 0xbf,
  0x22, 0x90, 0x91, 0x3f, 0x3f, 0x67, 0xcd, 0x3f, 0x80, 0xce, 0x1b, 0xbf,
  0x5a, 0x70, 0xeb, 0x3f, 0x19, 0x7b, 0xa2, 0xbf, 0xb1, 0x08, 0x07, 0xbe,
  0x37, 0x99, 0x07, 0x3f, 0xd2, 0xb6, 0x11, 0x3d, 0xce, 0x4e, 0xd7, 0x3e,
  0xbf, 0x44, 0x80, 0xbf, 0xcd, 0xae, 0xa7, 0xbe, 0xb2, 0x12, 0x88, 0x3f,
  0x8e, 0x61, 0x99, 0x3f, 0x33, 0x83, 0x1f, 0x3e, 0x3d, 0x1a, 0xc2, 0x3f,
  0x54, 0xc0, 0xd2, 0xbd, 0x9c, 0x77, 0x4f, 0x3f, 0x40, 0x46, 0xad, 0x3f,
  0x9f, 0xdc, 0xc5, 0x3e, 0x4d, 0x23, 0x6e, 0x3f, 0x23, 0x24, 0xb7, 0xbc,
  0x88, 0x56, 0x64, 0xbd, 0x7f, 0x4d, 0xa5, 0xbf, 0xa1, 0xe4, 0x5f, 0xbe,
  0xd0, 0x6f, 0xb5, 0x3f, 0x44, 0x5b, 0x7b, 0xbe, 0xb8, 0x72, 0xa4, 0xbf,
  0xfa, 0x05, 0x56, 0xbd, 0x9c, 0x61, 0x57, 0x3e, 0xd4, 0x50, 0xd2, 0x3f,
  0x53, 0xf2, 0x82, 0xbe, 0x60, 0x57, 0xc6, 0xbe, 0x84, 0xbb, 0x94, 0x3e,
  0x33, 0x1f, 0x61, 0xbf, 0xaa, 0x8c, 0x91, 0x3f, 0xfa, 0xfb, 0x35, 0x3e,
  0x78, 0x1f, 0x96, 0xbe, 0xd3, 0x02, 0x25, 0x3f, 0xb7, 0x15, 0x32, 0x3f,
  0x9d, 0x53, 0xc1, 0x3e, 0x0a, 0x82, 0x93, 0xbf, 0xa2, 0x27, 0xb2, 0x3e,
  0x87, 0xf3, 0x83, 0xbf, 0x52, 0x35, 0x4a, 0x3e, 0x4f, 0xe0, 0xcc, 0x3f,
  0xde, 0xde, 0x00, 0x3e, 0x50, 0xad, 0x34, 0x3e, 0x23, 0xf6, 0x8b, 0xbf,
  0xc5, 0xf6, 0x02, 0x3e, 0x37, 0x1b, 0x8e, 0x3e, 0x47, 0xc7, 0x30, 0x3f,
  0xc4, 0xa4, 0xc8, 0xbf, 0xd8, 0xbe, 0xb0, 0x3f, 0x44, 0x14, 0x2c, 0xbf,
  0x03, 0xc0, 0xa2, 0x3f, 0xe4, 0x79, 0x0e, 0xbe, 0x43, 0xad, 0x80, 0x3f,
  0xc7, 0x6f, 0x7c, 0xbe, 0xf6, 0x4a, 0x28, 0x3f, 0x01, 0x61, 0x56, 0xbf,
  0x56, 0xaa, 0x92, 0xbe, 0xa4, 0xd9, 0xa3, 0xbc, 0x23, 0x1f, 0x57, 0x3f,
  0xef, 0x26, 0x9d, 0x3f, 0xc6, 0xf3, 0x89, 0xbf, 0x03, 0x31, 0x03, 0xbe,
  0x12, 0xb7, 0xa6, 0x3f, 0x46, 0x4b, 0x18, 0xbf, 0xfa, 0xe5, 0xaf, 0xbe,
  0x4e, 0xec, 0x9c, 0x3f, 0xe6, 0xf8, 0x99, 0x3f, 0xd7, 0xf8, 0x4b, 0x3f,
  0xde, 0x1d, 0x8f, 0xbe, 0x1a, 0xa1, 0x5f, 0xbe, 0x34, 0x2f, 0x27, 0xbf,
  0x80, 0x54, 0x34, 0xbb, 0x41, 0x28, 0x0f, 0xbe, 0x10, 0x68, 0x8d, 0xbe,
  0x20, 0x5f, 0xd2, 0xbc, 0x98, 0xd3, 0x78, 0xbe, 0x68, 0x47, 0xd3, 0xbd,
  0xae, 0x1d, 0x70, 0x3e, 0xc8, 0xc0, 0xc9, 0x3d, 0xac, 0xb2, 0x73, 0xbe,
  0xc2, 0xfe, 0x19, 0x3e, 0x50, 0x97, 0xf1, 0x3c, 0x16, 0xc3, 0x8f, 0xbe,
  0xe3, 0xb6, 0x78, 0x3f, 0x2e, 0x2a, 0x4d, 0xbd, 0x75, 0xd2, 0xc2, 0x3f,
  0xb4, 0x1c, 0x75, 0x3f, 0x59, 0x29, 0xa8, 0xbf, 0x2c, 0x67, 0x7b, 0x3e,
  0x74, 0x32, 0x30, 0xbf, 0xa4, 0x42, 0x46, 0x3f, 0xc0, 0x4b, 0x8e, 0xbe,
  0xfe, 0x60, 0x91, 0xbf, 0xad, 0x3b, 0xee, 0x3e, 0x3a, 0x16, 0x1d, 0x3f,
  0xca, 0x1f, 0x5b, 0xbf, 0x65, 0xeb, 0x40, 0xbd, 0x56, 0x93, 0xd3, 0x3f,
  0x32, 0xcd, 0x4c, 0xbf, 0x82, 0xeb, 0x7d, 0xbc, 0x06, 0x6c, 0xa0, 0x3f,
  0xd8, 0x52, 0x5b, 0xbe, 0x16, 0xf7, 0x2a, 0x3f, 0x82, 0x11, 0x59, 0xbe,
  0x84, 0xb7, 0x78, 0xbe, 0x57, 0x37, 0x22, 0xbe, 0x92, 0x3d, 0x1f, 0xbe,
  0x50, 0xc3, 0x43, 0x3d, 0x45, 0xc2, 0xab, 0x3e, 0x31, 0x18, 0x4c, 0xbe,
  0x84, 0xd2, 0xb1, 0xbd, 0xdd, 0x39, 0xa3, 0xbe, 0x80, 0xda, 0x50, 0x3c,
  0xf7, 0x62, 0x5d, 0xbe, 0xa5, 0xde, 0xcf, 0xbe, 0xe8, 0x68, 0x16, 0x3f,
  0xf4, 0xa2, 0xa1, 0x3f, 0x0d, 0xb9, 0x16, 0x40, 0x6c, 0x3e, 0x72, 0xbf,
  0x3f, 0x11, 0xb5, 0x3e, 0xbb, 0xf3, 0xcd, 0xbd, 0x27, 0x2c, 0x93, 0x3e,
  0x84, 0x6b, 0x31, 0x3d, 0x77, 0x08, 0x96, 0xbe, 0xce, 0xc8, 0x89, 0xbe,
  0x78, 0xe0, 0x34, 0xbd, 0x4b, 0xfe, 0x49, 0xbe, 0xc0, 0xf4, 0x1a, 0x3d,
  0x69, 0x37, 0x08, 0xbe, 0xf8, 0x3d, 0x9c, 0x3d, 0x12, 0x7b, 0x44, 0x3e,
  0x52, 0x7a, 0x65, 0x3e, 0xf0, 0x02, 0xef, 0x3c, 0x69, 0x2a, 0x1f, 0xbf,
  0x2a, 0x3e, 0x22, 0x3f, 0x27, 0x69, 0x52, 0xbd, 0xdf, 0xb3, 0x35, 0x3e,
  0x7a, 0x96, 0xb1, 0xbf, 0x8a, 0x40, 0x04, 0x40, 0x7b, 0x98, 0x3b, 0x3d,
  0x1e, 0x7f, 0x41, 0xbf, 0x38, 0x8c, 0xc8, 0xbd, 0x65, 0xc4, 0x86, 0x3f,
  0x83, 0xe5, 0x04, 0xbf, 0xd3, 0x6b, 0xe8, 0x3e, 0xbc, 0x8f, 0x24, 0xbf,
  0x61, 0xd6, 0x3c, 0x3f, 0x30, 0x02, 0xf6, 0xbf, 0x03, 0x97, 0xab, 0x3f,
  0x1c, 0x6d, 0xcb, 0x3e, 0x78, 0xf1, 0x1b, 0x3f, 0x52, 0xc9, 0x7c, 0x3e,
  0xc7, 0x69, 0x92, 0x3f, 0x62, 0x55, 0xe5, 0x3c, 0x2e, 0x78, 0x06, 0x3f,
  0x18, 0x27, 0x75, 0xbe, 0x95, 0x94, 0x87, 0xbf, 0xb8, 0xcd, 0x3c, 0x3f,
  0xc4, 0x20, 0x8a, 0x3f, 0xc5, 0x36, 0xf2, 0xbe, 0x5c, 0xcb, 0x0e, 0x40,
  0x8c, 0x61, 0x63, 0xbe, 0x97, 0x26, 0x1a, 0x3f, 0x14, 0xeb, 0x11, 0xbf,
  0x72, 0x76, 0xfa, 0x3e, 0xb7, 0x1b, 0x8b, 0x3e, 0x98, 0x6a, 0x9d, 0xbd,
  0xf3, 0x74, 0xb5, 0x3f, 0xb0, 0x49, 0xde, 0x3f, 0xeb, 0xc8, 0x83, 0xbf,
  0x66, 0x8d, 0x04, 0x40, 0xc6, 0xad, 0x16, 0x3e, 0xb4, 0xb5, 0xc2, 0x3e,
  0xa8, 0x3b, 0x24, 0xbf, 0xca, 0x32, 0x95, 0xbe, 0x55, 0x88, 0x3e, 0xbe,
  0x6e, 0xcf, 0xc5, 0xbe, 0x1e, 0x60, 0xd2, 0x3f, 0x33, 0x05, 0xad, 0x3e,
  0xa5, 0xa3, 0x23, 0x3e, 0x84, 0x52, 0x6f, 0x3f, 0x5d, 0x50, 0x98, 0x3e,
  0xe3, 0xf9, 0x48, 0x3f, 0x68, 0x81, 0x53, 0xbf, 0x3b, 0x0d, 0xf6, 0xbe,
  0x37, 0x13, 0xc3, 0x3e, 0x4a, 0x38, 0x8c, 0x3f, 0xef, 0xfa, 0xe3, 0x3f,
  0x0e, 0x27, 0x8b, 0x3f, 0x95, 0x67, 0x29, 0xbe, 0x32, 0xb5, 0xca, 0x3c,
  0x70, 0x7b, 0xef, 0x3d, 0x71, 0x8c, 0x52, 0x3f, 0x41, 0x45, 0x4d, 0xbf,
  0x91, 0x8e, 0xa3, 0x3e, 0x0c, 0x56, 0x34, 0xbe, 0xe1, 0x58, 0x0d, 0x3f,
  0xf4, 0x11, 0x9c, 0xbf, 0xac, 0x8c, 0xc9, 0x3f, 0x60, 0x73, 0x67, 0x3d,
  0x0f, 0x94, 0x23, 0x3f, 0x10, 0x11, 0xb0, 0xbe, 0xf7, 0x68, 0x88, 0x3f,
  0xae, 0xa5, 0xa7, 0x3f, 0x0c, 0xe6, 0x02, 0x3e, 0xd2, 0x82, 0x93, 0x3f,
  0x7f, 0xfd, 0xbb, 0x3f, 0xad, 0x21, 0x48, 0x3e, 0x12, 0xf9, 0x90, 0xbf,
  0x5b, 0x61, 0x20, 0x3c, 0x1e, 0x03, 0xc9, 0xbe, 0x68, 0x92, 0x70, 0x3d,
  0xbc, 0x18, 0x21, 0xbf, 0x07, 0x64, 0x85, 0x3e, 0x6b, 0x80, 0x36, 0x3f,
  0x63, 0x6a, 0x50, 0x3e, 0xf7, 0xb8, 0x25, 0xbf, 0x3a, 0xce, 0x8d, 0x3e,
  0x45, 0x0d, 0xc3, 0xbe, 0x0e, 0x44, 0x83, 0x3f, 0x19, 0xc2, 0x7e, 0xbf,
  0x64, 0xb2, 0xe4, 0x3d, 0x40, 0x57, 0xee, 0x3e, 0x43, 0x62, 0x8d, 0x3f,
  0x61, 0x2e, 0x66, 0x3f, 0x63, 0x89, 0x31, 0x3f, 0xf2, 0xf5, 0x7c, 0xbf,
  0x4a, 0x72, 0x07, 0xc0, 0xdd, 0x31, 0x8a, 0x3e, 0xd6, 0x5b, 0x23, 0x3f,
  0x4c, 0x4d, 0xb6, 0x3d, 0x18, 0xdc, 0x56, 0xbe, 0xea, 0xfc, 0xdf, 0x3e,
  0xf7, 0x7b, 0x1f, 0xbe, 0xd8, 0x9e, 0x3d, 0x3e, 0xcf, 0xc7, 0x80, 0xbe,
  0xbf, 0x3a, 0x4c, 0x3f, 0x1f, 0xc3, 0x7b, 0xbf, 0xe3, 0x16, 0xeb, 0x3f,
  0xe8, 0x16, 0x2c, 0xbf, 0xd0, 0x4f, 0xc9, 0x3f, 0x6e, 0xf8, 0x7c, 0x3e,
  0x95, 0x7f, 0x79, 0x3e, 0x80, 0x05, 0xb8, 0x3f, 0x12, 0xef, 0xcc, 0x3e,
  0x17, 0x50, 0x32, 0xbf, 0x37, 0x1e, 0xcf, 0xbe, 0xda, 0xfc, 0x73, 0x3e,
  0x21, 0x13, 0xf6, 0xbd, 0xa8, 0xbc, 0xac, 0x3f, 0xd3, 0x94, 0xb5, 0xbe,
  0xd2, 0x9a, 0x62, 0xbe, 0xc5, 0x4f, 0xbd, 0x3e, 0x07, 0x97, 0x92, 0x3e,
  0x53, 0x1d, 0xbf, 0xbe, 0x25, 0x1f, 0x05, 0x3d, 0x06, 0x7c, 0xdc, 0xbd,
  0x95, 0xa5, 0x42, 0x3c, 0x22, 0x8a, 0x63, 0x3e, 0x94, 0x82, 0x56, 0x3e,
  0x30, 0x09, 0x4b, 0xbe, 0x8b, 0xf8, 0x98, 0x3e, 0x7f, 0x51, 0x81, 0xbe,
  0x00, 0x00, 0x00, 0x00, 0xb2, 0xfc, 0xff, 0xff, 0x04, 0x00, 0x00, 0x00,
  0x40, 0x01, 0x00, 0x00, 0xc7, 0x19, 0x70, 0x3e, 0x98, 0xfd, 0xcd, 0xbe,
  0x30, 0x81, 0xd6, 0x3f, 0xc3, 0x12, 0x48, 0xbc, 0x48, 0x2c, 0xfd, 0x3e,
  0x96, 0x5d, 0x02, 0x3f, 0xa0, 0xdf, 0x44, 0xc0, 0xde, 0x81, 0x5f, 0x3f,
  0xf5, 0x0d, 0x7a, 0x3f, 0xdd, 0xc2, 0x8d, 0x3f, 0xc4, 0xfd, 0xc6, 0x3f,
  0x67, 0xb0, 0x70, 0xbe, 0x0b, 0xf2, 0x20, 0x3f, 0xa4, 0x26, 0xf6, 0x3f,
  0xcb, 0x51, 0xc1, 0x3f, 0xa4, 0x5f, 0x61, 0xbe, 0x3f, 0xfc, 0x87, 0xbf,
  0x3a, 0xbc, 0x39, 0xbf, 0xa2, 0xb4, 0x9c, 0xbe, 0x12, 0x0c, 0x19, 0x3c,
  0x79, 0x3e, 0xcf, 0x3e, 0x51, 0x46, 0x75, 0x3f, 0xa0, 0xb2, 0x29, 0x40,
  0x2b, 0x49, 0xba, 0x3f, 0xed, 0xb4, 0x91, 0x3f, 0x5a, 0x77, 0x1a, 0x3e,
  0x13, 0x62, 0xba, 0xbf, 0x7e, 0x7c, 0x5e, 0x3f, 0xbd, 0x7a, 0x0a, 0x3f,
  0x48, 0x34, 0xa5, 0xbf, 0x72, 0x78, 0x61, 0xbf, 0xe3, 0xa7, 0xa0, 0x3f,
  0x9e, 0x0a, 0xb8, 0x3e, 0x1d, 0xc8, 0x43, 0xbf, 0xbb, 0x2f, 0x36, 0x3d,
  0xd0, 0x61, 0x3d, 0x40, 0xc4, 0x12, 0xb8, 0x3f, 0x2c, 0x07, 0xbf, 0xbd,
  0xb6, 0x7f, 0xdb, 0xbe, 0x3e, 0xbe, 0x04, 0xbe, 0x77, 0xef, 0x81, 0x3f,
  0x31, 0x2a, 0xdc, 0x3e, 0x35, 0x33, 0xcc, 0xbe, 0xce, 0x94, 0x43, 0xbf,
  0x9e, 0x39, 0x78, 0x3e, 0x84, 0x89, 0x83, 0xbe, 0x84, 0xab, 0x24, 0x40,
  0x38, 0xc6, 0x69, 0xbf, 0x00, 0x52, 0xa3, 0x3e, 0x4b, 0x04, 0xf4, 0x3f,
  0xc2, 0x22, 0x99, 0x3f, 0x51, 0x82, 0x9b, 0x3f, 0xc6, 0xec, 0xc3, 0x3e,
  0xc6, 0xbe, 0x59, 0xbf, 0x3a, 0x1b, 0x2b, 0xc0, 0x26, 0x03, 0xa7, 0x3d,
  0xcc, 0x97, 0xd3, 0x3f, 0xe0, 0xae, 0xc7, 0xbf, 0xa8, 0xd0, 0x47, 0x3f,
  0x42, 0xef, 0x6e, 0x3f, 0xc1, 0x70, 0x40, 0x3e, 0xf5, 0xd1, 0x57, 0x3f,
  0x23, 0x04, 0xa8, 0x3f, 0x36, 0x7b, 0xe6, 0xbe, 0x40, 0xc0, 0xbc, 0xbe,
  0x00, 0x4b, 0x43, 0xbc, 0x88, 0x38, 0x84, 0xbd, 0xc8, 0xbf, 0xc5, 0x3e,
  0x92, 0x1f, 0xe0, 0xbe, 0xc8, 0x68, 0xdb, 0x3e, 0x52, 0xb9, 0xf3, 0xbe,
  0xdb, 0xd2, 0xf6, 0xbe, 0xf3, 0x2b, 0x4e, 0x3f, 0x5d, 0x80, 0xa6, 0x3f,
  0x08, 0x39, 0x6a, 0xbe, 0x8b, 0xef, 0x67, 0x3f, 0xfe, 0xda, 0x63, 0x3e,
  0x8a, 0x0e, 0x0f, 0xbf, 0xb4, 0x35, 0x0a, 0x40, 0x13, 0x16, 0x78, 0xbf,
  0x00, 0x00, 0x00, 0x00, 0x02, 0xfe, 0xff, 0xff, 0x04, 0x00, 0x00, 0x00,
  0x68, 0x00, 0x00, 0x00, 0x22, 0x00, 0x0c, 0x3d, 0x7b, 0xb7, 0x48, 0xbe,
  0x2b, 0xc1, 0xd3, 0xbe, 0xc9, 0xe2, 0x08, 0xbe, 0x5d, 0x21, 0xbc, 0x3e,
  0x33, 0x86, 0x21, 0xbc, 0x79, 0x22, 0xe2, 0xbe, 0x2d, 0x5e, 0x7f, 0xbe,
  0x4a, 0xdf, 0xcb, 0x3d, 0x11, 0x12, 0x25, 0xbf, 0x83, 0xc6, 0xad, 0xbc,
  0x1c, 0x75, 0xcf, 0xbe, 0x45, 0x18, 0x27, 0xbe, 0x7d, 0x8f, 0x71, 0xbc,
  0xfe, 0x0a, 0xdf, 0x3e, 0x56, 0xa7, 0xa6, 0xbd, 0xb7, 0x70, 0xbd, 0xbe,
  0x8d, 0xd7, 0xac, 0x3e, 0xc7, 0x75, 0x6c, 0x3e, 0x5e, 0xc6, 0x00, 0x3f,
  0xab, 0xfc, 0x6d, 0xbe, 0x04, 0xe2, 0xb0, 0x3e, 0x55, 0x74, 0x16, 0xbe,
  0x45, 0x40, 0x1d, 0x3d, 0x88, 0x9f, 0xaf, 0xbe, 0x09, 0x02, 0xa7, 0x3e,
  0x00, 0x00, 0x00, 0x00, 0x00, 0x00, 0x00, 0x00, 0x00, 0x00, 0x00, 0x00,
  0x82, 0xfe, 0xff, 0xff, 0x04, 0x00, 0x00, 0x00, 0x90, 0x00, 0x00, 0x00,
  0x8c, 0xed, 0xe6, 0xbc, 0xcc, 0xbe, 0x5b, 0x3f, 0x00, 0x00, 0x00, 0x00,
  0xbb, 0xf3, 0xe1, 0x3e, 0x80, 0xde, 0xcc, 0x3d, 0x00, 0x00, 0x00, 0x00,
  0x00, 0x00, 0x00, 0x00, 0x6f, 0xab, 0x4f, 0x3f, 0x59, 0x18, 0xb5, 0x3e,
  0x6d, 0x7d, 0xe2, 0x3e, 0xe1, 0xca, 0x93, 0xbe, 0x43, 0x71, 0x0f, 0x3f,
  0x58, 0x63, 0x6e, 0x3f, 0x2f, 0xcc, 0x83, 0xbe, 0x83, 0x78, 0x01, 0x3f,
  0x03, 0xd8, 0x17, 0x3c, 0x39, 0xf7, 0x1e, 0x3f, 0x00, 0x00, 0x00, 0x00,
  0xcb, 0x84, 0x46, 0x3f, 0xa5, 0xc7, 0x33, 0xbf, 0x00, 0x00, 0x00, 0x00,
  0xe3, 0x24, 0x4f, 0x3e, 0x00, 0x00, 0x00, 0x00, 0x94, 0xcf, 0xd4, 0x3e,
  0x08, 0xc4, 0x3e, 0x3e, 0xb8, 0x60, 0xb8, 0xbe, 0x55, 0x29, 0x3d, 0xbe,
  0x58, 0x0f, 0x54, 0xbe, 0x86, 0xfc, 0xcb, 0x3e, 0xee, 0x66, 0x1d, 0x3f,
  0xd2, 0x7c, 0xbc, 0x3e, 0x7f, 0xfd, 0xf0, 0xbc, 0xc4, 0x4b, 0xee, 0x3e,
  0x8f, 0xe2, 0xd5, 0xbd, 0xc7, 0x77, 0xbe, 0x3e, 0x44, 0xa1, 0x71, 0xbc,
  0x00, 0x00, 0x00, 0x00, 0x22, 0xff, 0xff, 0xff, 0x04, 0x00, 0x00, 0x00,
  0x28, 0x00, 0x00, 0x00, 0x50, 0x1d, 0xf7, 0x3b, 0xe1, 0x7e, 0x96, 0x3d,
  0x11, 0xd5, 0x9a, 0x3f, 0x9d, 0x1f, 0x91, 0x3f, 0xff, 0xe1, 0x65, 0xbe,
  0xfa, 0x37, 0x04, 0x3f, 0xa2, 0x2f, 0x17, 0x3e, 0x0b, 0x5a, 0x49, 0x3e,
  0x00, 0x00, 0x00, 0x00, 0x5a, 0xfd, 0xb9, 0x3e, 0x00, 0x00, 0x00, 0x00,
  0x44, 0xfa, 0xff, 0xff, 0x00, 0x00, 0x00, 0x00, 0x00, 0x00, 0x00, 0x00,
  0x00, 0x00, 0x00, 0x00, 0x54, 0xfa, 0xff, 0xff, 0x00, 0x00, 0x00, 0x00,
  0x0f, 0x00, 0x00, 0x00, 0x4d, 0x4c, 0x49, 0x52, 0x20, 0x43, 0x6f, 0x6e,
  0x76, 0x65, 0x72, 0x74, 0x65, 0x64, 0x2e, 0x00, 0x01, 0x00, 0x00, 0x00,
  0x14, 0x00, 0x00, 0x00, 0x00, 0x00, 0x0e, 0x00, 0x18, 0x00, 0x04, 0x00,
  0x08, 0x00, 0x0c, 0x00, 0x10, 0x00, 0x14, 0x00, 0x0e, 0x00, 0x00, 0x00,
  0x4c, 0x01, 0x00, 0x00, 0x40, 0x01, 0x00, 0x00, 0x34, 0x01, 0x00, 0x00,
  0x14, 0x00, 0x00, 0x00, 0x04, 0x00, 0x00, 0x00, 0x04, 0x00, 0x00, 0x00,
  0x6d, 0x61, 0x69, 0x6e, 0x00, 0x00, 0x00, 0x00, 0x04, 0x00, 0x00, 0x00,
  0xdc, 0x00, 0x00, 0x00, 0x94, 0x00, 0x00, 0x00, 0x50, 0x00, 0x00, 0x00,
  0x14, 0x00, 0x00, 0x00, 0x00, 0x00, 0x0e, 0x00, 0x1a, 0x00, 0x08, 0x00,
  0x0c, 0x00, 0x10, 0x00, 0x07, 0x00, 0x14, 0x00, 0x0e, 0x00, 0x00, 0x00,
  0x00, 0x00, 0x00, 0x09, 0x01, 0x00, 0x00, 0x00, 0x24, 0x00, 0x00, 0x00,
  0x18, 0x00, 0x00, 0x00, 0x0c, 0x00, 0x00, 0x00, 0x00, 0x00, 0x06, 0x00,
  0x08, 0x00, 0x04, 0x00, 0x06, 0x00, 0x00, 0x00, 0x00, 0x00, 0x80, 0x3f,
  0x01, 0x00, 0x00, 0x00, 0x0a, 0x00, 0x00, 0x00, 0x01, 0x00, 0x00, 0x00,
  0x09, 0x00, 0x00, 0x00, 0xce, 0xff, 0xff, 0xff, 0x00, 0x00, 0x00, 0x08,
  0x18, 0x00, 0x00, 0x00, 0x0c, 0x00, 0x00, 0x00, 0x04, 0x00, 0x00, 0x00,
  0x1c, 0xfb, 0xff, 0xff, 0x01, 0x00, 0x00, 0x00, 0x09, 0x00, 0x00, 0x00,
  0x03, 0x00, 0x00, 0x00, 0x08, 0x00, 0x00, 0x00, 0x06, 0x00, 0x00, 0x00,
  0x03, 0x00, 0x00, 0x00, 0x00, 0x00, 0x0e, 0x00, 0x14, 0x00, 0x00, 0x00,
  0x08, 0x00, 0x0c, 0x00, 0x07, 0x00, 0x10, 0x00, 0x0e, 0x00, 0x00, 0x00,
  0x00, 0x00, 0x00, 0x08, 0x1c, 0x00, 0x00, 0x00, 0x10, 0x00, 0x00, 0x00,
  0x04, 0x00, 0x00, 0x00, 0xba, 0xff, 0xff, 0xff, 0x00, 0x00, 0x00, 0x01,
  0x01, 0x00, 0x00, 0x00, 0x08, 0x00, 0x00, 0x00, 0x03, 0x00, 0x00, 0x00,
  0x07, 0x00, 0x00, 0x00, 0x05, 0x00, 0x00, 0x00, 0x02, 0x00, 0x00, 0x00,
  0x00, 0x00, 0x0e, 0x00, 0x16, 0x00, 0x00, 0x00, 0x08, 0x00, 0x0c, 0x00,
  0x07, 0x00, 0x10, 0x00, 0x0e, 0x00, 0x00, 0x00, 0x00, 0x00, 0x00, 0x08,
  0x24, 0x00, 0x00, 0x00, 0x18, 0x00, 0x00, 0x00, 0x0c, 0x00, 0x00, 0x00,
  0x00, 0x00, 0x06, 0x00, 0x08, 0x00, 0x07, 0x00, 0x06, 0x00, 0x00, 0x00,
  0x00, 0x00, 0x00, 0x01, 0x01, 0x00, 0x00, 0x00, 0x07, 0x00, 0x00, 0x00,
  0x03, 0x00, 0x00, 0x00, 0x00, 0x00, 0x00, 0x00, 0x04, 0x00, 0x00, 0x00,
  0x01, 0x00, 0x00, 0x00, 0x01, 0x00, 0x00, 0x00, 0x0a, 0x00, 0x00, 0x00,
  0x01, 0x00, 0x00, 0x00, 0x00, 0x00, 0x00, 0x00, 0x0b, 0x00, 0x00, 0x00,
  0x00, 0x04, 0x00, 0x00, 0x8c, 0x03, 0x00, 0x00, 0x1c, 0x03, 0x00, 0x00,
  0xbc, 0x02, 0x00, 0x00, 0x74, 0x02, 0x00, 0x00, 0x2c, 0x02, 0x00, 0x00,
  0xe4, 0x01, 0x00, 0x00, 0x54, 0x01, 0x00, 0x00, 0xc4, 0x00, 0x00, 0x00,
  0x4c, 0x00, 0x00, 0x00, 0x04, 0x00, 0x00, 0x00, 0x40, 0xfc, 0xff, 0xff,
  0x34, 0x00, 0x00, 0x00, 0x0b, 0x00, 0x00, 0x00, 0x1c, 0x00, 0x00, 0x00,
  0x14, 0x00, 0x00, 0x00, 0x04, 0x00, 0x00, 0x00, 0x02, 0x00, 0x00, 0x00,
  0xff, 0xff, 0xff, 0xff, 0x1a, 0x00, 0x00, 0x00, 0x2c, 0xfc, 0xff, 0xff,
  0x08, 0x00, 0x00, 0x00, 0x49, 0x64, 0x65, 0x6e, 0x74, 0x69, 0x74, 0x79,
  0x00, 0x00, 0x00, 0x00, 0x02, 0x00, 0x00, 0x00, 0x01, 0x00, 0x00, 0x00,
  0x1a, 0x00, 0x00, 0x00, 0x84, 0xfc, 0xff, 0xff, 0x64, 0x00, 0x00, 0x00,
  0x0a, 0x00, 0x00, 0x00, 0x1c, 0x00, 0x00, 0x00, 0x14, 0x00, 0x00, 0x00,
  0x04, 0x00, 0x00, 0x00, 0x02, 0x00, 0x00, 0x00, 0xff, 0xff, 0xff, 0xff,
  0x1a, 0x00, 0x00, 0x00, 0x70, 0xfc, 0xff, 0xff, 0x38, 0x00, 0x00, 0x00,
  0x73, 0x65, 0x71, 0x75, 0x65, 0x6e, 0x74, 0x69, 0x61, 0x6c, 0x5f, 0x31,
  0x2f, 0x64, 0x65, 0x6e, 0x73, 0x65, 0x5f, 0x35, 0x2f, 0x4d, 0x61, 0x74,
  0x4d, 0x75, 0x6c, 0x3b, 0x73, 0x65, 0x71, 0x75, 0x65, 0x6e, 0x74, 0x69,
  0x61, 0x6c, 0x5f, 0x31, 0x2f, 0x64, 0x65, 0x6e, 0x73, 0x65, 0x5f, 0x35,
  0x2f, 0x42, 0x69, 0x61, 0x73, 0x41, 0x64, 0x64, 0x00, 0x00, 0x00, 0x00,
  0x02, 0x00, 0x00, 0x00, 0x01, 0x00, 0x00, 0x00, 0x1a, 0x00, 0x00, 0x00,
  0xf8, 0xfc, 0xff, 0xff, 0x7c, 0x00, 0x00, 0x00, 0x09, 0x00, 0x00, 0x00,
  0x1c, 0x00, 0x00, 0x00, 0x14, 0x00, 0x00, 0x00, 0x04, 0x00, 0x00, 0x00,
  0x02, 0x00, 0x00, 0x00, 0xff, 0xff, 0xff, 0xff, 0x24, 0x00, 0x00, 0x00,
  0xe4, 0xfc, 0xff, 0xff, 0x52, 0x00, 0x00, 0x00, 0x73, 0x65, 0x71, 0x75,
  0x65, 0x6e, 0x74, 0x69, 0x61, 0x6c, 0x5f, 0x31, 0x2f, 0x64, 0x65, 0x6e,
  0x73, 0x65, 0x5f, 0x34, 0x2f, 0x4d, 0x61, 0x74, 0x4d, 0x75, 0x6c, 0x3b,
  0x73, 0x65, 0x71, 0x75, 0x65, 0x6e, 0x74, 0x69, 0x61, 0x6c, 0x5f, 0x31,
  0x2f, 0x64, 0x65, 0x6e, 0x73, 0x65, 0x5f, 0x34, 0x2f, 0x52, 0x65, 0x6c,
  0x75, 0x3b, 0x73, 0x65, 0x71, 0x75, 0x65, 0x6e, 0x74, 0x69, 0x61, 0x6c,
  0x5f, 0x31, 0x2f, 0x64, 0x65, 0x6e, 0x73, 0x65, 0x5f, 0x34, 0x2f, 0x42,
  0x69, 0x61, 0x73, 0x41, 0x64, 0x64, 0x00, 0x00, 0x02, 0x00, 0x00, 0x00,
  0x01, 0x00, 0x00, 0x00, 0x24, 0x00, 0x00, 0x00, 0x84, 0xfd, 0xff, 0xff,
  0x7c, 0x00, 0x00, 0x00, 0x08, 0x00, 0x00, 0x00, 0x1c, 0x00, 0x00, 0x00,
  0x14, 0x00, 0x00, 0x00, 0x04, 0x00, 0x00, 0x00, 0x02, 0x00, 0x00, 0x00,
  0xff, 0xff, 0xff, 0xff, 0x0a, 0x00, 0x00, 0x00, 0x70, 0xfd, 0xff, 0xff,
  0x52, 0x00, 0x00, 0x00, 0x73, 0x65, 0x71, 0x75, 0x65, 0x6e, 0x74, 0x69,
  0x61, 0x6c, 0x5f, 0x31, 0x2f, 0x64, 0x65, 0x6e, 0x73, 0x65, 0x5f, 0x33,
  0x2f, 0x4d, 0x61, 0x74, 0x4d, 0x75, 0x6c, 0x3b, 0x73, 0x65, 0x71, 0x75,
  0x65, 0x6e, 0x74, 0x69, 0x61, 0x6c, 0x5f, 0x31, 0x2f, 0x64, 0x65, 0x6e,
  0x73, 0x65, 0x5f, 0x33, 0x2f, 0x52, 0x65, 0x6c, 0x75, 0x3b, 0x73, 0x65,
  0x71, 0x75, 0x65, 0x6e, 0x74, 0x69, 0x61, 0x6c, 0x5f, 0x31, 0x2f, 0x64,
  0x65, 0x6e, 0x73, 0x65, 0x5f, 0x33, 0x2f, 0x42, 0x69, 0x61, 0x73, 0x41,
  0x64, 0x64, 0x00, 0x00, 0x02, 0x00, 0x00, 0x00, 0x01, 0x00, 0x00, 0x00,
  0x0a, 0x00, 0x00, 0x00, 0x7a, 0xfe, 0xff, 0xff, 0x34, 0x00, 0x00, 0x00,
  0x07, 0x00, 0x00, 0x00, 0x0c, 0x00, 0x00, 0x00, 0x04, 0x00, 0x00, 0x00,
  0xec, 0xfd, 0xff, 0xff, 0x1b, 0x00, 0x00, 0x00, 0x73, 0x65, 0x71, 0x75,
  0x65, 0x6e, 0x74, 0x69, 0x61, 0x6c, 0x5f, 0x31, 0x2f, 0x64, 0x65, 0x6e,
  0x73, 0x65, 0x5f, 0x35, 0x2f, 0x4d, 0x61, 0x74, 0x4d, 0x75, 0x6c, 0x00,
  0x02, 0x00, 0x00, 0x00, 0x1a, 0x00, 0x00, 0x00, 0x24, 0x00, 0x00, 0x00,
  0xbe, 0xfe, 0xff, 0xff, 0x34, 0x00, 0x00, 0x00, 0x06, 0x00, 0x00, 0x00,
  0x0c, 0x00, 0x00, 0x00, 0x04, 0x00, 0x00, 0x00, 0x30, 0xfe, 0xff, 0xff,
  0x1b, 0x00, 0x00, 0x00, 0x73, 0x65, 0x71, 0x75, 0x65, 0x6e, 0x74, 0x69,
  0x61, 0x6c, 0x5f, 0x31, 0x2f, 0x64, 0x65, 0x6e, 0x73, 0x65, 0x5f, 0x34,
  0x2f, 0x4d, 0x61, 0x74, 0x4d, 0x75, 0x6c, 0x00, 0x02, 0x00, 0x00, 0x00,
  0x24, 0x00, 0x00, 0x00, 0x0a, 0x00, 0x00, 0x00, 0x02, 0xff, 0xff, 0xff,
  0x34, 0x00, 0x00, 0x00, 0x05, 0x00, 0x00, 0x00, 0x0c, 0x00, 0x00, 0x00,
  0x04, 0x00, 0x00, 0x00, 0x74, 0xfe, 0xff, 0xff, 0x1b, 0x00, 0x00, 0x00,
  0x73, 0x65, 0x71, 0x75, 0x65, 0x6e, 0x74, 0x69, 0x61, 0x6c, 0x5f, 0x31,
  0x2f, 0x64, 0x65, 0x6e, 0x73, 0x65, 0x5f, 0x33, 0x2f, 0x4d, 0x61, 0x74,
  0x4d, 0x75, 0x6c, 0x00, 0x02, 0x00, 0x00, 0x00, 0x0a, 0x00, 0x00, 0x00,
  0x08, 0x00, 0x00, 0x00, 0x46, 0xff, 0xff, 0xff, 0x50, 0x00, 0x00, 0x00,
  0x04, 0x00, 0x00, 0x00, 0x0c, 0x00, 0x00, 0x00, 0x04, 0x00, 0x00, 0x00,
  0xb8, 0xfe, 0xff, 0xff, 0x34, 0x00, 0x00, 0x00, 0x73, 0x65, 0x71, 0x75,
  0x65, 0x6e, 0x74, 0x69, 0x61, 0x6c, 0x5f, 0x31, 0x2f, 0x64, 0x65, 0x6e,
  0x73, 0x65, 0x5f, 0x35, 0x2f, 0x42, 0x69, 0x61, 0x73, 0x41, 0x64, 0x64,
  0x2f, 0x52, 0x65, 0x61, 0x64, 0x56, 0x61, 0x72, 0x69, 0x61, 0x62, 0x6c,
  0x65, 0x4f, 0x70, 0x2f, 0x72, 0x65, 0x73, 0x6f, 0x75, 0x72, 0x63, 0x65,
  0x00, 0x00, 0x00, 0x00, 0x01, 0x00, 0x00, 0x00, 0x1a, 0x00, 0x00, 0x00,
  0xa2, 0xff, 0xff, 0xff, 0x50, 0x00, 0x00, 0x00, 0x03, 0x00, 0x00, 0x00,
  0x0c, 0x00, 0x00, 0x00, 0x04, 0x00, 0x00, 0x00, 0x14, 0xff, 0xff, 0xff,
  0x34, 0x00, 0x00, 0x00, 0x73, 0x65, 0x71, 0x75, 0x65, 0x6e, 0x74, 0x69,
  0x61, 0x6c, 0x5f, 0x31, 0x2f, 0x64, 0x65, 0x6e, 0x73, 0x65, 0x5f, 0x34,
  0x2f, 0x42, 0x69, 0x61, 0x73, 0x41, 0x64, 0x64, 0x2f, 0x52, 0x65, 0x61,
  0x64, 0x56, 0x61, 0x72, 0x69, 0x61, 0x62, 0x6c, 0x65, 0x4f, 0x70, 0x2f,
  0x72, 0x65, 0x73, 0x6f, 0x75, 0x72, 0x63, 0x65, 0x00, 0x00, 0x00, 0x00,
  0x01, 0x00, 0x00, 0x00, 0x24, 0x00, 0x00, 0x00, 0x00, 0x00, 0x0e, 0x00,
  0x14, 0x00, 0x04, 0x00, 0x00, 0x00, 0x08, 0x00, 0x0c, 0x00, 0x10, 0x00,
  0x0e, 0x00, 0x00, 0x00, 0x50, 0x00, 0x00, 0x00, 0x02, 0x00, 0x00, 0x00,
  0x0c, 0x00, 0x00, 0x00, 0x04, 0x00, 0x00, 0x00, 0x80, 0xff, 0xff, 0xff,
  0x34, 0x00, 0x00, 0x00, 0x73, 0x65, 0x71, 0x75, 0x65, 0x6e, 0x74, 0x69,
  0x61, 0x6c, 0x5f, 0x31, 0x2f, 0x64, 0x65, 0x6e, 0x73, 0x65, 0x5f, 0x33,
  0x2f, 0x42, 0x69, 0x61, 0x73, 0x41, 0x64, 0x64, 0x2f, 0x52, 0x65, 0x61,
  0x64, 0x56, 0x61, 0x72, 0x69, 0x61, 0x62, 0x6c, 0x65, 0x4f, 0x70, 0x2f,
  0x72, 0x65, 0x73, 0x6f, 0x75, 0x72, 0x63, 0x65, 0x00, 0x00, 0x00, 0x00,
  0x01, 0x00, 0x00, 0x00, 0x0a, 0x00, 0x00, 0x00, 0x14, 0x00, 0x18, 0x00,
  0x04, 0x00, 0x00, 0x00, 0x08, 0x00, 0x0c, 0x00, 0x10, 0x00, 0x00, 0x00,
  0x00, 0x00, 0x14, 0x00, 0x14, 0x00, 0x00, 0x00, 0x3c, 0x00, 0x00, 0x00,
  0x01, 0x00, 0x00, 0x00, 0x20, 0x00, 0x00, 0x00, 0x18, 0x00, 0x00, 0x00,
  0x04, 0x00, 0x00, 0x00, 0x02, 0x00, 0x00, 0x00, 0xff, 0xff, 0xff, 0xff,
  0x08, 0x00, 0x00, 0x00, 0x04, 0x00, 0x04, 0x00, 0x04, 0x00, 0x00, 0x00,
  0x0d, 0x00, 0x00, 0x00, 0x64, 0x65, 0x6e, 0x73, 0x65, 0x5f, 0x33, 0x5f,
  0x69, 0x6e, 0x70, 0x75, 0x74, 0x00, 0x00, 0x00, 0x02, 0x00, 0x00, 0x00,
  0x01, 0x00, 0x00, 0x00, 0x08, 0x00, 0x00, 0x00, 0x02, 0x00, 0x00, 0x00,
  0x2c, 0x00, 0x00, 0x00, 0x10, 0x00, 0x00, 0x00, 0x0c, 0x00, 0x0c, 0x00,
  0x07, 0x00, 0x00, 0x00, 0x00, 0x00, 0x08, 0x00, 0x0c, 0x00, 0x00, 0x00,
  0x00, 0x00, 0x00, 0x19, 0x19, 0x00, 0x00, 0x00, 0x0c, 0x00, 0x10, 0x00,
  0x07, 0x00, 0x00, 0x00, 0x08, 0x00, 0x0c, 0x00, 0x0c, 0x00, 0x00, 0x00,
  0x00, 0x00, 0x00, 0x09, 0x09, 0x00, 0x00, 0x00, 0x09, 0x00, 0x00, 0x00
 
};

#endif //MODEL_H
