#ifndef MODEL_H
#define MODEL_H


unsigned int model_len = 6768;
unsigned char model[] = {
 0x1c, 0x00, 0x00, 0x00, 0x54, 0x46, 0x4c, 0x33, 0x00, 0x00, 0x12, 0x00,
  0x1c, 0x00, 0x04, 0x00, 0x08, 0x00, 0x0c, 0x00, 0x10, 0x00, 0x14, 0x00,
  0x00, 0x00, 0x18, 0x00, 0x12, 0x00, 0x00, 0x00, 0x03, 0x00, 0x00, 0x00,
  0x0c, 0x1a, 0x00, 0x00, 0xd4, 0x13, 0x00, 0x00, 0xbc, 0x13, 0x00, 0x00,
  0x3c, 0x00, 0x00, 0x00, 0x04, 0x00, 0x00, 0x00, 0x01, 0x00, 0x00, 0x00,
  0x0c, 0x00, 0x00, 0x00, 0x08, 0x00, 0x0c, 0x00, 0x04, 0x00, 0x08, 0x00,
  0x08, 0x00, 0x00, 0x00, 0x08, 0x00, 0x00, 0x00, 0x0c, 0x00, 0x00, 0x00,
  0x13, 0x00, 0x00, 0x00, 0x6d, 0x69, 0x6e, 0x5f, 0x72, 0x75, 0x6e, 0x74,
  0x69, 0x6d, 0x65, 0x5f, 0x76, 0x65, 0x72, 0x73, 0x69, 0x6f, 0x6e, 0x00,
  0x0d, 0x00, 0x00, 0x00, 0x6c, 0x13, 0x00, 0x00, 0x58, 0x13, 0x00, 0x00,
  0xdc, 0x12, 0x00, 0x00, 0xb8, 0x11, 0x00, 0x00, 0x34, 0x11, 0x00, 0x00,
  0x00, 0x0e, 0x00, 0x00, 0x5c, 0x07, 0x00, 0x00, 0x78, 0x00, 0x00, 0x00,
  0x6c, 0x00, 0x00, 0x00, 0x58, 0x00, 0x00, 0x00, 0x44, 0x00, 0x00, 0x00,
  0x30, 0x00, 0x00, 0x00, 0x04, 0x00, 0x00, 0x00, 0x2e, 0xec, 0xff, 0xff,
  0x04, 0x00, 0x00, 0x00, 0x10, 0x00, 0x00, 0x00, 0x31, 0x2e, 0x35, 0x2e,
  0x30, 0x00, 0x00, 0x00, 0x00, 0x00, 0x00, 0x00, 0x00, 0x00, 0x00, 0x00,
  0x00, 0x00, 0x00, 0x00, 0x00, 0x00, 0x00, 0x00, 0x00, 0x00, 0x00, 0x00,
  0xc4, 0xe6, 0xff, 0xff, 0x00, 0x00, 0x00, 0x00, 0x00, 0x00, 0x00, 0x00,
  0x00, 0x00, 0x00, 0x00, 0xd4, 0xe6, 0xff, 0xff, 0x00, 0x00, 0x00, 0x00,
  0x00, 0x00, 0x00, 0x00, 0x00, 0x00, 0x00, 0x00, 0xe4, 0xe6, 0xff, 0xff,
  0x00, 0x00, 0x00, 0x00, 0x00, 0x00, 0x00, 0x00, 0x00, 0x00, 0x00, 0x00,
  0xf4, 0xe6, 0xff, 0xff, 0x00, 0x00, 0x00, 0x00, 0x8e, 0xec, 0xff, 0xff,
  0x04, 0x00, 0x00, 0x00, 0xce, 0x06, 0x00, 0x00, 0x08, 0x01, 0xef, 0x0e,
  0xd8, 0x37, 0xfd, 0x02, 0xfe, 0x02, 0xfc, 0x04, 0x05, 0x04, 0xb9, 0x00,
  0xfc, 0x00, 0xfe, 0x02, 0x05, 0x02, 0x04, 0xf5, 0x04, 0xfe, 0x05, 0xfb,
  0x05, 0x0c, 0x03, 0xc9, 0x02, 0xfd, 0x0a, 0xfe, 0x02, 0x02, 0x09, 0x04,
  0xd2, 0xfa, 0xff, 0x0a, 0x00, 0xe0, 0x02, 0x03, 0x03, 0xfe, 0xfd, 0x03,
  0xa0, 0xfe, 0x08, 0x04, 0xfd, 0xea, 0x05, 0x00, 0x00, 0x06, 0x02, 0xea,
  0xf5, 0x00, 0x00, 0x1d, 0x03, 0xe4, 0x09, 0xfe, 0x08, 0xfe, 0xf8, 0x00,
  0x06, 0x06, 0xfe, 0x0d, 0xfb, 0x02, 0x04, 0xff, 0xfd, 0x02, 0x04, 0x07,
  0xf2, 0x01, 0x0b, 0x03, 0x04, 0xcc, 0xfe, 0xc1, 0x04, 0xe8, 0x10, 0xfe,
  0x01, 0x0d, 0x0a, 0x0c, 0xb7, 0xd4, 0xfc, 0xf4, 0x08, 0xf2, 0x06, 0x03,
  0x06, 0x0b, 0xd8, 0xe1, 0xfd, 0xe7, 0x08, 0xf9, 0x0b, 0xe7, 0xfe, 0x01,
  0x0a, 0xfa, 0xce, 0x07, 0xfd, 0xce, 0xd0, 0x05, 0xff, 0xf7, 0xea, 0x02,
  0xf4, 0xfb, 0xfb, 0x07, 0x02, 0xf9, 0xf7, 0xfd, 0x0b, 0xff, 0xf6, 0xdd,
  0x03, 0xfc, 0xff, 0x01, 0x01, 0xfd, 0xf9, 0x04, 0xe6, 0x07, 0x06, 0xfd,
  0x02, 0x04, 0xfe, 0x01, 0x04, 0x04, 0xff, 0xff, 0xfa, 0x07, 0xf9, 0xf9,
  0xc5, 0xfc, 0xef, 0x06, 0xfe, 0x09, 0x00, 0x10, 0x06, 0xe9, 0xfb, 0x06,
  0x26, 0xf4, 0xf9, 0x00, 0xf7, 0xfc, 0xfe, 0xfe, 0x01, 0xf6, 0x05, 0x05,
  0xf0, 0xf7, 0x0f, 0x04, 0xf9, 0x06, 0x03, 0x0a, 0xff, 0x07, 0x0a, 0x02,
  0xfd, 0xe7, 0xff, 0x0b, 0x01, 0x09, 0xd9, 0x06, 0xfd, 0x01, 0xfb, 0x01,
  0xfd, 0xf5, 0x04, 0x07, 0x06, 0x0a, 0x01, 0x01, 0x0a, 0xfd, 0xfc, 0xea,
  0x06, 0x01, 0x03, 0xd5, 0x03, 0x09, 0xd8, 0xdf, 0xf3, 0xfd, 0x05, 0xf5,
  0xfb, 0xfd, 0x0d, 0xee, 0xfa, 0xf9, 0x0a, 0xf7, 0xf3, 0x01, 0xf7, 0xe0,
  0x02, 0x00, 0x04, 0x02, 0xde, 0xfe, 0xf9, 0x01, 0x06, 0x02, 0xfe, 0xe7,
  0x05, 0x02, 0x02, 0xf0, 0x01, 0xe8, 0x01, 0xf8, 0x02, 0x07, 0x00, 0x02,
  0xfb, 0x08, 0xfd, 0xfd, 0xfe, 0xc2, 0xff, 0xfd, 0xf8, 0xca, 0xfc, 0x03,
  0xc8, 0xfe, 0x09, 0x07, 0x10, 0x02, 0x09, 0xfd, 0x03, 0xfc, 0xfc, 0x00,
  0xfe, 0xfe, 0x05, 0xf8, 0xe2, 0xdd, 0x08, 0x0a, 0x04, 0x09, 0x02, 0xbc,
  0x02, 0xfc, 0xfe, 0x07, 0xdd, 0x05, 0xf7, 0xfe, 0x00, 0xf0, 0x05, 0x06,
  0x08, 0xa8, 0x0f, 0x0d, 0x05, 0x00, 0x0b, 0xff, 0xfc, 0xea, 0x14, 0xdd,
  0xe4, 0x00, 0xe9, 0xff, 0x09, 0x03, 0xfe, 0xfc, 0x0a, 0xff, 0x01, 0x03,
  0xf4, 0xfc, 0x03, 0x11, 0xee, 0x05, 0xfd, 0xfa, 0xff, 0xea, 0xec, 0xe5,
  0x08, 0x03, 0x0a, 0x04, 0x04, 0x11, 0x03, 0xfb, 0xff, 0xd9, 0x07, 0xd9,
  0x0a, 0xf9, 0xfe, 0xff, 0xf2, 0x09, 0xca, 0xe5, 0xe6, 0xe0, 0x05, 0xe8,
  0x0f, 0x0f, 0x03, 0x02, 0xfc, 0xf7, 0x06, 0x09, 0x09, 0xd4, 0xd3, 0xf9,
  0x04, 0x02, 0x0f, 0x01, 0xf6, 0xfa, 0xf5, 0x07, 0x02, 0x03, 0xb6, 0x0e,
  0x0a, 0xfc, 0xd4, 0x02, 0xfc, 0x02, 0x03, 0xff, 0xfe, 0xfd, 0xd3, 0x13,
  0x05, 0x07, 0xfc, 0x04, 0x00, 0x0b, 0x08, 0xef, 0xf7, 0xe4, 0xfc, 0x04,
  0xfd, 0xed, 0x01, 0xea, 0x0b, 0xfd, 0xeb, 0xf3, 0x08, 0x00, 0xff, 0x04,
  0xf7, 0x04, 0xf9, 0xed, 0xec, 0xf7, 0x07, 0xfd, 0xea, 0xff, 0xfc, 0xf1,
  0x0b, 0xf8, 0xfe, 0x0d, 0x13, 0xff, 0x01, 0xff, 0x03, 0x18, 0xfc, 0x05,
  0xfb, 0xf4, 0x05, 0xfb, 0x09, 0xf3, 0xd5, 0xe2, 0x03, 0xea, 0x0f, 0xfc,
  0x00, 0x03, 0xfb, 0xfd, 0xff, 0xde, 0x2b, 0x08, 0x03, 0xbb, 0xfe, 0xe5,
  0xec, 0x04, 0x01, 0x01, 0xe8, 0xfc, 0xfc, 0xf6, 0xa0, 0x05, 0xec, 0x15,
  0x04, 0xfc, 0xd1, 0xe4, 0xfc, 0x03, 0xca, 0xf7, 0x10, 0xf6, 0xc3, 0xdd,
  0x04, 0x03, 0xf4, 0xf4, 0x01, 0x00, 0xf2, 0x06, 0xfd, 0xe8, 0xee, 0x09,
  0x03, 0x02, 0xfc, 0x0e, 0x09, 0x04, 0xf6, 0xfe, 0xdc, 0x3f, 0x00, 0xee,
  0xfd, 0x05, 0x01, 0xff, 0x11, 0x0a, 0xfe, 0xfc, 0x01, 0xc5, 0xfd, 0x01,
  0x0d, 0xc8, 0x26, 0x13, 0x0c, 0x04, 0xfd, 0xfe, 0xfb, 0xe7, 0x03, 0x07,
  0xfc, 0x04, 0x0d, 0xfd, 0x1e, 0xfa, 0xe4, 0xed, 0xfc, 0x14, 0xfe, 0xe8,
  0xfc, 0xee, 0x00, 0xf6, 0x00, 0x0a, 0xdb, 0x07, 0xd0, 0x09, 0xf6, 0xfe,
  0x04, 0xb7, 0xf5, 0x07, 0x0a, 0xe9, 0xdf, 0x99, 0x08, 0x01, 0xfc, 0x15,
  0x04, 0xfb, 0xfb, 0xb4, 0x09, 0xfe, 0x04, 0xec, 0xfe, 0x0a, 0xff, 0xe5,
  0x0d, 0xeb, 0x03, 0x04, 0xee, 0x00, 0x04, 0xf7, 0xf0, 0x0c, 0x0b, 0xde,
  0x02, 0xfe, 0xed, 0x05, 0xe7, 0xf7, 0xfd, 0x01, 0x02, 0x0f, 0xb6, 0x04,
  0xfd, 0x08, 0xf9, 0xf7, 0xea, 0xfc, 0x08, 0xfe, 0xf6, 0x0b, 0x03, 0x07,
  0xd7, 0xc8, 0x09, 0xe4, 0x07, 0xf7, 0x04, 0xff, 0xbb, 0x04, 0x09, 0x09,
  0xf1, 0xed, 0xb6, 0x0e, 0xff, 0x12, 0x1a, 0xfe, 0x02, 0x03, 0x04, 0xf3,
  0x00, 0xf6, 0xfc, 0xfe, 0xfa, 0xfc, 0xfe, 0x00, 0x05, 0x01, 0x01, 0x04,
  0x00, 0x02, 0x01, 0x04, 0xfb, 0xfd, 0xfa, 0xfd, 0xff, 0x02, 0x06, 0x04,
  0x08, 0xf8, 0x03, 0x04, 0xe8, 0x01, 0xf1, 0xf2, 0xf5, 0x02, 0xfe, 0x08,
  0x0a, 0x00, 0xfc, 0x05, 0xf8, 0xfa, 0xf5, 0xfe, 0x0d, 0xee, 0x00, 0xff,
  0xfe, 0xfd, 0x02, 0xfc, 0xfd, 0xfa, 0xff, 0x04, 0x08, 0x07, 0xfa, 0x00,
  0x00, 0xb8, 0xff, 0xf5, 0xfa, 0x05, 0x03, 0xfc, 0xf3, 0xce, 0x08, 0x09,
  0xfd, 0xf9, 0xe7, 0xf2, 0x04, 0xfe, 0x0b, 0x04, 0x00, 0x07, 0x10, 0xfe,
  0x01, 0x0b, 0x01, 0x0b, 0x0f, 0x08, 0xe8, 0x11, 0xe4, 0x00, 0xfe, 0xfc,
  0x09, 0xfe, 0xf7, 0xfa, 0xf2, 0xff, 0x07, 0x08, 0xe9, 0x02, 0x02, 0xe2,
  0xfa, 0xfa, 0x0d, 0x05, 0xc2, 0xf6, 0x00, 0xfe, 0xff, 0xfc, 0x00, 0x04,
  0xdc, 0xf8, 0x0c, 0x0c, 0x03, 0xfe, 0xfd, 0xb6, 0x04, 0x00, 0xf6, 0x0a,
  0xf8, 0x05, 0xff, 0xed, 0x01, 0x03, 0xf5, 0xff, 0x03, 0x0b, 0x09, 0x01,
  0x04, 0xfe, 0x02, 0xfd, 0x01, 0xf7, 0x02, 0x03, 0xf0, 0x02, 0x00, 0xf4,
  0x03, 0x06, 0x07, 0xfa, 0xfc, 0xfd, 0x03, 0x00, 0x00, 0xfc, 0xf9, 0x0a,
  0x8b, 0x08, 0x08, 0x0a, 0xfb, 0xf4, 0x02, 0xea, 0xfe, 0xf9, 0x03, 0x01,
  0xda, 0x0b, 0x02, 0xff, 0x00, 0xbc, 0x01, 0x09, 0x08, 0x03, 0x05, 0xf0,
  0x06, 0x00, 0x0b, 0xf5, 0x01, 0x07, 0xfc, 0xff, 0xe1, 0xff, 0x00, 0x07,
  0x03, 0xef, 0x03, 0x00, 0x06, 0x03, 0xfd, 0xfe, 0xfe, 0xff, 0x04, 0xf3,
  0x15, 0xfd, 0xfb, 0xf7, 0x01, 0xff, 0xf8, 0x06, 0x01, 0x00, 0xf8, 0xfc,
  0x02, 0xfa, 0xf8, 0xfd, 0x01, 0x0b, 0xfe, 0xde, 0x08, 0x05, 0x01, 0xff,
  0xf4, 0xfc, 0x04, 0x02, 0xef, 0xfe, 0x00, 0x00, 0x01, 0x03, 0xfe, 0x04,
  0xf9, 0xfd, 0x05, 0x01, 0xfd, 0x04, 0x09, 0xfd, 0xfd, 0x06, 0xf1, 0xfc,
  0xdc, 0x01, 0xee, 0xc3, 0x02, 0xfb, 0x08, 0x02, 0x04, 0xff, 0x05, 0xf2,
  0xf4, 0xfd, 0x00, 0xfb, 0x01, 0x01, 0x0b, 0x0f, 0xf2, 0xf9, 0x05, 0x04,
  0x08, 0xf8, 0xfb, 0xf9, 0xfd, 0x09, 0xfc, 0x04, 0x06, 0x0d, 0xfb, 0x05,
  0xec, 0xf6, 0x18, 0x05, 0xfa, 0xfd, 0x01, 0x0e, 0x08, 0xf6, 0x05, 0x04,
  0xfd, 0x03, 0xd8, 0xff, 0x03, 0xff, 0x01, 0x04, 0xfa, 0x04, 0x00, 0xff,
  0xec, 0xe0, 0xf9, 0xfc, 0xe6, 0x04, 0x02, 0xfe, 0xf5, 0x00, 0x08, 0xfe,
  0x07, 0xec, 0xc5, 0x02, 0x00, 0xef, 0x01, 0xfc, 0xfd, 0x00, 0x08, 0x02,
  0xfe, 0xf9, 0xe8, 0x05, 0x04, 0x03, 0x03, 0x01, 0x01, 0xfd, 0xec, 0xf6,
  0xfc, 0x03, 0x01, 0x01, 0xc1, 0x0b, 0xfb, 0xef, 0x03, 0x00, 0xea, 0xbd,
  0xfe, 0xfc, 0xf6, 0x01, 0x08, 0x09, 0xff, 0x04, 0x00, 0x01, 0xe6, 0x01,
  0xfe, 0xff, 0xff, 0x06, 0xdb, 0xcb, 0xf7, 0xe5, 0xf4, 0x07, 0x00, 0x02,
  0x07, 0x02, 0xdc, 0xe4, 0xf7, 0x0c, 0xfe, 0x04, 0xab, 0xbf, 0x04, 0x03,
  0xb0, 0xfa, 0xfc, 0xff, 0x01, 0x08, 0xfb, 0xfc, 0xed, 0xe6, 0xfd, 0x08,
  0x03, 0xfe, 0x07, 0x03, 0x07, 0xde, 0x04, 0xee, 0x03, 0xfe, 0xf1, 0xd5,
  0x0a, 0xf5, 0xde, 0xfc, 0x00, 0xfb, 0xad, 0x0b, 0x03, 0x07, 0xf9, 0x03,
  0x09, 0x02, 0xfe, 0xf9, 0xf8, 0xf3, 0xe8, 0x03, 0x01, 0xf9, 0x07, 0x02,
  0xf2, 0xf8, 0xe4, 0xe8, 0x0b, 0x04, 0x07, 0xc4, 0x03, 0x04, 0x02, 0x02,
  0x00, 0x03, 0x01, 0x03, 0xeb, 0xdf, 0x04, 0x00, 0xfc, 0x05, 0x03, 0xfd,
  0x07, 0xfc, 0x03, 0xcf, 0xea, 0xfa, 0xfa, 0x01, 0x03, 0xfe, 0xf1, 0xf7,
  0x02, 0xf8, 0xfc, 0xff, 0xff, 0xf8, 0xf4, 0x04, 0x05, 0xfc, 0xff, 0x06,
  0xdb, 0xef, 0x04, 0x03, 0xf5, 0x00, 0x09, 0x07, 0x0e, 0x17, 0xfc, 0x05,
  0xf7, 0x04, 0xfc, 0x00, 0x05, 0xf9, 0xfb, 0xec, 0xff, 0xf8, 0x03, 0x02,
  0x03, 0xfe, 0xfb, 0xfe, 0xf9, 0xd8, 0xd8, 0xf0, 0x02, 0xed, 0x0c, 0x04,
  0xe1, 0xfe, 0x05, 0xfd, 0xe5, 0x04, 0xfc, 0xe8, 0x01, 0xff, 0x05, 0x05,
  0xcb, 0xd0, 0x0d, 0xff, 0x0d, 0xda, 0x0b, 0xf8, 0x03, 0x03, 0x00, 0xfc,
  0x06, 0x00, 0xe6, 0x0a, 0x11, 0xcc, 0xfc, 0xe0, 0x07, 0xfd, 0x00, 0x02,
  0x0a, 0xf4, 0x0b, 0x01, 0x07, 0x07, 0x14, 0xf8, 0x0a, 0xfe, 0xff, 0xb6,
  0xd1, 0x0b, 0x0b, 0x07, 0xfa, 0xf0, 0xe6, 0x00, 0xee, 0xec, 0x03, 0xff,
  0xf1, 0xfe, 0xed, 0xfe, 0x07, 0xfc, 0xff, 0xf9, 0x02, 0xfc, 0xfd, 0x05,
  0x03, 0x03, 0x08, 0xfc, 0x00, 0xff, 0x06, 0xff, 0xfa, 0x04, 0x02, 0x04,
  0x03, 0x00, 0xdc, 0x04, 0x10, 0x04, 0x04, 0xf7, 0xfe, 0x00, 0x05, 0xfd,
  0x01, 0xc7, 0xf4, 0x04, 0xe0, 0x00, 0xff, 0xfb, 0x0d, 0x00, 0x0b, 0x0a,
  0xec, 0x07, 0xf8, 0x08, 0xfc, 0x03, 0x09, 0x05, 0xfd, 0xf7, 0x06, 0x04,
  0x05, 0xfa, 0x04, 0xf9, 0xaa, 0x01, 0x08, 0x05, 0x07, 0x11, 0x00, 0x01,
  0x00, 0x02, 0xbc, 0x01, 0x04, 0x02, 0x08, 0x04, 0x04, 0x00, 0x02, 0xfd,
  0x13, 0x04, 0x05, 0xf2, 0xff, 0x01, 0xe4, 0xec, 0xdc, 0x09, 0x0a, 0x02,
  0xfe, 0xfd, 0xfa, 0x00, 0xf1, 0xe4, 0xf3, 0x03, 0x09, 0x02, 0xfe, 0xfe,
  0xfe, 0xf3, 0xee, 0xfa, 0xb8, 0xdd, 0xfc, 0xf8, 0x09, 0x00, 0xfd, 0x03,
  0xfd, 0x08, 0xf5, 0xea, 0xf2, 0x08, 0x03, 0x05, 0xee, 0xfc, 0x00, 0x81,
  0xff, 0x09, 0x03, 0x04, 0xf5, 0x00, 0x02, 0x09, 0xfa, 0x1e, 0x02, 0x07,
  0xfc, 0x06, 0xfe, 0x02, 0xfe, 0xfc, 0x02, 0xe8, 0xfe, 0x05, 0xf7, 0x00,
  0x02, 0xf8, 0x00, 0xf0, 0x08, 0xc9, 0x03, 0x03, 0xfd, 0xf9, 0x01, 0x02,
  0xeb, 0xfc, 0xfd, 0x00, 0xff, 0xfe, 0xfe, 0xfd, 0xff, 0xf7, 0x01, 0xf0,
  0xee, 0xf5, 0xfb, 0x04, 0x00, 0xfe, 0xff, 0xfb, 0x04, 0xf8, 0xf5, 0xfc,
  0xfe, 0x05, 0x05, 0xf4, 0xfd, 0xfe, 0xee, 0xfd, 0xe6, 0x04, 0x02, 0x05,
  0x00, 0xff, 0x04, 0x01, 0x05, 0x00, 0xd3, 0xce, 0x04, 0xfc, 0x03, 0x02,
  0xff, 0x04, 0xe4, 0x09, 0xc3, 0xfc, 0xf1, 0x03, 0xf3, 0xf5, 0xf0, 0x0b,
  0xf0, 0x06, 0xff, 0x04, 0xf4, 0x09, 0xc0, 0xe1, 0xc3, 0x0c, 0x09, 0x08,
  0x08, 0x11, 0xfe, 0x0f, 0xfd, 0xe8, 0xda, 0xda, 0xfd, 0xf7, 0x06, 0x04,
  0xe7, 0x04, 0xfc, 0x06, 0xfb, 0xd3, 0xf9, 0x05, 0xf1, 0xda, 0x06, 0xff,
  0x03, 0xf6, 0xfe, 0x1b, 0xee, 0x15, 0xe0, 0x00, 0xfb, 0xfd, 0x07, 0x09,
  0xfe, 0x0b, 0xf4, 0x03, 0xfd, 0x01, 0xe6, 0x03, 0x02, 0xf8, 0xb4, 0x2d,
  0x0a, 0x06, 0x04, 0x08, 0x1a, 0x03, 0xfd, 0xf7, 0xfb, 0xfc, 0x00, 0xeb,
  0x0a, 0x04, 0xf3, 0xf7, 0xd5, 0xa5, 0x08, 0x10, 0xf4, 0xff, 0x0f, 0xfa,
  0xcd, 0xfd, 0x08, 0x03, 0xf8, 0xf4, 0x0a, 0xda, 0x02, 0x04, 0xf6, 0x00,
  0x01, 0x07, 0xe8, 0x24, 0x1f, 0xf2, 0xfe, 0xda, 0x04, 0x03, 0x09, 0x10,
  0xc7, 0xef, 0x01, 0xb2, 0xfa, 0x06, 0xe9, 0xff, 0x0e, 0x0f, 0xd3, 0x01,
  0xfe, 0xfa, 0x00, 0xfc, 0x12, 0x06, 0x16, 0xfa, 0x05, 0x03, 0x07, 0xf2,
  0xff, 0xde, 0x0b, 0xee, 0x02, 0x02, 0x0b, 0x03, 0x04, 0x09, 0xf1, 0xf1,
  0x0a, 0x0e, 0x04, 0xb5, 0x01, 0xb5, 0xfb, 0xcd, 0xf9, 0x07, 0xfa, 0xfb,
  0xe5, 0x10, 0x0d, 0xfc, 0xfc, 0xf7, 0xf5, 0x05, 0x08, 0x06, 0x06, 0xe2,
  0xd7, 0x00, 0xf8, 0xff, 0xfe, 0xf9, 0xe7, 0x04, 0x09, 0x00, 0x03, 0xd9,
  0xbe, 0x0c, 0xfe, 0xfe, 0xe2, 0x03, 0xfd, 0xfd, 0xff, 0x04, 0x00, 0xee,
  0xbf, 0xff, 0x0c, 0x0a, 0x04, 0xfa, 0x0d, 0xfc, 0xe2, 0xde, 0x14, 0x03,
  0x01, 0xf6, 0xfd, 0x0a, 0xf3, 0xd4, 0xfd, 0xf8, 0xf0, 0xc8, 0x08, 0xfd,
  0x0f, 0x0c, 0x02, 0x02, 0x04, 0xf7, 0x07, 0x01, 0xcf, 0xc4, 0xfc, 0x00,
  0xfe, 0x06, 0xcc, 0x00, 0xed, 0xd5, 0xf0, 0x0a, 0x04, 0xf6, 0x00, 0x00,
  0x00, 0x00, 0x00, 0x00, 0x6e, 0xf3, 0xff, 0xff, 0x04, 0x00, 0x00, 0x00,
  0x8b, 0x06, 0x00, 0x00, 0xee, 0xd4, 0x03, 0xef, 0xa8, 0x43, 0x32, 0x0a,
  0x29, 0xfc, 0x1e, 0x18, 0x41, 0xee, 0x2a, 0xfd, 0x0c, 0xb1, 0xc8, 0x18,
  0x0a, 0x23, 0x4b, 0x11, 0x03, 0xff, 0xf8, 0xfc, 0x0c, 0x05, 0xf5, 0xf9,
  0xf6, 0xf5, 0x05, 0x04, 0x07, 0xf7, 0xf5, 0x02, 0x00, 0xf9, 0x0b, 0xf9,
  0xf8, 0x09, 0xf4, 0xfa, 0x06, 0xf4, 0x28, 0x18, 0xfb, 0x1c, 0xdc, 0x11,
  0x37, 0xde, 0x09, 0x1c, 0xfd, 0xe7, 0xff, 0x23, 0xd2, 0xf5, 0x00, 0x2f,
  0xd5, 0xfd, 0xd3, 0x22, 0x03, 0xdb, 0xf7, 0x03, 0x13, 0x04, 0x18, 0x27,
  0x36, 0xf8, 0xe5, 0xe2, 0xfb, 0xf9, 0x0f, 0x30, 0x01, 0x22, 0x3b, 0xfd,
  0xf3, 0x13, 0x4f, 0x39, 0xff, 0xd6, 0xd4, 0xff, 0x21, 0x13, 0xfa, 0xfa,
  0xfe, 0x04, 0x2a, 0xe9, 0x00, 0x2d, 0x0c, 0xcb, 0xdb, 0x21, 0xd0, 0xfc,
  0x0a, 0x3a, 0xf9, 0xf9, 0xe7, 0x01, 0x2b, 0x03, 0x22, 0xe0, 0xed, 0xf7,
  0xce, 0xdb, 0x2d, 0x2e, 0x03, 0xd9, 0x0b, 0xf1, 0xbf, 0x0c, 0xf5, 0xd2,
  0x15, 0x08, 0x11, 0xb6, 0xf8, 0x18, 0xe8, 0x51, 0x44, 0x45, 0xf3, 0xf8,
  0xfb, 0x03, 0xfb, 0xf8, 0xf3, 0x0a, 0x02, 0xfe, 0x08, 0xf8, 0x04, 0xf4,
  0x01, 0xf6, 0x00, 0x0a, 0x04, 0x00, 0x05, 0xfa, 0xfa, 0x02, 0xfb, 0xf0,
  0x06, 0x09, 0x0a, 0xe0, 0xff, 0x26, 0x1b, 0xeb, 0x0a, 0xe6, 0xed, 0x15,
  0x1a, 0xf4, 0x09, 0x08, 0x03, 0xdb, 0xc8, 0x24, 0x16, 0x1d, 0x1f, 0xfc,
  0x0f, 0x19, 0x05, 0x02, 0x05, 0x1c, 0x17, 0x01, 0x25, 0x11, 0xd6, 0x26,
  0xec, 0x00, 0x29, 0xe1, 0xfa, 0x21, 0xfe, 0x01, 0xfe, 0x32, 0xf8, 0xe2,
  0xed, 0x0e, 0x07, 0xf9, 0x17, 0x07, 0xf4, 0xe7, 0xfe, 0x00, 0xf9, 0x1d,
  0x21, 0xfa, 0x1b, 0x11, 0x10, 0xff, 0xd8, 0x16, 0x0c, 0xf8, 0xff, 0x06,
  0xed, 0x03, 0x19, 0xee, 0x03, 0xdf, 0x0b, 0x02, 0xf3, 0x1d, 0xe2, 0xe8,
  0xf9, 0x07, 0xef, 0x14, 0xe5, 0x20, 0xfb, 0xf5, 0x3e, 0x1b, 0x0b, 0xd2,
  0x3f, 0x34, 0x65, 0xfa, 0xfc, 0x05, 0xf4, 0x0a, 0xfc, 0xfe, 0xf5, 0x05,
  0xfe, 0xff, 0xfd, 0xf4, 0xfa, 0x06, 0x06, 0xff, 0xff, 0x07, 0x03, 0x05,
  0xff, 0xf4, 0xfd, 0xf7, 0x19, 0x1c, 0xf7, 0x0e, 0xed, 0xf2, 0x14, 0x0e,
  0x06, 0xf8, 0x0e, 0x33, 0x13, 0xff, 0x1a, 0x0d, 0xfe, 0x15, 0xbd, 0x21,
  0xe4, 0x11, 0xf3, 0xda, 0x14, 0xf6, 0x05, 0x07, 0x21, 0xeb, 0x15, 0x07,
  0xf1, 0x01, 0x13, 0x27, 0x14, 0x4d, 0xfa, 0x1d, 0x0d, 0x04, 0xfd, 0xff,
  0xfe, 0x15, 0x21, 0xde, 0xe2, 0xca, 0x1c, 0x02, 0xfc, 0xf6, 0x09, 0x45,
  0x42, 0xd8, 0xfd, 0x23, 0xf1, 0xed, 0xf7, 0x0b, 0x05, 0x03, 0x08, 0x72,
  0xf2, 0x3e, 0xf9, 0x08, 0x04, 0xdd, 0x13, 0xf9, 0x06, 0x00, 0x0b, 0xf4,
  0xf6, 0xfd, 0xf8, 0xf4, 0x01, 0xfd, 0x08, 0xfe, 0xf9, 0xfe, 0x04, 0xfb,
  0x00, 0xfd, 0x02, 0x02, 0xf7, 0x0c, 0x07, 0xf7, 0xf8, 0xf5, 0xf6, 0xf4,
  0x09, 0xf4, 0x0a, 0xfb, 0xf7, 0x00, 0xf8, 0xf6, 0xf5, 0x02, 0xf4, 0xfb,
  0x09, 0x0b, 0x0a, 0x00, 0xf7, 0x09, 0x05, 0xf9, 0xf7, 0xe1, 0x15, 0x0a,
  0x04, 0x0e, 0xf1, 0xfc, 0x18, 0xe6, 0x28, 0x0f, 0xe0, 0x34, 0xf9, 0xeb,
  0x23, 0x05, 0x1f, 0x08, 0xd9, 0x2f, 0xec, 0x03, 0x4a, 0xfe, 0x02, 0x01,
  0x03, 0xfe, 0x07, 0x09, 0xf7, 0xf9, 0xf4, 0xfe, 0xfe, 0xfe, 0x0a, 0xff,
  0xff, 0xfd, 0xff, 0xfc, 0xfc, 0xf9, 0xfa, 0xfd, 0x02, 0x04, 0xf4, 0xfc,
  0x0a, 0xf4, 0xf5, 0x0c, 0x00, 0xf4, 0x04, 0xfa, 0xf5, 0x09, 0xf6, 0xff,
  0xfe, 0xfb, 0xfa, 0x07, 0xf6, 0x00, 0x00, 0x0a, 0x06, 0x00, 0x0a, 0xfd,
  0x07, 0x16, 0xf4, 0x0d, 0x00, 0xd2, 0xd9, 0x13, 0x19, 0xd4, 0x23, 0x5b,
  0x0d, 0xf0, 0x50, 0x0f, 0x02, 0x04, 0x17, 0x11, 0xfe, 0xfc, 0xcd, 0xca,
  0x41, 0x17, 0x1b, 0x02, 0x30, 0x32, 0xe1, 0xe8, 0x11, 0xc7, 0x12, 0x19,
  0xe3, 0xfe, 0x1f, 0xc3, 0x24, 0x06, 0xf8, 0x10, 0xf3, 0x18, 0xd5, 0xe0,
  0x04, 0xf3, 0x0c, 0x05, 0x07, 0x21, 0xd7, 0xfc, 0x25, 0x02, 0xea, 0xf9,
  0x2b, 0x07, 0x63, 0xfb, 0x12, 0x16, 0xf9, 0x14, 0xb2, 0x16, 0xe9, 0x04,
  0xf9, 0xd5, 0x11, 0x01, 0xdd, 0x07, 0xdb, 0xf2, 0x0d, 0x11, 0x05, 0xf7,
  0x18, 0x2d, 0xf4, 0x15, 0x0a, 0xeb, 0x08, 0xf8, 0xf8, 0x0e, 0x24, 0x09,
  0xe8, 0x36, 0x3d, 0x37, 0x0d, 0x26, 0x00, 0xfd, 0x10, 0xbb, 0xf2, 0x39,
  0xed, 0xed, 0x05, 0x1d, 0x14, 0xf9, 0xfb, 0x27, 0x04, 0x10, 0xd9, 0xf7,
  0xf9, 0xd3, 0xfc, 0x23, 0x57, 0xfd, 0xf6, 0xf8, 0x0a, 0x06, 0xfb, 0xfb,
  0xf5, 0x05, 0xfe, 0xf8, 0x02, 0xf7, 0x06, 0xf9, 0xfb, 0xf4, 0xf4, 0xf8,
  0xf7, 0x07, 0xf6, 0x06, 0x05, 0x04, 0x22, 0x14, 0x06, 0xf9, 0x01, 0xec,
  0xf7, 0x5c, 0x3e, 0x06, 0x16, 0x16, 0xf2, 0x05, 0x15, 0xf3, 0x08, 0xe6,
  0x09, 0xf1, 0xf4, 0x09, 0x3e, 0x4b, 0xf4, 0x21, 0x02, 0xf7, 0x03, 0xf5,
  0xf8, 0x15, 0x20, 0xfe, 0x09, 0x2c, 0xe6, 0x00, 0x1c, 0xc7, 0x19, 0xf6,
  0xf0, 0xf4, 0xf0, 0xe9, 0xda, 0x3f, 0x35, 0x3f, 0x0f, 0xf4, 0xf5, 0x03,
  0xfe, 0x19, 0xfc, 0x39, 0x54, 0x1d, 0x31, 0x16, 0x04, 0x0f, 0x0a, 0xe5,
  0x01, 0xc9, 0x23, 0xe6, 0xff, 0x18, 0x35, 0x45, 0xcc, 0x09, 0x0e, 0xfb,
  0x1e, 0x2e, 0x58, 0x22, 0xca, 0xed, 0x1f, 0xe0, 0xe1, 0xdf, 0x1e, 0xe9,
  0x07, 0xfe, 0xfe, 0x39, 0x02, 0x2f, 0x2b, 0xef, 0xe7, 0xe6, 0xf5, 0x11,
  0x04, 0x14, 0x13, 0xe3, 0xe4, 0x4a, 0xf4, 0x1a, 0x3c, 0xfb, 0x22, 0xf8,
  0xfd, 0x12, 0xf7, 0xea, 0x66, 0xf5, 0x0f, 0xf3, 0xe8, 0x51, 0xd8, 0x11,
  0x01, 0xfa, 0xe4, 0x11, 0x1f, 0x24, 0xde, 0x19, 0xea, 0xd4, 0x30, 0xee,
  0x0e, 0x38, 0x09, 0xfd, 0x68, 0xfd, 0x51, 0xff, 0x14, 0x09, 0xe3, 0x39,
  0xfe, 0xf8, 0x03, 0xfd, 0x02, 0xfa, 0x04, 0x06, 0xf2, 0xf6, 0xf4, 0x08,
  0xfc, 0x06, 0x09, 0xf5, 0x00, 0x05, 0x00, 0xf2, 0x01, 0x0a, 0xf7, 0x03,
  0x03, 0x06, 0xf7, 0xf5, 0xfd, 0x00, 0xff, 0x07, 0xf6, 0x03, 0x00, 0xf6,
  0x00, 0xfa, 0xf8, 0x09, 0xfc, 0x03, 0xfc, 0x08, 0xfd, 0x0c, 0xfb, 0xfe,
  0xfc, 0xf5, 0xe8, 0x04, 0x00, 0x12, 0x02, 0x0b, 0xf4, 0x10, 0x07, 0xd7,
  0x01, 0x4c, 0x2d, 0xed, 0x6b, 0x14, 0xfe, 0xfe, 0x04, 0x20, 0x36, 0x18,
  0xe8, 0xea, 0x0d, 0x22, 0x10, 0x04, 0x04, 0x26, 0xf5, 0xed, 0x00, 0xfe,
  0xf0, 0xfc, 0x22, 0xce, 0x1e, 0xf6, 0x14, 0x01, 0xff, 0x33, 0x29, 0xee,
  0xea, 0x08, 0x06, 0x36, 0x00, 0xf7, 0x0b, 0xf1, 0xd9, 0xff, 0x15, 0x38,
  0x04, 0x10, 0x0d, 0xfe, 0x3f, 0xea, 0x07, 0x0e, 0x06, 0x09, 0xd3, 0x0b,
  0xf6, 0x00, 0x19, 0x1c, 0x2c, 0xfc, 0x1a, 0xfb, 0x14, 0xfb, 0xd7, 0xf1,
  0x52, 0x40, 0xfc, 0xef, 0x33, 0x14, 0xe6, 0x3f, 0xed, 0xfc, 0xfd, 0x2d,
  0xd5, 0x0f, 0x13, 0xfb, 0x2b, 0xde, 0x05, 0x0c, 0xfa, 0x22, 0xec, 0x0b,
  0x1f, 0x0d, 0x09, 0x06, 0xec, 0x12, 0x25, 0x0d, 0x29, 0xef, 0xf7, 0xe2,
  0xec, 0xe1, 0x14, 0x35, 0xfb, 0xf3, 0xc0, 0xe7, 0xfb, 0xf8, 0x0d, 0x1c,
  0x22, 0x16, 0xf2, 0xf7, 0x12, 0xfc, 0xe6, 0x21, 0x05, 0xf4, 0x14, 0x06,
  0x13, 0x32, 0x0b, 0x41, 0x13, 0x05, 0x03, 0xf5, 0x02, 0x16, 0xf8, 0x1a,
  0x16, 0x0e, 0x17, 0xd9, 0xc4, 0x32, 0x16, 0xae, 0x11, 0xf9, 0xbe, 0x27,
  0x01, 0x33, 0x16, 0x12, 0x22, 0xf6, 0xcf, 0xf7, 0x0b, 0x1d, 0x04, 0xff,
  0xf5, 0x21, 0xf1, 0xd9, 0xe8, 0xef, 0xf6, 0x19, 0x22, 0xe6, 0x0d, 0xfc,
  0x27, 0x06, 0x08, 0x2b, 0x3f, 0xf2, 0xdc, 0xfd, 0xe9, 0x4f, 0x10, 0xfa,
  0xff, 0x1a, 0x13, 0xf9, 0xe7, 0xf0, 0x20, 0x18, 0x32, 0xf6, 0xe5, 0x1e,
  0xe2, 0xff, 0xf6, 0xf4, 0x37, 0xf8, 0xf2, 0x16, 0xf5, 0xf8, 0xcf, 0xf7,
  0xe0, 0x0a, 0xed, 0x0c, 0x5b, 0x0d, 0xee, 0x07, 0x10, 0xe6, 0xe8, 0xf9,
  0x0f, 0xf2, 0xf7, 0x07, 0xf3, 0x3f, 0x09, 0x3f, 0x1f, 0x19, 0x21, 0xf8,
  0x0a, 0xf4, 0x07, 0xfb, 0xf5, 0xf5, 0xf9, 0xf5, 0x03, 0xf9, 0xfa, 0xfe,
  0x02, 0x09, 0x03, 0x0c, 0x08, 0xfb, 0xf6, 0xf9, 0xfa, 0xf4, 0xf9, 0xf5,
  0xf9, 0x1e, 0xed, 0x0c, 0xda, 0x08, 0x15, 0x04, 0x0b, 0x1c, 0x03, 0xf9,
  0xf8, 0xbb, 0x21, 0xe0, 0xf7, 0xf5, 0x00, 0x24, 0x03, 0xd8, 0xe7, 0x51,
  0x3d, 0x4a, 0xfb, 0xf3, 0x01, 0xeb, 0x07, 0x0f, 0x07, 0x23, 0x38, 0xee,
  0xed, 0x1f, 0xfc, 0xf8, 0x39, 0xe6, 0x03, 0xf9, 0x22, 0x12, 0x15, 0x20,
  0x25, 0x05, 0x0f, 0xe8, 0x13, 0xfb, 0x16, 0xd6, 0xf4, 0x28, 0x26, 0xe3,
  0x06, 0xe9, 0xda, 0x38, 0xf4, 0xf9, 0x04, 0x06, 0x09, 0xd1, 0xb6, 0x34,
  0x23, 0x1f, 0x27, 0xfe, 0xf9, 0x00, 0x07, 0xed, 0xf4, 0xf9, 0x0d, 0x7f,
  0x52, 0x0e, 0xfd, 0x14, 0x00, 0xfb, 0x29, 0xe1, 0x01, 0xf2, 0x09, 0xe9,
  0xfa, 0x09, 0x4e, 0x41, 0x01, 0x20, 0x18, 0xf6, 0xff, 0x06, 0xce, 0xe8,
  0x43, 0x26, 0x13, 0x26, 0x28, 0xe2, 0xf7, 0xf0, 0x0e, 0xf6, 0x0a, 0x0c,
  0xea, 0xd7, 0xda, 0x1d, 0x41, 0x28, 0x04, 0x0d, 0xfc, 0xf7, 0xf8, 0xeb,
  0x08, 0x0d, 0x2c, 0x1c, 0xff, 0xf4, 0xbe, 0xf7, 0xf2, 0xe7, 0x0b, 0x0c,
  0x1c, 0xed, 0xf4, 0xf7, 0x1e, 0x2d, 0xf1, 0xfb, 0xfe, 0x02, 0xf6, 0xf6,
  0x32, 0x16, 0x01, 0x21, 0xf2, 0xf8, 0x39, 0x0a, 0xfb, 0x42, 0xf6, 0x02,
  0xe2, 0xe8, 0x22, 0x0f, 0x27, 0x10, 0xf5, 0xf3, 0x02, 0x17, 0xfb, 0x0c,
  0x0a, 0x42, 0x41, 0xd5, 0xde, 0x19, 0xd6, 0xe0, 0xfa, 0x1d, 0xf3, 0x10,
  0xf8, 0x32, 0xe6, 0x02, 0x26, 0x20, 0x0a, 0xe1, 0xec, 0x0f, 0xf2, 0xf8,
  0x08, 0x11, 0x18, 0xe8, 0xe1, 0x02, 0xfc, 0x21, 0x11, 0x0d, 0x05, 0x06,
  0x12, 0x02, 0xf3, 0x23, 0x3b, 0xf2, 0x05, 0xfd, 0xe2, 0xf5, 0xeb, 0x24,
  0x0a, 0x15, 0xfa, 0xd3, 0xed, 0x26, 0xfe, 0x08, 0xfa, 0x16, 0x1c, 0xef,
  0x2d, 0x09, 0xfc, 0x11, 0x01, 0xce, 0x22, 0x09, 0xec, 0x1c, 0xdd, 0xf7,
  0x09, 0xfb, 0x01, 0x0a, 0xf6, 0xfd, 0xfa, 0x04, 0xf4, 0xff, 0x08, 0xf7,
  0xf8, 0xff, 0x02, 0x06, 0xfb, 0xfe, 0xf8, 0x06, 0x00, 0xf4, 0x08, 0xfe,
  0xf5, 0xf5, 0x07, 0x02, 0x09, 0x01, 0xfb, 0xf8, 0x05, 0x03, 0xf9, 0x05,
  0x06, 0x02, 0x03, 0xf3, 0xfc, 0xfd, 0x04, 0x01, 0xf4, 0xf7, 0x0a, 0xf3,
  0x07, 0x05, 0x21, 0xf7, 0xff, 0x1b, 0x0d, 0x3a, 0xf6, 0xc1, 0x04, 0xc7,
  0xf3, 0xd6, 0x13, 0x07, 0x16, 0x09, 0x57, 0xb1, 0xff, 0x33, 0xed, 0x09,
  0x24, 0x4d, 0x02, 0xf3, 0x05, 0x07, 0xfc, 0x0f, 0x15, 0x12, 0xef, 0x18,
  0x18, 0xee, 0x2a, 0x05, 0xdf, 0x17, 0x04, 0xcc, 0x12, 0xee, 0x31, 0xf2,
  0x2c, 0x3e, 0x1b, 0x0c, 0x03, 0xf6, 0x03, 0xf8, 0x0a, 0xfe, 0x20, 0x58,
  0x05, 0x20, 0x44, 0x08, 0x03, 0x49, 0xd8, 0xfd, 0xde, 0x3b, 0x06, 0x02,
  0x33, 0x07, 0xff, 0xc3, 0x14, 0xf2, 0xfa, 0xf9, 0x04, 0x11, 0xf3, 0x0c,
  0x43, 0xf3, 0x31, 0x3d, 0xfd, 0x10, 0x26, 0xeb, 0x0b, 0xeb, 0x37, 0x30,
  0xe5, 0x1b, 0x1d, 0xee, 0xfd, 0xf6, 0x21, 0x07, 0x2e, 0x33, 0xfc, 0xe9,
  0x00, 0xd7, 0x13, 0x0f, 0xe4, 0x1c, 0x1b, 0xe4, 0x2d, 0x00, 0x08, 0x28,
  0x02, 0x2b, 0xf2, 0xde, 0x1c, 0xfa, 0x2b, 0x15, 0xfe, 0x24, 0xf7, 0x11,
  0x15, 0x05, 0xf4, 0x1c, 0x2f, 0xd8, 0x0d, 0x2f, 0xd7, 0xff, 0x03, 0xe7,
  0x0e, 0xf7, 0xe7, 0x18, 0xf8, 0xea, 0xc9, 0x2c, 0x10, 0x02, 0x1e, 0xf7,
  0xf9, 0x2c, 0xf0, 0xfb, 0x32, 0x0a, 0xd6, 0xe6, 0x24, 0xda, 0xea, 0xff,
  0x18, 0xe9, 0xe3, 0xd7, 0x19, 0x1d, 0xf5, 0xe4, 0xec, 0xd5, 0xf8, 0xd0,
  0xf9, 0x30, 0x13, 0x11, 0x18, 0x19, 0x0b, 0xe4, 0x02, 0xef, 0xee, 0x06,
  0xf6, 0xf8, 0x1c, 0x12, 0x25, 0xf8, 0x3c, 0x45, 0x1e, 0xfa, 0xfb, 0x01,
  0xfa, 0xf6, 0xff, 0x01, 0x09, 0xfb, 0x02, 0xfb, 0x01, 0x02, 0x05, 0x09,
  0xf9, 0xfa, 0x06, 0x08, 0xf9, 0xfe, 0xfd, 0xfb, 0xfc, 0x07, 0xe8, 0xf9,
  0xf8, 0x11, 0xe9, 0x40, 0x12, 0xef, 0x03, 0x1e, 0x0b, 0xe0, 0x32, 0xf8,
  0x0b, 0xf9, 0x03, 0xeb, 0x0b, 0x07, 0x35, 0x28, 0x09, 0xf7, 0xdc, 0x00,
  0x00, 0x00, 0x00, 0x00, 0x00, 0x00, 0x00, 0x00, 0x0e, 0xfa, 0xff, 0xff,
  0x04, 0x00, 0x00, 0x00, 0x20, 0x03, 0x00, 0x00, 0x2f, 0x43, 0x01, 0x3e,
  0x26, 0xd6, 0x45, 0x3f, 0xf6, 0x9d, 0x63, 0xbf, 0x85, 0x4e, 0x3a, 0xbf,
  0xa7, 0x11, 0x9d, 0x3e, 0xc9, 0xf7, 0x80, 0xbe, 0x5f, 0xba, 0x3d, 0xbf,
  0x7b, 0x38, 0x3f, 0x3f, 0x3e, 0x65, 0x7f, 0x3f, 0xa6, 0xff, 0x1e, 0x3e,
  0x19, 0xf2, 0x30, 0x3f, 0xb1, 0xa3, 0x36, 0xbf, 0x64, 0x57, 0x7c, 0x3e,
  0x7e, 0xb5, 0x27, 0x3e, 0xd1, 0xbf, 0xef, 0xbf, 0xbe, 0x01, 0xf5, 0xbd,
  0xd0, 0x14, 0x88, 0xbc, 0xe4, 0x15, 0xc5, 0xbd, 0x90, 0x64, 0x18, 0x3e,
  0x70, 0xf9, 0x46, 0xbe, 0x55, 0xdb, 0xd6, 0xbe, 0x68, 0x4a, 0x99, 0x3d,
  0x94, 0x3c, 0x0f, 0xbe, 0xe8, 0xf5, 0xfd, 0x3d, 0x1e, 0xff, 0x9b, 0x3f,
  0x4d, 0x49, 0xe8, 0xbe, 0xf6, 0x72, 0x78, 0x3f, 0x9f, 0x50, 0x8a, 0xbe,
  0xe0, 0xf7, 0x2c, 0x3e, 0xc4, 0x8f, 0x70, 0x3f, 0x00, 0x47, 0xc1, 0xbf,
  0x80, 0xf5, 0xf2, 0x3e, 0x26, 0x87, 0x76, 0x3e, 0xf4, 0xd8, 0x0e, 0x3f,
  0xed, 0x94, 0xb7, 0x3e, 0xd6, 0x88, 0xe5, 0x3f, 0x62, 0x28, 0x3d, 0xbc,
  0x1c, 0x19, 0x20, 0xbf, 0x91, 0xb6, 0xe5, 0xbf, 0xc3, 0xc3, 0xcb, 0x3e,
  0xbf, 0x1b, 0x72, 0xbf, 0xd5, 0xef, 0x6f, 0x3f, 0x81, 0xde, 0x66, 0x3f,
  0x2b, 0x74, 0x8e, 0x3e, 0x9a, 0xdf, 0x34, 0xbe, 0x5c, 0xe0, 0xc4, 0x3e,
  0x7c, 0x20, 0x14, 0x40, 0x98, 0x72, 0x35, 0x3f, 0x70, 0xfd, 0xd2, 0xbe,
  0x3e, 0x5c, 0x88, 0x3f, 0xf3, 0x49, 0x29, 0x3f, 0xff, 0xc9, 0xd1, 0xbf,
  0x1e, 0x68, 0xab, 0x3e, 0x70, 0x5f, 0x2d, 0x3f, 0x24, 0x1d, 0x09, 0x40,
  0xf0, 0x8d, 0x7f, 0xbe, 0x13, 0x46, 0x89, 0x3f, 0xe9, 0x1c, 0xff, 0xbe,
  0x73, 0xfe, 0x55, 0xbf, 0xfa, 0x46, 0xad, 0x3c, 0x16, 0xd1, 0x33, 0x3e,
  0xa5, 0x26, 0x5b, 0x3e, 0x00, 0xbb, 0x77, 0x3e, 0xc0, 0x54, 0x11, 0xbf,
  0x9e, 0x82, 0xa9, 0xbe, 0xb8, 0x09, 0x79, 0xbf, 0x3d, 0xc9, 0x08, 0xbf,
  0x22, 0x19, 0x0a, 0xbf, 0x0c, 0x42, 0x95, 0x3e, 0x21, 0xac, 0x06, 0xbf,
  0x1d, 0x0b, 0x8c, 0x3f, 0x54, 0x70, 0x72, 0x3f, 0x3c, 0xa5, 0x9a, 0x3f,
  0x9c, 0x61, 0x55, 0x3f, 0xdb, 0x8b, 0x33, 0x3f, 0x76, 0x37, 0xa2, 0xbf,
  0xe3, 0x01, 0x03, 0xbf, 0xfb, 0x56, 0x1b, 0xbf, 0x1a, 0xe8, 0x0c, 0x40,
  0xd9, 0x28, 0x0f, 0x3f, 0x4b, 0x4f, 0xb1, 0x3f, 0x48, 0xce, 0x11, 0xbf,
  0x9d, 0x9b, 0x87, 0xbf, 0x05, 0x9c, 0xc8, 0x3d, 0xfd, 0x8c, 0x31, 0x3f,
  0xf6, 0x57, 0x01, 0xbf, 0x2c, 0xa7, 0x3c, 0x3f, 0x89, 0x42, 0x44, 0x3f,
  0xb9, 0xee, 0x01, 0xbf, 0xd8, 0xb4, 0x6a, 0xbf, 0x9e, 0x6f, 0xb5, 0xbe,
  0x20, 0xfa, 0xf1, 0x3e, 0x83, 0xd7, 0x89, 0x3f, 0x36, 0xae, 0x87, 0xbc,
  0x25, 0xe8, 0x7f, 0xbf, 0x4c, 0x18, 0x10, 0x3e, 0x6e, 0x9c, 0x33, 0x3f,
  0xf3, 0x0f, 0x83, 0xbf, 0xfa, 0xd0, 0x14, 0x3f, 0x28, 0xc2, 0x44, 0x3e,
  0x14, 0xdb, 0x5a, 0x3f, 0x00, 0x42, 0x88, 0x3f, 0xe4, 0xae, 0xa6, 0x3f,
  0xb7, 0xf4, 0x27, 0xbf, 0x94, 0x38, 0x2f, 0x3e, 0xe2, 0xb9, 0xc0, 0x3f,
  0xc4, 0xd4, 0xdf, 0xbe, 0x6d, 0x34, 0x7c, 0x3e, 0xff, 0x00, 0x8c, 0xbe,
  0x11, 0x52, 0x59, 0x3f, 0x86, 0x27, 0xdf, 0xbe, 0xa2, 0xf5, 0x9f, 0x3f,
  0xea, 0xe0, 0x68, 0xbf, 0x77, 0xfd, 0xa4, 0xbf, 0x61, 0x5b, 0x0b, 0x3f,
  0x21, 0xf6, 0x8a, 0xbd, 0xf3, 0xac, 0x87, 0x3f, 0x0e, 0xc2, 0x29, 0x3e,
  0x58, 0xdb, 0x02, 0xbf, 0xe6, 0x34, 0x54, 0x3e, 0xe6, 0x6a, 0x64, 0x3f,
  0x87, 0xb8, 0x6b, 0x3f, 0x47, 0x9b, 0xcf, 0xbc, 0xfc, 0x03, 0xed, 0x3f,
  0x9f, 0x60, 0x6c, 0x3f, 0xfb, 0x32, 0xd7, 0x3e, 0xf3, 0xda, 0xee, 0xbe,
  0x9c, 0xa8, 0x45, 0xbf, 0x40, 0xa6, 0x8d, 0x3d, 0xd6, 0xd7, 0xad, 0xbe,
  0xb2, 0xf6, 0xac, 0xbe, 0xe0, 0x65, 0x13, 0xbd, 0x24, 0xf7, 0xb0, 0xbe,
  0x6e, 0x26, 0x90, 0xbe, 0x66, 0xbd, 0xcf, 0xbe, 0x30, 0xce, 0x7f, 0xbd,
  0xb3, 0x68, 0xa0, 0xbe, 0x49, 0xa0, 0x90, 0x3f, 0xcd, 0xb3, 0xab, 0x3f,
  0xeb, 0x7d, 0x73, 0xbe, 0x3d, 0x50, 0x90, 0x3f, 0xe4, 0xe7, 0x53, 0xbf,
  0x58, 0x67, 0x69, 0xbf, 0x1a, 0xda, 0x1b, 0xbf, 0xc0, 0xa2, 0x82, 0x3e,
  0x99, 0x58, 0x78, 0xbf, 0x22, 0x60, 0xad, 0x3e, 0xdb, 0x2b, 0x0b, 0x40,
  0x4c, 0x64, 0x0e, 0xbf, 0x44, 0x1a, 0x84, 0xbf, 0x7e, 0xe0, 0x8d, 0x3e,
  0xa4, 0xd1, 0x6b, 0x3f, 0x98, 0xd1, 0x40, 0xbf, 0x76, 0x89, 0x85, 0x3e,
  0x15, 0x65, 0x10, 0xbe, 0x33, 0xa7, 0x95, 0x3f, 0x3f, 0x7a, 0xbc, 0x3f,
  0x3a, 0x94, 0x32, 0xbf, 0x0a, 0x6f, 0x91, 0xbd, 0x17, 0x38, 0xf9, 0x3e,
  0x7d, 0x95, 0x8a, 0xbb, 0x50, 0xa5, 0xb0, 0xbd, 0x10, 0x41, 0xa3, 0x3f,
  0xdc, 0xf0, 0xe1, 0x3f, 0x2f, 0x0c, 0x91, 0xbe, 0x09, 0xfb, 0x19, 0x3f,
  0x5d, 0x1f, 0x78, 0x3f, 0xc8, 0xa4, 0x0a, 0xbf, 0x4e, 0xba, 0x1b, 0xbf,
  0xea, 0x9a, 0x6d, 0xbf, 0x86, 0x83, 0x8c, 0x3f, 0x72, 0xe7, 0x78, 0xbf,
  0x08, 0x74, 0x75, 0x3e, 0xd5, 0x3b, 0x4e, 0x3f, 0x10, 0xc4, 0x61, 0x3f,
  0x46, 0x5b, 0x4f, 0x3f, 0x0c, 0x24, 0x5d, 0xbe, 0xc3, 0x9e, 0x00, 0x3f,
  0x4b, 0x54, 0x81, 0xbf, 0x08, 0xeb, 0x0f, 0xbc, 0xd8, 0xcc, 0x14, 0xbe,
  0x50, 0x4b, 0x2a, 0x3e, 0x43, 0x09, 0x0a, 0x40, 0x30, 0xcf, 0x92, 0xbd,
  0x57, 0xa7, 0x63, 0x3f, 0x5e, 0xb6, 0xd8, 0x3e, 0x53, 0xa2, 0x64, 0xbf,
  0xd8, 0x27, 0x2e, 0x3f, 0xab, 0xad, 0xfe, 0xbe, 0xe6, 0x40, 0xf1, 0xbd,
  0xd1, 0x9c, 0xab, 0x3f, 0xb4, 0x3b, 0x20, 0xbf, 0xc8, 0xea, 0x25, 0xbf,
  0xe0, 0x21, 0x6e, 0x3f, 0x03, 0x56, 0x6f, 0xbf, 0xea, 0xab, 0xb5, 0x3f,
  0x67, 0xe5, 0x7c, 0x3f, 0xe9, 0x33, 0x90, 0xbe, 0x3f, 0x29, 0xbd, 0x3e,
  0x1b, 0x88, 0x2a, 0xbf, 0x00, 0x00, 0x00, 0x00, 0x3e, 0xfd, 0xff, 0xff,
  0x04, 0x00, 0x00, 0x00, 0x68, 0x00, 0x00, 0x00, 0x2e, 0x55, 0xeb, 0x3d,
  0x0f, 0x28, 0x14, 0xbe, 0x55, 0x8d, 0xb5, 0x3d, 0xda, 0xba, 0x07, 0xbe,
  0x14, 0x9f, 0x39, 0xbc, 0xb2, 0x8b, 0xc8, 0xbd, 0x9c, 0x18, 0xbc, 0xbe,
  0xd8, 0x72, 0x79, 0xbf, 0xed, 0x7c, 0x50, 0xbf, 0xb3, 0x2b, 0x0c, 0xbf,
  0x7f, 0xc3, 0x0c, 0xbf, 0x1f, 0x88, 0xbe, 0xbe, 0xd2, 0x0e, 0xdd, 0xbe,
  0x97, 0x7f, 0x2b, 0x3e, 0xc2, 0x97, 0x26, 0x3f, 0x16, 0x68, 0x96, 0xbd,
  0x9b, 0xb8, 0xb5, 0xbe, 0x9d, 0xfb, 0xe9, 0x3e, 0xb7, 0xd1, 0x4c, 0x3f,
  0xfd, 0xcd, 0xe1, 0x3e, 0x7b, 0x0d, 0xfb, 0xbe, 0x6e, 0xb7, 0x56, 0x3b,
  0x89, 0xa0, 0x15, 0x3e, 0xc6, 0x35, 0xa3, 0xbe, 0x6a, 0x2b, 0x13, 0xbf,
  0x8d, 0x4e, 0x58, 0x3e, 0x00, 0x00, 0x00, 0x00, 0x00, 0x00, 0x00, 0x00,
  0x00, 0x00, 0x00, 0x00, 0xbe, 0xfd, 0xff, 0xff, 0x04, 0x00, 0x00, 0x00,
  0x0c, 0x01, 0x00, 0x00, 0x43, 0x8c, 0xbf, 0xbe, 0x00, 0x00, 0x00, 0x00,
  0x3e, 0xeb, 0x7f, 0xbe, 0x0f, 0x7f, 0xd3, 0xbe, 0x7a, 0x67, 0x5b, 0xbd,
  0x92, 0x2b, 0x01, 0xbe, 0xf0, 0x2b, 0x04, 0xbd, 0x6c, 0xee, 0xfe, 0x3e,
  0x8f, 0xb4, 0x48, 0x3f, 0xeb, 0x7f, 0x6c, 0xbe, 0x48, 0x4a, 0x50, 0xbc,
  0x13, 0x18, 0x87, 0x3b, 0x20, 0x95, 0x49, 0xbb, 0x90, 0x7c, 0xe6, 0xbe,
  0x41, 0x33, 0x34, 0xbe, 0x00, 0x00, 0x00, 0x00, 0x00, 0x00, 0x00, 0x00,
  0xfe, 0x63, 0x4d, 0x3e, 0x87, 0xb0, 0xf9, 0xbc, 0xdf, 0x1c, 0x9b, 0x3a,
  0x5a, 0xfb, 0xaa, 0x3d, 0x34, 0x4b, 0x22, 0xbe, 0x95, 0x33, 0x8d, 0xbf,
  0x94, 0x89, 0xed, 0xbe, 0x67, 0xc2, 0xcc, 0x3e, 0x00, 0x00, 0x00, 0x00,
  0x69, 0xf0, 0x44, 0x3f, 0x8d, 0x01, 0x90, 0x3d, 0xb5, 0x33, 0x0b, 0x3f,
  0xbe, 0x9e, 0xbe, 0x3d, 0x12, 0x98, 0x6e, 0xbe, 0x40, 0xf4, 0x0e, 0x3f,
  0x9a, 0x71, 0x06, 0xbd, 0x00, 0x00, 0x00, 0x00, 0x8d, 0x81, 0x90, 0x3e,
  0xbc, 0x0f, 0x80, 0x3e, 0x8e, 0xf5, 0x16, 0xbd, 0x44, 0xe0, 0xaa, 0x3f,
  0xbb, 0xbd, 0x05, 0x3f, 0xc7, 0x49, 0x3b, 0xbe, 0x67, 0xc2, 0x47, 0xbf,
  0x50, 0x84, 0x4c, 0xbf, 0x82, 0xf5, 0x25, 0xbe, 0x1b, 0x03, 0x83, 0x3e,
  0xa3, 0x13, 0x37, 0xbc, 0xa0, 0x75, 0x14, 0x3f, 0xf2, 0xcc, 0x72, 0x3f,
  0xd7, 0xd9, 0x30, 0x3f, 0xf5, 0x5a, 0x5d, 0x3f, 0xee, 0x41, 0x4e, 0x3f,
  0x55, 0xd5, 0x3c, 0x3f, 0x71, 0xee, 0xbd, 0x3e, 0x55, 0x37, 0x60, 0x3e,
  0xa1, 0xcb, 0x22, 0xbf, 0x80, 0xc0, 0x01, 0x3f, 0x6d, 0x88, 0xd7, 0x31,
  0xe6, 0xde, 0xec, 0xbc, 0x05, 0x92, 0x75, 0x3f, 0x71, 0x11, 0x33, 0xbc,
  0xc9, 0xe5, 0x15, 0x3f, 0x48, 0x0b, 0xe2, 0x3c, 0x38, 0x27, 0x12, 0xbb,
  0xd8, 0x0e, 0x59, 0xbe, 0x49, 0x44, 0x96, 0x3e, 0x92, 0xd8, 0x8b, 0x3d,
  0x97, 0x2d, 0x23, 0xba, 0x42, 0x7d, 0xcc, 0xbe, 0x00, 0x00, 0x00, 0x00,
  0x00, 0x00, 0x00, 0x00, 0xde, 0xfe, 0xff, 0xff, 0x04, 0x00, 0x00, 0x00,
  0x64, 0x00, 0x00, 0x00, 0xec, 0x07, 0xc4, 0x3e, 0xd2, 0xf3, 0xa3, 0x3e,
  0x00, 0x00, 0x00, 0x00, 0x6f, 0xfa, 0xb8, 0xbe, 0xe2, 0x41, 0x89, 0xbd,
  0x3d, 0x2b, 0xbc, 0xbe, 0x96, 0x49, 0xf0, 0x3c, 0xcc, 0xeb, 0x71, 0x3f,
  0x64, 0xf3, 0x7e, 0x3f, 0xf1, 0xc2, 0x11, 0xbe, 0x4b, 0x13, 0x33, 0xbd,
  0xc3, 0xb1, 0x6e, 0x3f, 0x78, 0xc3, 0xa6, 0xbe, 0xd3, 0xdd, 0x77, 0x3d,
  0x6a, 0xd2, 0x3b, 0x3f, 0x06, 0x11, 0xc4, 0xbe, 0x00, 0x00, 0x00, 0x00,
  0xfa, 0x93, 0x16, 0xbd, 0x72, 0x0a, 0xfc, 0x3c, 0x30, 0x4e, 0x19, 0xbe,
  0x24, 0xae, 0x8e, 0xbe, 0x93, 0xa5, 0x33, 0x3e, 0xe7, 0x4d, 0x1b, 0x3f,
  0xb9, 0xbb, 0x36, 0x3f, 0x80, 0x8a, 0xae, 0x3e, 0x00, 0x00, 0x00, 0x00,
  0x00, 0x00, 0x00, 0x00, 0xc4, 0xf9, 0xff, 0xff, 0x00, 0x00, 0x00, 0x00,
  0x00, 0x00, 0x00, 0x00, 0x00, 0x00, 0x00, 0x00, 0xd4, 0xf9, 0xff, 0xff,
  0x00, 0x00, 0x00, 0x00, 0x00, 0x00, 0x00, 0x00, 0x0f, 0x00, 0x00, 0x00,
  0x4d, 0x4c, 0x49, 0x52, 0x20, 0x43, 0x6f, 0x6e, 0x76, 0x65, 0x72, 0x74,
  0x65, 0x64, 0x2e, 0x00, 0x01, 0x00, 0x00, 0x00, 0x14, 0x00, 0x00, 0x00,
  0x00, 0x00, 0x0e, 0x00, 0x18, 0x00, 0x04, 0x00, 0x08, 0x00, 0x0c, 0x00,
  0x10, 0x00, 0x14, 0x00, 0x0e, 0x00, 0x00, 0x00, 0x68, 0x01, 0x00, 0x00,
  0x5c, 0x01, 0x00, 0x00, 0x50, 0x01, 0x00, 0x00, 0x14, 0x00, 0x00, 0x00,
  0x04, 0x00, 0x00, 0x00, 0x04, 0x00, 0x00, 0x00, 0x6d, 0x61, 0x69, 0x6e,
  0x00, 0x00, 0x00, 0x00, 0x04, 0x00, 0x00, 0x00, 0xf8, 0x00, 0x00, 0x00,
  0xa4, 0x00, 0x00, 0x00, 0x50, 0x00, 0x00, 0x00, 0x14, 0x00, 0x00, 0x00,
  0x00, 0x00, 0x0e, 0x00, 0x1a, 0x00, 0x08, 0x00, 0x0c, 0x00, 0x10, 0x00,
  0x07, 0x00, 0x14, 0x00, 0x0e, 0x00, 0x00, 0x00, 0x00, 0x00, 0x00, 0x09,
  0x01, 0x00, 0x00, 0x00, 0x24, 0x00, 0x00, 0x00, 0x18, 0x00, 0x00, 0x00,
  0x0c, 0x00, 0x00, 0x00, 0x00, 0x00, 0x06, 0x00, 0x08, 0x00, 0x04, 0x00,
  0x06, 0x00, 0x00, 0x00, 0x00, 0x00, 0x80, 0x3f, 0x01, 0x00, 0x00, 0x00,
  0x0a, 0x00, 0x00, 0x00, 0x01, 0x00, 0x00, 0x00, 0x09, 0x00, 0x00, 0x00,
  0xbe, 0xff, 0xff, 0xff, 0x00, 0x00, 0x00, 0x08, 0x28, 0x00, 0x00, 0x00,
  0x1c, 0x00, 0x00, 0x00, 0x10, 0x00, 0x00, 0x00, 0x0c, 0x00, 0x08, 0x00,
  0x00, 0x00, 0x00, 0x00, 0x00, 0x00, 0x07, 0x00, 0x0c, 0x00, 0x00, 0x00,
  0x00, 0x00, 0x00, 0x01, 0x01, 0x00, 0x00, 0x00, 0x09, 0x00, 0x00, 0x00,
  0x03, 0x00, 0x00, 0x00, 0x08, 0x00, 0x00, 0x00, 0x06, 0x00, 0x00, 0x00,
  0x03, 0x00, 0x00, 0x00, 0x00, 0x00, 0x0e, 0x00, 0x14, 0x00, 0x00, 0x00,
  0x08, 0x00, 0x0c, 0x00, 0x07, 0x00, 0x10, 0x00, 0x0e, 0x00, 0x00, 0x00,
  0x00, 0x00, 0x00, 0x08, 0x28, 0x00, 0x00, 0x00, 0x1c, 0x00, 0x00, 0x00,
  0x10, 0x00, 0x00, 0x00, 0x0c, 0x00, 0x08, 0x00, 0x06, 0x00, 0x00, 0x00,
  0x00, 0x00, 0x07, 0x00, 0x0c, 0x00, 0x00, 0x00, 0x00, 0x00, 0x01, 0x01,
  0x01, 0x00, 0x00, 0x00, 0x08, 0x00, 0x00, 0x00, 0x03, 0x00, 0x00, 0x00,
  0x07, 0x00, 0x00, 0x00, 0x05, 0x00, 0x00, 0x00, 0x02, 0x00, 0x00, 0x00,
  0x00, 0x00, 0x0e, 0x00, 0x16, 0x00, 0x00, 0x00, 0x08, 0x00, 0x0c, 0x00,
  0x07, 0x00, 0x10, 0x00, 0x0e, 0x00, 0x00, 0x00, 0x00, 0x00, 0x00, 0x08,
  0x24, 0x00, 0x00, 0x00, 0x18, 0x00, 0x00, 0x00, 0x0c, 0x00, 0x00, 0x00,
  0x00, 0x00, 0x06, 0x00, 0x08, 0x00, 0x07, 0x00, 0x06, 0x00, 0x00, 0x00,
  0x00, 0x00, 0x00, 0x01, 0x01, 0x00, 0x00, 0x00, 0x07, 0x00, 0x00, 0x00,
  0x03, 0x00, 0x00, 0x00, 0x00, 0x00, 0x00, 0x00, 0x04, 0x00, 0x00, 0x00,
  0x01, 0x00, 0x00, 0x00, 0x01, 0x00, 0x00, 0x00, 0x0a, 0x00, 0x00, 0x00,
  0x01, 0x00, 0x00, 0x00, 0x00, 0x00, 0x00, 0x00, 0x0b, 0x00, 0x00, 0x00,
  0x60, 0x04, 0x00, 0x00, 0xec, 0x03, 0x00, 0x00, 0x7c, 0x03, 0x00, 0x00,
  0x1c, 0x03, 0x00, 0x00, 0xd4, 0x02, 0x00, 0x00, 0x5c, 0x02, 0x00, 0x00,
  0xe4, 0x01, 0x00, 0x00, 0x54, 0x01, 0x00, 0x00, 0xc4, 0x00, 0x00, 0x00,
  0x4c, 0x00, 0x00, 0x00, 0x04, 0x00, 0x00, 0x00, 0xe0, 0xfb, 0xff, 0xff,
  0x34, 0x00, 0x00, 0x00, 0x0b, 0x00, 0x00, 0x00, 0x1c, 0x00, 0x00, 0x00,
  0x14, 0x00, 0x00, 0x00, 0x04, 0x00, 0x00, 0x00, 0x02, 0x00, 0x00, 0x00,
  0xff, 0xff, 0xff, 0xff, 0x1a, 0x00, 0x00, 0x00, 0xcc, 0xfb, 0xff, 0xff,
  0x08, 0x00, 0x00, 0x00, 0x49, 0x64, 0x65, 0x6e, 0x74, 0x69, 0x74, 0x79,
  0x00, 0x00, 0x00, 0x00, 0x02, 0x00, 0x00, 0x00, 0x01, 0x00, 0x00, 0x00,
  0x1a, 0x00, 0x00, 0x00, 0x24, 0xfc, 0xff, 0xff, 0x64, 0x00, 0x00, 0x00,
  0x0a, 0x00, 0x00, 0x00, 0x1c, 0x00, 0x00, 0x00, 0x14, 0x00, 0x00, 0x00,
  0x04, 0x00, 0x00, 0x00, 0x02, 0x00, 0x00, 0x00, 0xff, 0xff, 0xff, 0xff,
  0x1a, 0x00, 0x00, 0x00, 0x10, 0xfc, 0xff, 0xff, 0x38, 0x00, 0x00, 0x00,
  0x73, 0x65, 0x71, 0x75, 0x65, 0x6e, 0x74, 0x69, 0x61, 0x6c, 0x5f, 0x31,
  0x2f, 0x64, 0x65, 0x6e, 0x73, 0x65, 0x5f, 0x35, 0x2f, 0x4d, 0x61, 0x74,
  0x4d, 0x75, 0x6c, 0x3b, 0x73, 0x65, 0x71, 0x75, 0x65, 0x6e, 0x74, 0x69,
  0x61, 0x6c, 0x5f, 0x31, 0x2f, 0x64, 0x65, 0x6e, 0x73, 0x65, 0x5f, 0x35,
  0x2f, 0x42, 0x69, 0x61, 0x73, 0x41, 0x64, 0x64, 0x00, 0x00, 0x00, 0x00,
  0x02, 0x00, 0x00, 0x00, 0x01, 0x00, 0x00, 0x00, 0x1a, 0x00, 0x00, 0x00,
  0x98, 0xfc, 0xff, 0xff, 0x7c, 0x00, 0x00, 0x00, 0x09, 0x00, 0x00, 0x00,
  0x1c, 0x00, 0x00, 0x00, 0x14, 0x00, 0x00, 0x00, 0x04, 0x00, 0x00, 0x00,
  0x02, 0x00, 0x00, 0x00, 0xff, 0xff, 0xff, 0xff, 0x43, 0x00, 0x00, 0x00,
  0x84, 0xfc, 0xff, 0xff, 0x52, 0x00, 0x00, 0x00, 0x73, 0x65, 0x71, 0x75,
  0x65, 0x6e, 0x74, 0x69, 0x61, 0x6c, 0x5f, 0x31, 0x2f, 0x64, 0x65, 0x6e,
  0x73, 0x65, 0x5f, 0x34, 0x2f, 0x4d, 0x61, 0x74, 0x4d, 0x75, 0x6c, 0x3b,
  0x73, 0x65, 0x71, 0x75, 0x65, 0x6e, 0x74, 0x69, 0x61, 0x6c, 0x5f, 0x31,
  0x2f, 0x64, 0x65, 0x6e, 0x73, 0x65, 0x5f, 0x34, 0x2f, 0x52, 0x65, 0x6c,
  0x75, 0x3b, 0x73, 0x65, 0x71, 0x75, 0x65, 0x6e, 0x74, 0x69, 0x61, 0x6c,
  0x5f, 0x31, 0x2f, 0x64, 0x65, 0x6e, 0x73, 0x65, 0x5f, 0x34, 0x2f, 0x42,
  0x69, 0x61, 0x73, 0x41, 0x64, 0x64, 0x00, 0x00, 0x02, 0x00, 0x00, 0x00,
  0x01, 0x00, 0x00, 0x00, 0x43, 0x00, 0x00, 0x00, 0x24, 0xfd, 0xff, 0xff,
  0x7c, 0x00, 0x00, 0x00, 0x08, 0x00, 0x00, 0x00, 0x1c, 0x00, 0x00, 0x00,
  0x14, 0x00, 0x00, 0x00, 0x04, 0x00, 0x00, 0x00, 0x02, 0x00, 0x00, 0x00,
  0xff, 0xff, 0xff, 0xff, 0x19, 0x00, 0x00, 0x00, 0x10, 0xfd, 0xff, 0xff,
  0x52, 0x00, 0x00, 0x00, 0x73, 0x65, 0x71, 0x75, 0x65, 0x6e, 0x74, 0x69,
  0x61, 0x6c, 0x5f, 0x31, 0x2f, 0x64, 0x65, 0x6e, 0x73, 0x65, 0x5f, 0x33,
  0x2f, 0x4d, 0x61, 0x74, 0x4d, 0x75, 0x6c, 0x3b, 0x73, 0x65, 0x71, 0x75,
  0x65, 0x6e, 0x74, 0x69, 0x61, 0x6c, 0x5f, 0x31, 0x2f, 0x64, 0x65, 0x6e,
  0x73, 0x65, 0x5f, 0x33, 0x2f, 0x52, 0x65, 0x6c, 0x75, 0x3b, 0x73, 0x65,
  0x71, 0x75, 0x65, 0x6e, 0x74, 0x69, 0x61, 0x6c, 0x5f, 0x31, 0x2f, 0x64,
  0x65, 0x6e, 0x73, 0x65, 0x5f, 0x33, 0x2f, 0x42, 0x69, 0x61, 0x73, 0x41,
  0x64, 0x64, 0x00, 0x00, 0x02, 0x00, 0x00, 0x00, 0x01, 0x00, 0x00, 0x00,
  0x19, 0x00, 0x00, 0x00, 0x9a, 0xff, 0xff, 0xff, 0x00, 0x00, 0x00, 0x09,
  0x50, 0x00, 0x00, 0x00, 0x07, 0x00, 0x00, 0x00, 0x28, 0x00, 0x00, 0x00,
  0x04, 0x00, 0x00, 0x00, 0x8c, 0xff, 0xff, 0xff, 0x14, 0x00, 0x00, 0x00,
  0x04, 0x00, 0x00, 0x00, 0x01, 0x00, 0x00, 0x00, 0x00, 0x00, 0x00, 0x00,
  0x00, 0x00, 0x00, 0x00, 0x01, 0x00, 0x00, 0x00, 0x3a, 0x13, 0x6a, 0x3d,
  0x1b, 0x00, 0x00, 0x00, 0x73, 0x65, 0x71, 0x75, 0x65, 0x6e, 0x74, 0x69,
  0x61, 0x6c, 0x5f, 0x31, 0x2f, 0x64, 0x65, 0x6e, 0x73, 0x65, 0x5f, 0x35,
  0x2f, 0x4d, 0x61, 0x74, 0x4d, 0x75, 0x6c, 0x00, 0x02, 0x00, 0x00, 0x00,
  0x1a, 0x00, 0x00, 0x00, 0x43, 0x00, 0x00, 0x00, 0x00, 0x00, 0x0e, 0x00,
  0x18, 0x00, 0x08, 0x00, 0x07, 0x00, 0x0c, 0x00, 0x10, 0x00, 0x14, 0x00,
  0x0e, 0x00, 0x00, 0x00, 0x00, 0x00, 0x00, 0x09, 0x60, 0x00, 0x00, 0x00,
  0x06, 0x00, 0x00, 0x00, 0x38, 0x00, 0x00, 0x00, 0x10, 0x00, 0x00, 0x00,
  0x0c, 0x00, 0x0c, 0x00, 0x00, 0x00, 0x00, 0x00, 0x04, 0x00, 0x08, 0x00,
  0x0c, 0x00, 0x00, 0x00, 0x18, 0x00, 0x00, 0x00, 0x04, 0x00, 0x00, 0x00,
  0x01, 0x00, 0x00, 0x00, 0x00, 0x00, 0x00, 0x00, 0x00, 0x00, 0x00, 0x00,
  0x00, 0x00, 0x00, 0x00, 0x01, 0x00, 0x00, 0x00, 0xef, 0xad, 0xa9, 0x3c,
  0x1b, 0x00, 0x00, 0x00, 0x73, 0x65, 0x71, 0x75, 0x65, 0x6e, 0x74, 0x69,
  0x61, 0x6c, 0x5f, 0x31, 0x2f, 0x64, 0x65, 0x6e, 0x73, 0x65, 0x5f, 0x34,
  0x2f, 0x4d, 0x61, 0x74, 0x4d, 0x75, 0x6c, 0x00, 0x02, 0x00, 0x00, 0x00,
  0x43, 0x00, 0x00, 0x00, 0x19, 0x00, 0x00, 0x00, 0x02, 0xff, 0xff, 0xff,
  0x34, 0x00, 0x00, 0x00, 0x05, 0x00, 0x00, 0x00, 0x0c, 0x00, 0x00, 0x00,
  0x04, 0x00, 0x00, 0x00, 0x74, 0xfe, 0xff, 0xff, 0x1b, 0x00, 0x00, 0x00,
  0x73, 0x65, 0x71, 0x75, 0x65, 0x6e, 0x74, 0x69, 0x61, 0x6c, 0x5f, 0x31,
  0x2f, 0x64, 0x65, 0x6e, 0x73, 0x65, 0x5f, 0x33, 0x2f, 0x4d, 0x61, 0x74,
  0x4d, 0x75, 0x6c, 0x00, 0x02, 0x00, 0x00, 0x00, 0x19, 0x00, 0x00, 0x00,
  0x08, 0x00, 0x00, 0x00, 0x46, 0xff, 0xff, 0xff, 0x50, 0x00, 0x00, 0x00,
  0x04, 0x00, 0x00, 0x00, 0x0c, 0x00, 0x00, 0x00, 0x04, 0x00, 0x00, 0x00,
  0xb8, 0xfe, 0xff, 0xff, 0x34, 0x00, 0x00, 0x00, 0x73, 0x65, 0x71, 0x75,
  0x65, 0x6e, 0x74, 0x69, 0x61, 0x6c, 0x5f, 0x31, 0x2f, 0x64, 0x65, 0x6e,
  0x73, 0x65, 0x5f, 0x35, 0x2f, 0x42, 0x69, 0x61, 0x73, 0x41, 0x64, 0x64,
  0x2f, 0x52, 0x65, 0x61, 0x64, 0x56, 0x61, 0x72, 0x69, 0x61, 0x62, 0x6c,
  0x65, 0x4f, 0x70, 0x2f, 0x72, 0x65, 0x73, 0x6f, 0x75, 0x72, 0x63, 0x65,
  0x00, 0x00, 0x00, 0x00, 0x01, 0x00, 0x00, 0x00, 0x1a, 0x00, 0x00, 0x00,
  0xa2, 0xff, 0xff, 0xff, 0x50, 0x00, 0x00, 0x00, 0x03, 0x00, 0x00, 0x00,
  0x0c, 0x00, 0x00, 0x00, 0x04, 0x00, 0x00, 0x00, 0x14, 0xff, 0xff, 0xff,
  0x34, 0x00, 0x00, 0x00, 0x73, 0x65, 0x71, 0x75, 0x65, 0x6e, 0x74, 0x69,
  0x61, 0x6c, 0x5f, 0x31, 0x2f, 0x64, 0x65, 0x6e, 0x73, 0x65, 0x5f, 0x34,
  0x2f, 0x42, 0x69, 0x61, 0x73, 0x41, 0x64, 0x64, 0x2f, 0x52, 0x65, 0x61,
  0x64, 0x56, 0x61, 0x72, 0x69, 0x61, 0x62, 0x6c, 0x65, 0x4f, 0x70, 0x2f,
  0x72, 0x65, 0x73, 0x6f, 0x75, 0x72, 0x63, 0x65, 0x00, 0x00, 0x00, 0x00,
  0x01, 0x00, 0x00, 0x00, 0x43, 0x00, 0x00, 0x00, 0x00, 0x00, 0x0e, 0x00,
  0x14, 0x00, 0x04, 0x00, 0x00, 0x00, 0x08, 0x00, 0x0c, 0x00, 0x10, 0x00,
  0x0e, 0x00, 0x00, 0x00, 0x50, 0x00, 0x00, 0x00, 0x02, 0x00, 0x00, 0x00,
  0x0c, 0x00, 0x00, 0x00, 0x04, 0x00, 0x00, 0x00, 0x80, 0xff, 0xff, 0xff,
  0x34, 0x00, 0x00, 0x00, 0x73, 0x65, 0x71, 0x75, 0x65, 0x6e, 0x74, 0x69,
  0x61, 0x6c, 0x5f, 0x31, 0x2f, 0x64, 0x65, 0x6e, 0x73, 0x65, 0x5f, 0x33,
  0x2f, 0x42, 0x69, 0x61, 0x73, 0x41, 0x64, 0x64, 0x2f, 0x52, 0x65, 0x61,
  0x64, 0x56, 0x61, 0x72, 0x69, 0x61, 0x62, 0x6c, 0x65, 0x4f, 0x70, 0x2f,
  0x72, 0x65, 0x73, 0x6f, 0x75, 0x72, 0x63, 0x65, 0x00, 0x00, 0x00, 0x00,
  0x01, 0x00, 0x00, 0x00, 0x19, 0x00, 0x00, 0x00, 0x14, 0x00, 0x18, 0x00,
  0x04, 0x00, 0x00, 0x00, 0x08, 0x00, 0x0c, 0x00, 0x10, 0x00, 0x00, 0x00,
  0x00, 0x00, 0x14, 0x00, 0x14, 0x00, 0x00, 0x00, 0x3c, 0x00, 0x00, 0x00,
  0x01, 0x00, 0x00, 0x00, 0x20, 0x00, 0x00, 0x00, 0x18, 0x00, 0x00, 0x00,
  0x04, 0x00, 0x00, 0x00, 0x02, 0x00, 0x00, 0x00, 0xff, 0xff, 0xff, 0xff,
  0x08, 0x00, 0x00, 0x00, 0x04, 0x00, 0x04, 0x00, 0x04, 0x00, 0x00, 0x00,
  0x0d, 0x00, 0x00, 0x00, 0x64, 0x65, 0x6e, 0x73, 0x65, 0x5f, 0x33, 0x5f,
  0x69, 0x6e, 0x70, 0x75, 0x74, 0x00, 0x00, 0x00, 0x02, 0x00, 0x00, 0x00,
  0x01, 0x00, 0x00, 0x00, 0x08, 0x00, 0x00, 0x00, 0x02, 0x00, 0x00, 0x00,
  0x2c, 0x00, 0x00, 0x00, 0x10, 0x00, 0x00, 0x00, 0x0c, 0x00, 0x0c, 0x00,
  0x07, 0x00, 0x00, 0x00, 0x00, 0x00, 0x08, 0x00, 0x0c, 0x00, 0x00, 0x00,
  0x00, 0x00, 0x00, 0x19, 0x19, 0x00, 0x00, 0x00, 0x0c, 0x00, 0x10, 0x00,
  0x07, 0x00, 0x00, 0x00, 0x08, 0x00, 0x0c, 0x00, 0x0c, 0x00, 0x00, 0x00,
  0x00, 0x00, 0x00, 0x09, 0x09, 0x00, 0x00, 0x00, 0x09, 0x00, 0x00, 0x00
 
};

#endif //MY_MODEL1618006113.835566_H
