#ifndef THREE_MODEL_H
#define THREE_MODEL_H


unsigned int model_len = 7728;
unsigned char model[] = {
 0x1c, 0x00, 0x00, 0x00, 0x54, 0x46, 0x4c, 0x33, 0x00, 0x00, 0x12, 0x00,
  0x1c, 0x00, 0x04, 0x00, 0x08, 0x00, 0x0c, 0x00, 0x10, 0x00, 0x14, 0x00,
  0x00, 0x00, 0x18, 0x00, 0x12, 0x00, 0x00, 0x00, 0x03, 0x00, 0x00, 0x00,
  0xcc, 0x1d, 0x00, 0x00, 0x10, 0x18, 0x00, 0x00, 0xf8, 0x17, 0x00, 0x00,
  0x3c, 0x00, 0x00, 0x00, 0x04, 0x00, 0x00, 0x00, 0x01, 0x00, 0x00, 0x00,
  0x0c, 0x00, 0x00, 0x00, 0x08, 0x00, 0x0c, 0x00, 0x04, 0x00, 0x08, 0x00,
  0x08, 0x00, 0x00, 0x00, 0x08, 0x00, 0x00, 0x00, 0x0c, 0x00, 0x00, 0x00,
  0x13, 0x00, 0x00, 0x00, 0x6d, 0x69, 0x6e, 0x5f, 0x72, 0x75, 0x6e, 0x74,
  0x69, 0x6d, 0x65, 0x5f, 0x76, 0x65, 0x72, 0x73, 0x69, 0x6f, 0x6e, 0x00,
  0x0d, 0x00, 0x00, 0x00, 0xac, 0x17, 0x00, 0x00, 0x98, 0x17, 0x00, 0x00,
  0x5c, 0x17, 0x00, 0x00, 0xb8, 0x16, 0x00, 0x00, 0x34, 0x16, 0x00, 0x00,
  0xe0, 0x14, 0x00, 0x00, 0x2c, 0x0f, 0x00, 0x00, 0x78, 0x00, 0x00, 0x00,
  0x6c, 0x00, 0x00, 0x00, 0x58, 0x00, 0x00, 0x00, 0x44, 0x00, 0x00, 0x00,
  0x30, 0x00, 0x00, 0x00, 0x04, 0x00, 0x00, 0x00, 0xf2, 0xe7, 0xff, 0xff,
  0x04, 0x00, 0x00, 0x00, 0x10, 0x00, 0x00, 0x00, 0x31, 0x2e, 0x35, 0x2e,
  0x30, 0x00, 0x00, 0x00, 0x00, 0x00, 0x00, 0x00, 0x00, 0x00, 0x00, 0x00,
  0x00, 0x00, 0x00, 0x00, 0x00, 0x00, 0x00, 0x00, 0x00, 0x00, 0x00, 0x00,
  0x04, 0xe3, 0xff, 0xff, 0x00, 0x00, 0x00, 0x00, 0x00, 0x00, 0x00, 0x00,
  0x00, 0x00, 0x00, 0x00, 0x14, 0xe3, 0xff, 0xff, 0x00, 0x00, 0x00, 0x00,
  0x00, 0x00, 0x00, 0x00, 0x00, 0x00, 0x00, 0x00, 0x24, 0xe3, 0xff, 0xff,
  0x00, 0x00, 0x00, 0x00, 0x00, 0x00, 0x00, 0x00, 0x00, 0x00, 0x00, 0x00,
  0x34, 0xe3, 0xff, 0xff, 0x00, 0x00, 0x00, 0x00, 0x52, 0xe8, 0xff, 0xff,
  0x04, 0x00, 0x00, 0x00, 0xa0, 0x0e, 0x00, 0x00, 0xd6, 0x91, 0x66, 0xbe,
  0x93, 0xea, 0x78, 0x3e, 0x5d, 0x37, 0xbb, 0x3e, 0x37, 0x0b, 0xe1, 0x3d,
  0xe4, 0xc4, 0xf5, 0x3d, 0x18, 0xf5, 0x72, 0x3f, 0xe2, 0xad, 0x3d, 0xbe,
  0x98, 0xa4, 0x77, 0xbd, 0x11, 0x1d, 0xbe, 0xbd, 0x37, 0xd0, 0xde, 0x3e,
  0x4d, 0x29, 0x0f, 0xbd, 0x95, 0xa9, 0x57, 0xc0, 0x5b, 0xc2, 0xaa, 0xbd,
  0xf4, 0x1b, 0xd1, 0x3f, 0x67, 0xff, 0x5f, 0xbe, 0xed, 0x8b, 0x29, 0x3f,
  0x38, 0xb8, 0x31, 0xbe, 0xde, 0x6a, 0xed, 0x3e, 0x76, 0x55, 0x03, 0xbe,
  0x8f, 0x12, 0x2d, 0xc0, 0x58, 0x54, 0x5f, 0xbf, 0xd4, 0x32, 0x9b, 0x3e,
  0xd6, 0xb5, 0x68, 0x3e, 0xd5, 0xdf, 0x7c, 0xbe, 0x26, 0xc8, 0x98, 0xbe,
  0xf7, 0xda, 0xb2, 0x3e, 0x6f, 0x17, 0x89, 0x39, 0x28, 0xe3, 0xf3, 0xbe,
  0x0d, 0xf0, 0x8d, 0xbf, 0x17, 0xe6, 0x07, 0xbf, 0x87, 0x29, 0xd8, 0xbf,
  0x1b, 0x46, 0x37, 0xc0, 0xa3, 0x9d, 0x5c, 0x3e, 0x33, 0x74, 0x00, 0x3f,
  0x6a, 0xa0, 0x5a, 0xc0, 0xf5, 0xcc, 0x8c, 0x3c, 0xc8, 0x38, 0x5c, 0x3e,
  0xa6, 0x72, 0x07, 0xc0, 0x8a, 0xda, 0xcd, 0xbf, 0x39, 0x16, 0x21, 0xbf,
  0xdb, 0xdc, 0x35, 0x3d, 0x86, 0xd4, 0x39, 0xbf, 0x4b, 0xf3, 0xf8, 0xc0,
  0xe8, 0xbc, 0x8a, 0x3d, 0x72, 0x82, 0xa8, 0xbe, 0x06, 0x65, 0x92, 0x3d,
  0x9b, 0x1e, 0x96, 0xbe, 0x37, 0xc5, 0x42, 0x3f, 0x8c, 0x25, 0x50, 0x3f,
  0xbb, 0xd4, 0x0f, 0xbe, 0x2b, 0x17, 0x02, 0x3b, 0xb1, 0x7b, 0x8c, 0xbe,
  0x3e, 0xe1, 0x23, 0xc0, 0xfa, 0xc2, 0x29, 0x3f, 0x05, 0xfa, 0xcd, 0xbd,
  0xee, 0x8b, 0xbb, 0x3f, 0x55, 0x59, 0x1a, 0x3e, 0x52, 0x6b, 0x6b, 0x3e,
  0x14, 0xe2, 0x51, 0xbf, 0x61, 0xef, 0x27, 0x3e, 0x3a, 0x57, 0x35, 0x3f,
  0xc5, 0x24, 0x14, 0xbe, 0x51, 0x8f, 0x6b, 0x3f, 0x4d, 0x13, 0xc6, 0xc0,
  0x81, 0x59, 0xce, 0x3f, 0xfb, 0x67, 0x8d, 0xbf, 0xe7, 0x8a, 0x56, 0x3c,
  0x09, 0x62, 0x18, 0xbe, 0x02, 0x5d, 0xba, 0xbf, 0xfb, 0xcc, 0x15, 0xc0,
  0x77, 0x1f, 0x46, 0x3f, 0xfa, 0xf0, 0xda, 0x3e, 0x84, 0xad, 0xfd, 0x3d,
  0x75, 0x8f, 0x48, 0x3f, 0x86, 0x68, 0x15, 0x3e, 0xd3, 0x24, 0x54, 0xbf,
  0x69, 0x82, 0xb2, 0x3c, 0xe6, 0x88, 0x74, 0xbf, 0x3d, 0x23, 0x15, 0xbe,
  0x30, 0x78, 0x53, 0x3e, 0x73, 0xf7, 0x04, 0x3f, 0xb8, 0xa8, 0x97, 0x3f,
  0xb1, 0x7d, 0x58, 0x3e, 0x4e, 0x75, 0x86, 0x3e, 0x33, 0x23, 0x59, 0x3e,
  0x8f, 0x7a, 0x14, 0xbf, 0xff, 0xf5, 0xfe, 0xbc, 0x44, 0xb3, 0x4a, 0xbf,
  0x7e, 0xb1, 0x3d, 0xbf, 0x44, 0xcd, 0x34, 0x3e, 0xc0, 0x26, 0x24, 0x3e,
  0x70, 0x5a, 0xc9, 0xbe, 0xcc, 0xd9, 0xab, 0x3e, 0x39, 0xb6, 0x21, 0x3f,
  0xc8, 0xfd, 0x46, 0xbf, 0xcf, 0xb5, 0x2f, 0xbb, 0xd0, 0x68, 0xbd, 0xbf,
  0x21, 0xb5, 0x30, 0xbf, 0x18, 0xb6, 0x6b, 0x3e, 0xb9, 0xb9, 0x1e, 0xbf,
  0x40, 0x95, 0x07, 0x40, 0xd0, 0x09, 0xa7, 0xbe, 0xf9, 0x55, 0xfd, 0xbe,
  0xa2, 0xdf, 0xa0, 0xbe, 0x93, 0x70, 0x7c, 0xbf, 0x49, 0xa8, 0xca, 0xbf,
  0x56, 0x9e, 0xba, 0xbe, 0x2f, 0xbd, 0x8a, 0x3e, 0x16, 0x0b, 0x78, 0xbe,
  0xcb, 0x9d, 0x7b, 0xbe, 0x87, 0x86, 0x57, 0xbe, 0xd0, 0x3d, 0xbe, 0xbd,
  0xd7, 0xa5, 0x45, 0x3d, 0x61, 0xd9, 0xbe, 0xc0, 0x8b, 0xd9, 0x46, 0xbf,
  0x84, 0xec, 0x17, 0x3e, 0xb0, 0xe4, 0xb7, 0x3e, 0x29, 0x75, 0x32, 0x3f,
  0xb5, 0x75, 0x2d, 0xbd, 0x67, 0xca, 0xd1, 0x3e, 0x8c, 0xa0, 0x5e, 0x3f,
  0x47, 0x85, 0xe9, 0xbe, 0x1e, 0x67, 0x9b, 0x3d, 0xae, 0x9a, 0xe1, 0xbf,
  0x93, 0x78, 0x25, 0x3e, 0x3b, 0x4b, 0x6b, 0xbf, 0x0c, 0xe2, 0x96, 0xbe,
  0x7b, 0x8c, 0xd0, 0xc0, 0x05, 0xe4, 0x98, 0x3e, 0x89, 0xf1, 0x2a, 0x3f,
  0xad, 0xef, 0x48, 0x3e, 0x2e, 0x24, 0xf7, 0xbc, 0xca, 0xdb, 0xa0, 0xbf,
  0x96, 0x6c, 0x4d, 0xbf, 0x3f, 0xb6, 0x4c, 0x3f, 0x54, 0x84, 0x27, 0xbe,
  0xfa, 0xf7, 0x05, 0x3f, 0x97, 0x64, 0x4d, 0x3e, 0x42, 0x9e, 0x0b, 0x3d,
  0x4b, 0xfa, 0x0b, 0x3f, 0x48, 0xa6, 0x2a, 0xc0, 0xcd, 0x5e, 0x73, 0xc0,
  0x42, 0x8b, 0xaa, 0x3e, 0x60, 0x0a, 0x27, 0x3f, 0xe8, 0xc1, 0xe3, 0x3d,
  0xca, 0x99, 0x42, 0xbf, 0x6c, 0xe6, 0x14, 0xbe, 0xbf, 0x0e, 0x5e, 0x3e,
  0xca, 0x18, 0x77, 0xbe, 0x3b, 0x63, 0xa9, 0xbd, 0xcd, 0xf8, 0x41, 0x3f,
  0xf4, 0x80, 0x38, 0x3e, 0x26, 0x60, 0xbf, 0xbf, 0x16, 0x82, 0xcc, 0xbe,
  0xf0, 0x99, 0x27, 0xbf, 0xd4, 0x55, 0xe5, 0xbc, 0x38, 0xd1, 0xfe, 0x3e,
  0x44, 0xc4, 0x78, 0x3e, 0x07, 0x9f, 0xb7, 0xbc, 0x50, 0xe0, 0x02, 0xbf,
  0xcf, 0x05, 0xe6, 0x3d, 0x1f, 0x00, 0xe6, 0xc0, 0xb9, 0x43, 0xc0, 0x3c,
  0xc1, 0xeb, 0x7f, 0x3e, 0x20, 0x00, 0x57, 0xbe, 0x83, 0xc5, 0x7d, 0x3e,
  0x52, 0xeb, 0x81, 0xbf, 0x48, 0x91, 0x04, 0xbd, 0xec, 0x89, 0x8f, 0x3e,
  0x51, 0xa3, 0xcf, 0x3e, 0x43, 0x8f, 0x40, 0xbf, 0x93, 0x88, 0x2d, 0xbd,
  0xe0, 0x20, 0x5e, 0x3f, 0x71, 0x31, 0x7c, 0x3f, 0x70, 0xc6, 0x36, 0x3f,
  0x8a, 0xd0, 0xc5, 0xbe, 0xf3, 0x1e, 0x1a, 0x3f, 0x60, 0x0e, 0xdf, 0x3e,
  0x92, 0x77, 0x91, 0xbf, 0x40, 0xf4, 0x5d, 0xbf, 0xe6, 0x8b, 0x95, 0xbd,
  0x8c, 0x70, 0x57, 0xc0, 0x84, 0xd4, 0xcc, 0xbf, 0x9c, 0x50, 0x8e, 0x3f,
  0x2c, 0xff, 0x87, 0xbe, 0xf7, 0xfc, 0x7b, 0x3f, 0xdf, 0xf6, 0x3c, 0xc0,
  0x60, 0xa7, 0x3d, 0xbc, 0x0e, 0x7c, 0x48, 0xc0, 0xe9, 0x86, 0xad, 0x3e,
  0x47, 0x6d, 0x82, 0xbe, 0x59, 0xbe, 0x09, 0xbf, 0x7d, 0xba, 0x86, 0x3f,
  0x71, 0x72, 0x86, 0xbe, 0xfd, 0x23, 0x84, 0xbe, 0x1a, 0x51, 0x69, 0x3f,
  0xf7, 0x91, 0xe3, 0xbf, 0x18, 0xee, 0xab, 0x3c, 0x02, 0x42, 0xe8, 0x3d,
  0xa8, 0xed, 0xb0, 0x3f, 0x31, 0x1f, 0x1c, 0xbd, 0x45, 0x1f, 0xc6, 0xbd,
  0x58, 0x31, 0xf9, 0xbc, 0xb2, 0xc5, 0x99, 0x3e, 0xd9, 0x0f, 0xb1, 0xbf,
  0x67, 0x39, 0x4a, 0x3f, 0x9a, 0xba, 0x23, 0x3f, 0xfa, 0x2f, 0x6d, 0xc0,
  0x7a, 0x67, 0xa4, 0xc0, 0xaf, 0xfc, 0xf1, 0xbe, 0x0a, 0x40, 0x18, 0xc0,
  0x69, 0x2a, 0xd1, 0xbf, 0xc9, 0x05, 0x3c, 0xbe, 0xf4, 0x29, 0x46, 0x3f,
  0x32, 0x0f, 0x8b, 0xbe, 0x4a, 0x7b, 0x46, 0x3f, 0x14, 0xc6, 0x8e, 0x3e,
  0x85, 0x48, 0xa0, 0x3e, 0x7b, 0x59, 0x82, 0xbd, 0x56, 0xba, 0x86, 0x3f,
  0xde, 0xc5, 0x97, 0x3e, 0x42, 0xbc, 0x5b, 0xbe, 0x45, 0x64, 0x91, 0x3e,
  0x60, 0x2a, 0x71, 0x3e, 0x3d, 0xe1, 0x32, 0x3e, 0x00, 0xfc, 0xea, 0x3e,
  0xa2, 0x8e, 0x97, 0x3f, 0x7f, 0x1d, 0xa4, 0xbf, 0x58, 0x82, 0x50, 0xc0,
  0x76, 0x51, 0xf5, 0x3c, 0x05, 0x63, 0x97, 0x3e, 0x30, 0x7a, 0x88, 0x3d,
  0x86, 0x89, 0xf1, 0x3e, 0x6f, 0x3a, 0xf4, 0xbf, 0x5b, 0x90, 0xde, 0x3d,
  0xdc, 0xb6, 0x42, 0xc0, 0x94, 0xa6, 0x8c, 0x3c, 0x53, 0xbd, 0x37, 0xc0,
  0x6c, 0x8d, 0x10, 0x3f, 0xc2, 0x4f, 0xc8, 0x3d, 0xc4, 0x39, 0x5f, 0xbf,
  0x0b, 0x56, 0xbc, 0xbf, 0x4f, 0xa2, 0xa2, 0xbf, 0xe2, 0x53, 0xa5, 0x3f,
  0xbe, 0x2b, 0xd6, 0xbc, 0x3b, 0x79, 0x93, 0x3f, 0xb2, 0x33, 0x25, 0x3f,
  0x63, 0xba, 0xae, 0x3d, 0x25, 0x6b, 0x92, 0xc0, 0x6b, 0x9e, 0x82, 0x3f,
  0xdf, 0xee, 0xab, 0xbe, 0x58, 0xd3, 0xaf, 0xbf, 0x18, 0x24, 0xa0, 0xbd,
  0xc0, 0xea, 0x03, 0xc0, 0x91, 0x3c, 0x1d, 0xc0, 0x84, 0x38, 0xea, 0x3f,
  0xba, 0x68, 0x02, 0x3e, 0xc5, 0x52, 0xa1, 0xbe, 0x6d, 0xe2, 0x0e, 0x3f,
  0xb0, 0x0b, 0x60, 0x3e, 0xc7, 0x3e, 0xc5, 0xbe, 0xb1, 0x3c, 0xf3, 0xc0,
  0x33, 0x86, 0x83, 0x3f, 0x6a, 0x9e, 0x8a, 0xbd, 0xea, 0xb1, 0x72, 0xc0,
  0x2e, 0xbb, 0x1e, 0x3f, 0xeb, 0x07, 0x39, 0xbe, 0x53, 0xb4, 0xd4, 0xbf,
  0xfb, 0x20, 0xf5, 0xbf, 0x46, 0x72, 0x83, 0xbf, 0x30, 0x82, 0x45, 0xbc,
  0x9d, 0x15, 0x59, 0xbf, 0xaf, 0xda, 0xd2, 0x3d, 0x0c, 0xf1, 0xd4, 0xc0,
  0xa5, 0x62, 0xcd, 0x3e, 0xb9, 0xe9, 0x8e, 0xbe, 0x7f, 0xcd, 0x30, 0x3e,
  0x08, 0xb0, 0x33, 0xbf, 0xe6, 0x26, 0x03, 0xbf, 0xcd, 0xa2, 0xa1, 0x3f,
  0x19, 0x69, 0x7a, 0xc0, 0xdf, 0xd2, 0xa6, 0x3f, 0xe1, 0x40, 0x52, 0x3f,
  0xe6, 0x25, 0xc4, 0x3e, 0x5b, 0x13, 0x2b, 0xc0, 0xe7, 0x0b, 0x5a, 0x3f,
  0x9c, 0x79, 0xb1, 0x3e, 0x32, 0xaf, 0x3c, 0xc0, 0x9e, 0xcd, 0x25, 0x3e,
  0x16, 0x0b, 0xea, 0xbf, 0x14, 0xc2, 0x81, 0xbf, 0x9f, 0x75, 0xfa, 0x3d,
  0x97, 0x0e, 0x6d, 0xbe, 0x72, 0x6a, 0x8f, 0xbe, 0x83, 0xf2, 0x4e, 0x3e,
  0xfc, 0x94, 0xeb, 0xbd, 0xd6, 0xdd, 0xe1, 0xbd, 0x2f, 0xbf, 0x6f, 0x3d,
  0x45, 0x7d, 0x07, 0xc1, 0xcb, 0xdb, 0x1a, 0xc0, 0x92, 0x2d, 0x0a, 0x3f,
  0xce, 0xaa, 0xda, 0xc0, 0xfb, 0xe4, 0x5b, 0x3a, 0x5d, 0xa2, 0x51, 0x3f,
  0x37, 0x02, 0x19, 0xbd, 0xb1, 0xb5, 0xfa, 0x3d, 0x02, 0x79, 0xdd, 0x3d,
  0x38, 0x79, 0x88, 0x3f, 0xbf, 0xec, 0xb1, 0xbf, 0x08, 0xea, 0x82, 0x3e,
  0xad, 0x81, 0xc4, 0x3f, 0x0f, 0xdb, 0xe1, 0xbc, 0x46, 0x16, 0xc0, 0x3f,
  0x9b, 0xe9, 0x56, 0x3e, 0x97, 0x54, 0x89, 0x3f, 0x61, 0xd9, 0x29, 0xc0,
  0x21, 0x2c, 0x9f, 0x3f, 0x78, 0x0a, 0x51, 0x3f, 0x69, 0xcb, 0xbc, 0x3f,
  0xa1, 0xfc, 0xa2, 0xbf, 0xaa, 0xf4, 0x2b, 0xbe, 0x28, 0xe3, 0x74, 0xbf,
  0x15, 0xe4, 0xcb, 0x3f, 0x4a, 0x9b, 0x58, 0x3f, 0x66, 0xe8, 0x0a, 0x3e,
  0xfc, 0x71, 0x06, 0xc0, 0x4d, 0x85, 0x75, 0xbf, 0x56, 0x6f, 0x25, 0x3f,
  0xf4, 0x25, 0x4d, 0xbe, 0x12, 0x6d, 0x3f, 0x3f, 0x80, 0x02, 0xbe, 0x3e,
  0x2e, 0x49, 0x94, 0x3e, 0x64, 0xd7, 0xd4, 0xbc, 0xae, 0x8c, 0xfc, 0xbd,
  0xdd, 0x49, 0x0f, 0xbf, 0x96, 0x4b, 0xac, 0xc0, 0xcc, 0xe0, 0x96, 0xbf,
  0x13, 0xb7, 0x1b, 0x3f, 0xf2, 0xc5, 0xc3, 0x3c, 0xdd, 0x42, 0x6c, 0x3f,
  0x67, 0x10, 0x59, 0xbe, 0xfa, 0xf6, 0x23, 0xbf, 0x2b, 0x85, 0x94, 0xbe,
  0x23, 0x81, 0x64, 0xbf, 0x85, 0xc3, 0xe2, 0x3d, 0x82, 0x0d, 0x3d, 0xc0,
  0xc4, 0xbe, 0xc4, 0x3f, 0x03, 0x2b, 0xfe, 0xbb, 0x9c, 0xa6, 0x05, 0x3f,
  0x36, 0xeb, 0xcc, 0xbe, 0xee, 0xad, 0x1b, 0x3f, 0xd3, 0x0b, 0x13, 0x3f,
  0xcb, 0x17, 0x4c, 0xbf, 0x96, 0x40, 0xe5, 0x3f, 0x48, 0x63, 0xd4, 0x3c,
  0x58, 0xc9, 0xd1, 0xbf, 0x6d, 0x49, 0x01, 0xbf, 0xd1, 0x88, 0x4e, 0x3e,
  0x15, 0x93, 0xc2, 0x3f, 0x32, 0xf2, 0xd4, 0xbf, 0x6a, 0xe0, 0x02, 0x3e,
  0xf8, 0x49, 0x3f, 0x3e, 0xf4, 0x59, 0xa8, 0x3b, 0x10, 0x27, 0x15, 0xba,
  0xf4, 0x27, 0x30, 0x3d, 0xd5, 0x24, 0xa7, 0xbf, 0x5e, 0x87, 0x58, 0xbf,
  0x04, 0x66, 0x87, 0x3e, 0xd8, 0x96, 0x04, 0xbf, 0x23, 0x82, 0x85, 0xbf,
  0x5b, 0xbd, 0xa8, 0x3c, 0x4d, 0xd8, 0x08, 0x3f, 0x9d, 0x0c, 0x2f, 0x3c,
  0xc5, 0x58, 0xe3, 0x3e, 0x88, 0xac, 0x29, 0xbe, 0xe9, 0x36, 0x24, 0xbf,
  0x8e, 0xdc, 0x4f, 0x3f, 0x2a, 0x06, 0x4c, 0xbe, 0xd2, 0x08, 0xe7, 0x3d,
  0xa7, 0x1d, 0x15, 0xc0, 0x84, 0x58, 0xa4, 0x3e, 0x48, 0xc4, 0xbf, 0x3e,
  0xae, 0x34, 0xea, 0xbe, 0x51, 0x67, 0x75, 0x3d, 0x66, 0x9a, 0x32, 0xbe,
  0xc5, 0x3f, 0xc1, 0xbe, 0xf4, 0xdf, 0x5e, 0x3e, 0x5b, 0xf1, 0x3f, 0xbe,
  0x86, 0xe2, 0xb0, 0xbf, 0x60, 0x38, 0x83, 0xbf, 0xd3, 0x89, 0xdf, 0x3e,
  0x4c, 0x58, 0x00, 0x3f, 0x10, 0xd2, 0x5c, 0xbf, 0x0d, 0x3d, 0x85, 0xbf,
  0xb7, 0x74, 0x6d, 0xbe, 0x72, 0x46, 0x81, 0xbe, 0xc4, 0x5a, 0xb9, 0x3d,
  0xdc, 0x00, 0xe1, 0x3f, 0xe9, 0xfc, 0xbe, 0x3f, 0x62, 0x6a, 0xa3, 0xbf,
  0x8e, 0xc3, 0xf8, 0x3d, 0x12, 0xbb, 0x1a, 0xc0, 0x38, 0x78, 0x00, 0xc0,
  0xf8, 0x10, 0x44, 0x3e, 0xb2, 0xd8, 0x3a, 0x3f, 0x78, 0xb8, 0x87, 0x3f,
  0x5b, 0x8d, 0x1e, 0xbf, 0x4b, 0x29, 0x5c, 0xbf, 0x09, 0xbc, 0xa1, 0x3d,
  0xdd, 0x2d, 0x95, 0xbf, 0xa6, 0x38, 0xda, 0x3c, 0x6e, 0x54, 0x09, 0x40,
  0xfe, 0xfd, 0x93, 0x3f, 0xc4, 0xd5, 0x08, 0xc0, 0xa3, 0xd1, 0x15, 0xbe,
  0xe7, 0xe9, 0x69, 0xc0, 0x27, 0x25, 0x33, 0x3f, 0x78, 0x20, 0x92, 0x3f,
  0x16, 0xb6, 0x7a, 0xbf, 0x8e, 0xb5, 0x40, 0x3d, 0xba, 0xbd, 0x9d, 0xc0,
  0x6c, 0xb0, 0xb2, 0xbf, 0x89, 0x40, 0x21, 0xbf, 0x90, 0x25, 0x98, 0xbd,
  0x17, 0x39, 0xa3, 0x3e, 0xed, 0xe1, 0xe1, 0x3d, 0x68, 0x61, 0x85, 0x3d,
  0x2f, 0x90, 0x6f, 0x3f, 0x45, 0xe9, 0xd8, 0xbf, 0xe5, 0x76, 0x1f, 0xc0,
  0xb8, 0xff, 0x5d, 0xc0, 0x60, 0x01, 0x90, 0x3f, 0xa4, 0x13, 0x65, 0x3e,
  0xa0, 0xbc, 0x8a, 0xbe, 0x62, 0xd1, 0xf9, 0x3d, 0x01, 0x9f, 0xf6, 0x3e,
  0x73, 0x2a, 0x87, 0x3e, 0xa3, 0xff, 0xf4, 0x3e, 0x15, 0xb9, 0xf7, 0xbe,
  0x1a, 0x60, 0x9d, 0xbe, 0xc5, 0xe6, 0x8f, 0xbf, 0x2b, 0x9c, 0xa8, 0x3e,
  0xc4, 0xef, 0x0f, 0xbe, 0x77, 0xe6, 0xef, 0xbe, 0xc6, 0xe2, 0x83, 0x3e,
  0xcc, 0x04, 0xf3, 0x3d, 0x32, 0x5a, 0x64, 0x3e, 0xac, 0x4f, 0xbe, 0x3e,
  0x14, 0x52, 0xd7, 0x3d, 0x26, 0xbf, 0x28, 0x3e, 0xde, 0x95, 0x4b, 0x3e,
  0x79, 0x1c, 0xfb, 0xbe, 0x70, 0xbd, 0x94, 0x3c, 0x3d, 0x2d, 0xce, 0x3e,
  0xb7, 0x87, 0xe3, 0xbe, 0xb1, 0x3b, 0x35, 0xbc, 0xd9, 0xe4, 0xd8, 0xbd,
  0x8a, 0x86, 0xfc, 0x3e, 0x0a, 0x5d, 0xf8, 0x3e, 0x16, 0x35, 0x77, 0xbf,
  0x08, 0x5c, 0xe9, 0xbf, 0x44, 0x9c, 0x03, 0x3d, 0xc7, 0x57, 0xec, 0xc0,
  0x19, 0xf3, 0x6c, 0xbf, 0x75, 0x2c, 0x03, 0xbd, 0x63, 0x13, 0xc4, 0xb9,
  0x54, 0xc0, 0xc1, 0xbe, 0x2b, 0xb9, 0xc0, 0xbc, 0x00, 0x35, 0xc7, 0x3c,
  0x9b, 0xaf, 0x26, 0x3e, 0xae, 0xda, 0xe2, 0x3d, 0xb8, 0xd0, 0xf1, 0xbe,
  0xbf, 0x4b, 0xa4, 0xbc, 0x69, 0x8b, 0xa8, 0x3e, 0xcd, 0xde, 0x5f, 0x3e,
  0xcc, 0xa7, 0x73, 0xbe, 0xd8, 0x9b, 0x67, 0xbe, 0x27, 0x5a, 0xe8, 0xbf,
  0x23, 0xa3, 0xd2, 0xbd, 0x73, 0x55, 0xe4, 0xbd, 0x62, 0x7c, 0xc1, 0xbe,
  0x8e, 0x2d, 0xe8, 0x3e, 0x70, 0xb6, 0xa9, 0xbd, 0x79, 0xa9, 0x01, 0xbe,
  0x25, 0x5e, 0x23, 0x3e, 0xde, 0xc7, 0x15, 0x3e, 0xe4, 0x01, 0xd8, 0x3b,
  0x8a, 0x19, 0x18, 0xbf, 0xff, 0x64, 0xd1, 0xbd, 0xf6, 0xc7, 0x0b, 0xbe,
  0xf5, 0x7f, 0xec, 0xbe, 0x6b, 0x0c, 0x81, 0xbe, 0x3c, 0xe5, 0x02, 0x3f,
  0xda, 0x06, 0xb3, 0x3e, 0xd7, 0x05, 0x23, 0xbf, 0x3d, 0x3e, 0xa3, 0xbd,
  0x9f, 0xa2, 0xa0, 0xbf, 0xa9, 0xaa, 0xd9, 0xbf, 0x6d, 0xcd, 0xb1, 0xbe,
  0x05, 0xcc, 0xd8, 0x3e, 0xb4, 0x20, 0x33, 0x3f, 0x9a, 0x66, 0xa1, 0x3d,
  0x40, 0x68, 0xa5, 0xbe, 0x5b, 0xc7, 0xc0, 0xbe, 0x26, 0x3d, 0x83, 0xbe,
  0xd6, 0x6f, 0xb7, 0x3e, 0x2f, 0xe4, 0x49, 0x3e, 0xc7, 0x58, 0x26, 0xbd,
  0xa0, 0xe6, 0xd3, 0xbd, 0xd5, 0xfb, 0x23, 0xbe, 0x75, 0x70, 0xbe, 0xbe,
  0x59, 0x96, 0x3a, 0xbe, 0xb0, 0x80, 0x22, 0x3f, 0xff, 0x2e, 0x22, 0x3f,
  0x32, 0xdd, 0xb5, 0x3d, 0x3a, 0x63, 0xf6, 0x3b, 0x67, 0xbc, 0x6f, 0xbd,
  0x0c, 0xa8, 0x1f, 0xbf, 0x44, 0xe4, 0x2e, 0x3e, 0xdb, 0x1e, 0xf2, 0xbe,
  0x73, 0x88, 0xaf, 0xbe, 0x51, 0x4c, 0xb2, 0xbe, 0xea, 0xbb, 0x50, 0xbe,
  0xdb, 0x21, 0x9b, 0xbf, 0x2d, 0x3a, 0x64, 0x3e, 0x00, 0x7a, 0xe1, 0x3e,
  0x88, 0x42, 0xfe, 0xbc, 0xec, 0x44, 0x4b, 0x3e, 0x79, 0xd3, 0x3c, 0xbf,
  0xfe, 0x95, 0x55, 0xbb, 0xe4, 0xb9, 0xab, 0x3d, 0x0a, 0x5f, 0xa9, 0xbe,
  0x66, 0x16, 0x4c, 0x3f, 0xda, 0x29, 0x31, 0x3f, 0x12, 0x4b, 0x31, 0xc0,
  0x61, 0xa4, 0x85, 0xbe, 0x99, 0x78, 0x15, 0xbe, 0xc5, 0x84, 0x32, 0xbe,
  0x57, 0x97, 0xe6, 0xbe, 0x6d, 0x4d, 0x3c, 0xbd, 0x02, 0x85, 0x0e, 0x3e,
  0x23, 0x9f, 0xbc, 0xbe, 0x3f, 0x4f, 0xec, 0xbe, 0x3a, 0xbd, 0x0c, 0xbf,
  0x90, 0x6e, 0x99, 0x3d, 0x04, 0x44, 0xf0, 0xbe, 0x01, 0xf5, 0x6e, 0x3e,
  0xe8, 0x89, 0x37, 0x3e, 0x34, 0x3d, 0x30, 0x3e, 0x9b, 0x47, 0xea, 0xbf,
  0x19, 0x6e, 0xac, 0xbe, 0xcb, 0x2a, 0xac, 0xbe, 0xc6, 0x10, 0x38, 0xc0,
  0xa8, 0xba, 0xbf, 0x3e, 0xe8, 0xee, 0xaf, 0x3b, 0xb1, 0x77, 0xca, 0x3e,
  0x5a, 0x5e, 0x60, 0xbf, 0x88, 0x3f, 0x9a, 0x3e, 0x4b, 0xd9, 0x1e, 0xbe,
  0xc6, 0xa8, 0x45, 0xc0, 0x23, 0xc5, 0x17, 0x3e, 0xf4, 0xf2, 0x38, 0xc0,
  0x18, 0x5b, 0x3f, 0x3f, 0x8d, 0x04, 0xfe, 0x3d, 0x57, 0xfc, 0x37, 0x3f,
  0x9f, 0x25, 0xa0, 0xbf, 0x60, 0x97, 0x2f, 0x3d, 0xed, 0x9b, 0xf8, 0x3e,
  0xec, 0xd3, 0x55, 0x3e, 0x1e, 0xd1, 0xa1, 0x3e, 0xe3, 0x24, 0x1e, 0x3f,
  0xbd, 0x5e, 0xd8, 0x3e, 0x12, 0x1c, 0x93, 0xc0, 0xf8, 0x8f, 0x87, 0xbf,
  0xc0, 0x8d, 0xb9, 0x3e, 0x78, 0x9b, 0xac, 0xbf, 0x10, 0x67, 0x1c, 0x3e,
  0xd3, 0x5a, 0x9a, 0x3f, 0x27, 0x93, 0x25, 0x3f, 0x4c, 0xfb, 0x8c, 0xc0,
  0xca, 0xdc, 0x38, 0xbe, 0xe7, 0x22, 0xb7, 0x3f, 0x2d, 0xa7, 0x96, 0x3d,
  0xd4, 0x49, 0xb8, 0x3d, 0x95, 0xd0, 0xab, 0x3f, 0x40, 0x4e, 0x72, 0xbf,
  0x62, 0x11, 0xe5, 0xbf, 0x7b, 0x04, 0xed, 0xbf, 0xff, 0xf5, 0x8d, 0xc0,
  0xac, 0xcf, 0x19, 0xbf, 0x47, 0xc4, 0x33, 0xbe, 0x3e, 0xc7, 0x1a, 0x40,
  0x69, 0x95, 0xa0, 0xbf, 0x9a, 0x70, 0x49, 0x3f, 0x4a, 0x9f, 0x87, 0xbe,
  0xab, 0x9b, 0x42, 0xbf, 0x6c, 0x19, 0xd8, 0xbe, 0x09, 0xd8, 0x80, 0xc0,
  0x64, 0xc3, 0xde, 0x3f, 0xf2, 0xbb, 0x4e, 0xbe, 0xb0, 0x0e, 0x66, 0x3f,
  0xdc, 0x9e, 0x80, 0xc0, 0x6c, 0x9d, 0x61, 0xbf, 0x32, 0x32, 0x7c, 0x3e,
  0x68, 0x2c, 0x91, 0x3f, 0xef, 0x75, 0x93, 0x3f, 0xff, 0x64, 0x2d, 0x3f,
  0xea, 0xaa, 0xae, 0x3e, 0xac, 0xbc, 0x6e, 0xc0, 0xf8, 0xe0, 0x84, 0xc0,
  0x83, 0x7d, 0x8b, 0x3f, 0x69, 0x33, 0x97, 0xc0, 0xaf, 0xbc, 0x83, 0xbe,
  0x3b, 0x2f, 0x31, 0xbf, 0x66, 0x72, 0x66, 0xbf, 0x0f, 0x58, 0x04, 0xc0,
  0xd5, 0xc3, 0x1e, 0xbd, 0xd8, 0x8e, 0x58, 0xbf, 0x82, 0x8d, 0x19, 0x3e,
  0x9a, 0x43, 0xf7, 0xbd, 0xc4, 0xac, 0x14, 0xbe, 0xab, 0x67, 0x1e, 0xc0,
  0x24, 0x75, 0xe3, 0x3e, 0xee, 0x11, 0x0b, 0x3e, 0x6f, 0x08, 0x9d, 0xbf,
  0x85, 0x77, 0x20, 0x3f, 0x26, 0x0c, 0x3d, 0xbe, 0x34, 0xea, 0x17, 0xc0,
  0x50, 0x01, 0x4d, 0xc0, 0x5d, 0xac, 0xae, 0x3e, 0xd3, 0x83, 0xa8, 0xbd,
  0xa4, 0x92, 0xac, 0x3f, 0xdd, 0x8f, 0x41, 0x3d, 0xfd, 0x8b, 0x93, 0xbf,
  0x89, 0x2c, 0xf2, 0xbd, 0x5f, 0x17, 0x56, 0xbe, 0x31, 0x94, 0x98, 0x3e,
  0xef, 0x29, 0xa0, 0xbe, 0x00, 0xf9, 0x58, 0xbe, 0x81, 0x91, 0xe0, 0x3e,
  0xc1, 0x0d, 0x0f, 0xc0, 0x7c, 0x91, 0x5f, 0x3e, 0x97, 0x77, 0x14, 0x3f,
  0xea, 0x9d, 0xea, 0x3e, 0xc2, 0x9f, 0x3b, 0x3f, 0x9e, 0xda, 0x51, 0xbe,
  0xde, 0x01, 0xa4, 0x3e, 0x9a, 0xef, 0x9a, 0xbe, 0xce, 0xd7, 0x33, 0x3e,
  0x86, 0xd4, 0x79, 0xbf, 0x3b, 0x5f, 0x45, 0xbe, 0x9a, 0x3c, 0x4f, 0x3f,
  0xeb, 0xe9, 0x3a, 0xbe, 0xa0, 0x45, 0x36, 0x3f, 0x69, 0x2e, 0x5e, 0x3f,
  0x40, 0x12, 0xc3, 0xbd, 0x83, 0xbc, 0x0b, 0xc0, 0x0e, 0xe0, 0x91, 0xbe,
  0xb5, 0xfe, 0x8a, 0xbf, 0x4c, 0xd9, 0xc6, 0xbf, 0x05, 0x99, 0xc2, 0xbc,
  0x1f, 0xa0, 0x4a, 0x3f, 0x1a, 0xf6, 0x0e, 0xbd, 0x33, 0x49, 0xc4, 0xbd,
  0x96, 0x95, 0xc0, 0x3e, 0xdd, 0xae, 0xb2, 0xbe, 0xff, 0x40, 0x2b, 0x3e,
  0x10, 0x62, 0xc5, 0xbd, 0x95, 0x6b, 0x9c, 0xc0, 0x26, 0xa1, 0x15, 0xbd,
  0x2d, 0x8b, 0xd8, 0xbe, 0x4f, 0x33, 0x79, 0xbe, 0x18, 0xfb, 0x4f, 0x3a,
  0x42, 0xec, 0x33, 0x3f, 0x2b, 0xd2, 0xa3, 0xbf, 0xc3, 0xde, 0x4c, 0x3e,
  0x49, 0xb5, 0xaf, 0xbe, 0x35, 0xe3, 0x6d, 0xc0, 0xd1, 0x2e, 0x81, 0xbf,
  0x6c, 0x74, 0xe9, 0x3c, 0x98, 0x9f, 0x38, 0x3f, 0x64, 0x00, 0x59, 0x3f,
  0x0c, 0xa1, 0xa3, 0xbf, 0xa2, 0x12, 0x6a, 0x3e, 0x07, 0x3e, 0x6e, 0xbe,
  0xb7, 0x3a, 0x00, 0x3f, 0x87, 0xd5, 0xeb, 0x3e, 0xfb, 0xdf, 0x46, 0x3e,
  0xa0, 0x30, 0x8c, 0xbe, 0xce, 0x0b, 0x10, 0x3f, 0x4a, 0x28, 0xa0, 0xbd,
  0xc8, 0x9e, 0x15, 0xbd, 0xba, 0x39, 0x7e, 0xbe, 0x6d, 0x71, 0x98, 0x3d,
  0x15, 0x28, 0x2c, 0x3e, 0xce, 0xb0, 0x12, 0xbd, 0xf1, 0x52, 0x08, 0xbf,
  0x90, 0x3a, 0x1e, 0xc0, 0xb1, 0xb7, 0x70, 0xbe, 0xfb, 0x67, 0x23, 0xbe,
  0x5a, 0x35, 0x00, 0x3f, 0xdb, 0x08, 0xa5, 0xbf, 0xf7, 0x23, 0xda, 0xbd,
  0x4b, 0x3e, 0x02, 0x40, 0x13, 0x63, 0xb3, 0xbe, 0xef, 0x5a, 0x43, 0xbd,
  0x01, 0x1a, 0x4e, 0xbf, 0x2c, 0x61, 0xbe, 0xbd, 0x53, 0xb1, 0xa7, 0xbf,
  0x61, 0xa4, 0x8b, 0xbd, 0x2e, 0x2d, 0xbf, 0xbf, 0x87, 0xd3, 0x01, 0x3d,
  0xa2, 0xca, 0x44, 0xbf, 0x0b, 0x03, 0x15, 0xbf, 0x43, 0xb4, 0x29, 0x40,
  0xa1, 0xf2, 0xe4, 0xbe, 0xb0, 0xae, 0xb1, 0x3e, 0xe0, 0x47, 0x11, 0x3f,
  0x00, 0x18, 0xb9, 0x3d, 0xf7, 0x53, 0x2d, 0xbe, 0xf0, 0xb9, 0xf3, 0x3c,
  0x5f, 0xbb, 0x72, 0xc0, 0x83, 0x95, 0x92, 0xc0, 0x63, 0x77, 0x3e, 0xbf,
  0xe1, 0x0f, 0x88, 0x3d, 0xb0, 0xa6, 0xbc, 0xbf, 0x0f, 0x3f, 0xad, 0xbf,
  0x70, 0xb1, 0xb3, 0x3c, 0x5f, 0x77, 0xca, 0xbf, 0xaa, 0x52, 0x5d, 0xbf,
  0x57, 0x59, 0xf3, 0x3e, 0x1b, 0x85, 0x09, 0x3f, 0xf5, 0x0b, 0xc3, 0x3c,
  0xa5, 0x7d, 0x41, 0x3f, 0x6c, 0x17, 0x53, 0xbe, 0xab, 0x7f, 0x33, 0xbf,
  0xc1, 0x96, 0xe7, 0xbf, 0xf5, 0x8f, 0xc3, 0x3e, 0x17, 0xd5, 0x4e, 0xbe,
  0x73, 0x61, 0x63, 0x3e, 0xc7, 0xa4, 0x1f, 0x3f, 0x91, 0xc5, 0x47, 0xbe,
  0xec, 0x14, 0xa8, 0xc0, 0x07, 0xde, 0x36, 0x3d, 0xec, 0xd2, 0x9b, 0xbd,
  0x60, 0x23, 0x84, 0x3e, 0xb4, 0x87, 0xcc, 0x3e, 0x8b, 0x00, 0x8e, 0xbe,
  0xaf, 0x9f, 0x64, 0xc0, 0x88, 0xc7, 0x59, 0xbf, 0xc5, 0xe6, 0x42, 0x3f,
  0x9f, 0xfc, 0xe8, 0x3e, 0xdc, 0x3d, 0x2c, 0xc0, 0x90, 0x46, 0x2b, 0xc0,
  0x6d, 0x23, 0x3e, 0x3e, 0x6c, 0x7c, 0xab, 0x3e, 0x9e, 0xa8, 0xe1, 0xbd,
  0x8f, 0xc2, 0xc0, 0xbe, 0x34, 0x7e, 0x09, 0xc0, 0x40, 0x51, 0x85, 0xbe,
  0x09, 0x95, 0x9e, 0xbe, 0x02, 0xa5, 0x07, 0xc0, 0xb6, 0x59, 0x0b, 0x3e,
  0x04, 0xe3, 0x81, 0xbe, 0xf7, 0xf8, 0x47, 0xbf, 0x54, 0x66, 0xc0, 0xbf,
  0x3b, 0x32, 0xe1, 0xbd, 0x8f, 0xff, 0x20, 0x3f, 0xcd, 0x14, 0xee, 0x3d,
  0xa5, 0x56, 0x08, 0x3e, 0x96, 0x62, 0xe7, 0x3d, 0xdd, 0xfd, 0x5c, 0xc0,
  0x5b, 0x55, 0x74, 0xbf, 0x0b, 0x79, 0x9a, 0x3d, 0xfe, 0x5e, 0x01, 0xbe,
  0xb2, 0x89, 0x43, 0x3d, 0x32, 0xa2, 0x9a, 0x3e, 0x54, 0x1f, 0x9d, 0xbd,
  0xd5, 0xa6, 0x26, 0xc0, 0x5d, 0x6b, 0x47, 0x3e, 0x51, 0x95, 0xb6, 0x3e,
  0x09, 0x10, 0xe5, 0x3e, 0x4e, 0x70, 0xd8, 0x3e, 0xbd, 0x87, 0x97, 0xbe,
  0xda, 0x0d, 0x3a, 0x3d, 0x4a, 0x25, 0x76, 0xbe, 0x95, 0x7f, 0x84, 0x3e,
  0xe0, 0x1c, 0x10, 0x3f, 0xd3, 0x75, 0xd5, 0xbe, 0xa9, 0xec, 0xcd, 0xbf,
  0x12, 0x48, 0xaa, 0x3a, 0x0a, 0x11, 0x6c, 0x3e, 0xd4, 0x54, 0x23, 0xbe,
  0x35, 0x51, 0x05, 0xbe, 0x15, 0x27, 0x3d, 0xbe, 0x15, 0xae, 0x87, 0xc0,
  0x30, 0xcb, 0x31, 0xbe, 0x3d, 0xb8, 0x1b, 0xbf, 0x54, 0x5a, 0x6d, 0xc0,
  0x34, 0x58, 0xf5, 0x3d, 0x00, 0x33, 0x77, 0xbf, 0x3b, 0x25, 0xed, 0x3d,
  0x40, 0x2a, 0xa8, 0x3f, 0x6c, 0x9a, 0xa8, 0x3f, 0xc2, 0xb3, 0xa8, 0x3e,
  0x6a, 0x3c, 0xef, 0x3e, 0x5b, 0x3b, 0x99, 0xbe, 0x4f, 0x23, 0xbd, 0xbf,
  0xb3, 0x1b, 0xa3, 0xc0, 0x61, 0x47, 0x04, 0x3f, 0xc7, 0x46, 0x86, 0x3e,
  0x94, 0x16, 0x51, 0x3f, 0x62, 0x24, 0xd8, 0x3e, 0x5c, 0x10, 0x42, 0x3e,
  0x06, 0xc8, 0xaa, 0xc0, 0xf8, 0x7d, 0xac, 0x3d, 0x02, 0xd6, 0x1f, 0xc0,
  0x4f, 0x62, 0x08, 0xbf, 0x84, 0x7d, 0x10, 0x3f, 0x26, 0xcd, 0x49, 0xc0,
  0x1f, 0xc5, 0x07, 0xbf, 0x8c, 0x72, 0x98, 0xc0, 0x8d, 0x68, 0x43, 0xbd,
  0x17, 0x08, 0x39, 0xbf, 0xca, 0x4e, 0x11, 0xc0, 0x12, 0x1b, 0x1d, 0xc0,
  0x4b, 0x79, 0x25, 0xbf, 0xdb, 0xca, 0xbe, 0xbe, 0xf8, 0xc5, 0x3f, 0xbd,
  0x8c, 0xc0, 0x28, 0xbf, 0xe8, 0xb5, 0x6f, 0xbf, 0x0f, 0x37, 0xa0, 0x3f,
  0xb6, 0xda, 0x99, 0xbe, 0xa6, 0xf1, 0x24, 0xc0, 0x30, 0xca, 0x31, 0x3f,
  0x14, 0x11, 0x3d, 0x3e, 0x3e, 0xc4, 0x4c, 0xbf, 0x81, 0x07, 0x67, 0x3f,
  0x59, 0x27, 0xd9, 0xbf, 0xbc, 0xa0, 0x16, 0xbf, 0x8d, 0x78, 0x44, 0x3f,
  0xf6, 0x00, 0xaa, 0xbf, 0xc5, 0xc4, 0x00, 0xbd, 0x91, 0x70, 0x0a, 0xc0,
  0x3f, 0x08, 0xb1, 0x3f, 0x76, 0xdd, 0xfd, 0xbf, 0xdb, 0xec, 0xa3, 0xbd,
  0x10, 0x76, 0x2e, 0xc0, 0xfd, 0xb4, 0x8e, 0xbd, 0x40, 0xc2, 0x32, 0x3f,
  0x4b, 0xa9, 0xb3, 0xbe, 0x30, 0x58, 0xaa, 0x3d, 0x24, 0x34, 0x6c, 0xbe,
  0x08, 0xa5, 0xac, 0x3d, 0x15, 0x70, 0x79, 0xbe, 0x2b, 0xaf, 0xe5, 0x3e,
  0x91, 0x78, 0xc1, 0x3f, 0x01, 0x05, 0x06, 0x3f, 0xa1, 0x18, 0x85, 0xbf,
  0xc2, 0xb6, 0xa5, 0x3f, 0x02, 0xe6, 0x85, 0xbd, 0x70, 0x2a, 0x28, 0xbf,
  0x79, 0x53, 0xca, 0xbe, 0x05, 0x9e, 0x35, 0x3f, 0x44, 0xe9, 0x5b, 0xbe,
  0x8e, 0x5f, 0x19, 0xbf, 0xed, 0x95, 0xfc, 0xbd, 0x3b, 0xf9, 0x0f, 0x3f,
  0x01, 0x8d, 0xbc, 0x3d, 0xce, 0x68, 0xba, 0x3e, 0xed, 0xc6, 0xa7, 0xbf,
  0x5d, 0xb1, 0x93, 0xbe, 0x29, 0x8c, 0x11, 0xc0, 0xe0, 0x81, 0xf1, 0x3e,
  0x86, 0x23, 0x4b, 0xc0, 0x8a, 0x46, 0x9a, 0xc0, 0xf0, 0x61, 0x54, 0x3f,
  0x5b, 0x54, 0x1a, 0xbf, 0xcf, 0x4c, 0x83, 0x3e, 0xb5, 0x5c, 0xa1, 0x3f,
  0xe6, 0x27, 0x0d, 0x3f, 0x12, 0x12, 0xf7, 0x3c, 0x7e, 0x52, 0x8e, 0x3e,
  0x77, 0x04, 0x1a, 0x3e, 0x0a, 0x64, 0x6a, 0xbd, 0xab, 0x3d, 0xeb, 0x3e,
  0xde, 0x83, 0x12, 0x3f, 0xde, 0xda, 0x5f, 0xbe, 0x63, 0x4c, 0xb1, 0xbf,
  0xba, 0x4d, 0x0b, 0x3f, 0x1c, 0xac, 0x3d, 0x3f, 0xeb, 0xe7, 0x71, 0xc0,
  0xaa, 0x21, 0x80, 0xc0, 0x98, 0xe9, 0x1c, 0x3f, 0x59, 0x09, 0x4b, 0xc0,
  0x33, 0x3e, 0x3a, 0xc0, 0xb5, 0xe8, 0x8e, 0x3c, 0xe0, 0x2f, 0x0b, 0x3f,
  0x57, 0x72, 0xda, 0xbf, 0xef, 0x05, 0xb2, 0x3f, 0xa8, 0x36, 0xb3, 0xbd,
  0x51, 0xa2, 0xc2, 0xbe, 0x3f, 0x1e, 0x30, 0xbe, 0xb4, 0x65, 0x34, 0x40,
  0x33, 0xd7, 0xcd, 0x3d, 0x58, 0x6e, 0x8e, 0xc0, 0xa0, 0xa4, 0x9a, 0x3f,
  0x50, 0x14, 0xeb, 0xbd, 0x1a, 0xe7, 0x00, 0x3f, 0x3c, 0xa3, 0x43, 0x3f,
  0x5c, 0x96, 0xa4, 0xbf, 0xff, 0x98, 0x36, 0x3d, 0x31, 0x54, 0xd0, 0xc0,
  0x3b, 0xa8, 0xf1, 0xbe, 0x80, 0x5c, 0x5a, 0x3e, 0x42, 0x0c, 0xa6, 0xbf,
  0xdb, 0xa9, 0x56, 0xbd, 0xe7, 0xb1, 0x01, 0xbe, 0x72, 0x3f, 0x6d, 0x3e,
  0xcf, 0x00, 0x95, 0xbf, 0x77, 0x96, 0x51, 0x3e, 0xb0, 0xf7, 0xfa, 0x3e,
  0x4a, 0x1c, 0x8a, 0x3f, 0x97, 0x89, 0x54, 0x3e, 0x63, 0xba, 0x1a, 0x3f,
  0x9b, 0x66, 0xf6, 0xbf, 0x70, 0x20, 0x40, 0x3f, 0x4b, 0x2e, 0x48, 0xba,
  0xdf, 0xfb, 0xe9, 0x3f, 0x38, 0xeb, 0xdb, 0x3e, 0x29, 0xf6, 0x39, 0x3b,
  0xf5, 0xf3, 0x11, 0xbd, 0x53, 0xc2, 0x05, 0xc1, 0x57, 0x13, 0x07, 0xc1,
  0x03, 0x70, 0x87, 0x3f, 0x07, 0x22, 0x77, 0xbd, 0x00, 0x00, 0x00, 0x00,
  0x02, 0xf7, 0xff, 0xff, 0x04, 0x00, 0x00, 0x00, 0xa0, 0x05, 0x00, 0x00,
  0xcc, 0x09, 0xbc, 0xbd, 0x1c, 0x20, 0x19, 0xbe, 0x67, 0x18, 0x21, 0xbe,
  0x00, 0xb7, 0xb9, 0xbd, 0x4f, 0xec, 0x38, 0xbe, 0xb0, 0xfb, 0x57, 0xbd,
  0xc0, 0x2a, 0x5e, 0xbc, 0xb6, 0x8d, 0xe5, 0xbd, 0x08, 0xe6, 0x57, 0xbd,
  0x66, 0x2a, 0x26, 0x3e, 0x90, 0xb6, 0x63, 0xbf, 0x1d, 0x8f, 0x90, 0xbf,
  0x3a, 0x03, 0xb6, 0x3f, 0x92, 0x26, 0x89, 0x3f, 0xb5, 0x3e, 0x84, 0x3e,
  0xa2, 0x2d, 0xf6, 0xbd, 0x0c, 0x03, 0x2f, 0x3f, 0x9e, 0x29, 0x0c, 0x3f,
  0x8e, 0x1d, 0x66, 0x3e, 0x95, 0x8e, 0x6d, 0xbf, 0x4b, 0x94, 0x23, 0xbf,
  0x10, 0x3b, 0xba, 0xbf, 0xca, 0xa1, 0x67, 0x3f, 0xdc, 0x27, 0xb2, 0x3f,
  0xd8, 0xf5, 0xab, 0xbd, 0x60, 0x38, 0x67, 0x3d, 0xc5, 0x3b, 0x88, 0x3f,
  0xd3, 0xe4, 0x20, 0x3f, 0xb9, 0xe5, 0x99, 0x3e, 0x71, 0xc1, 0x39, 0xbf,
  0x9b, 0x7e, 0x8c, 0xbd, 0x69, 0x03, 0x3a, 0x3f, 0xf8, 0xc0, 0xac, 0xbf,
  0xf5, 0x5f, 0x1c, 0xbf, 0x98, 0x2d, 0x9f, 0x3e, 0x55, 0x66, 0xa1, 0x3e,
  0xa5, 0x19, 0xbf, 0x3f, 0x62, 0xf3, 0x09, 0x3e, 0xac, 0xfe, 0xa3, 0xbd,
  0xcb, 0xb2, 0x39, 0x3d, 0x10, 0x94, 0x66, 0xbe, 0x7f, 0x52, 0x3e, 0xbe,
  0x91, 0x63, 0x2e, 0xbe, 0xa7, 0x71, 0xed, 0xbd, 0x10, 0x4f, 0x9f, 0x3d,
  0x18, 0xcb, 0x53, 0xbe, 0x2d, 0x8f, 0xd7, 0x3d, 0x71, 0xe8, 0xc5, 0x3d,
  0x59, 0x60, 0x6a, 0xbe, 0x8d, 0xd7, 0xb0, 0xbe, 0x47, 0x7a, 0x74, 0x3f,
  0x80, 0xd8, 0x2c, 0xbf, 0xcd, 0x8a, 0x8c, 0xbf, 0x4b, 0x3e, 0xe1, 0x3f,
  0x89, 0x2a, 0xca, 0xbf, 0xd3, 0x80, 0x84, 0x3e, 0x17, 0x21, 0xa5, 0x3f,
  0xe5, 0x52, 0x5e, 0xbf, 0x5b, 0x46, 0xb3, 0xbe, 0x4a, 0x4c, 0xca, 0x3f,
  0x29, 0xb9, 0x8b, 0x3d, 0x9d, 0x6d, 0xdb, 0xbe, 0xb4, 0xa9, 0xac, 0xbf,
  0x5b, 0x2a, 0x66, 0xbf, 0x53, 0xf4, 0x61, 0x3f, 0xce, 0x0d, 0xa4, 0xbe,
  0xeb, 0x81, 0x22, 0x3f, 0x13, 0xad, 0xbe, 0x3f, 0xff, 0x8f, 0x3a, 0xbe,
  0x00, 0xe1, 0xc1, 0x3f, 0x54, 0x8c, 0x9d, 0xbe, 0x29, 0x15, 0x50, 0xbe,
  0xb4, 0x2a, 0x85, 0xbd, 0xc0, 0x63, 0x16, 0xbd, 0xf0, 0xaf, 0xab, 0xbe,
  0x10, 0xb1, 0xbd, 0x3d, 0x46, 0x15, 0x43, 0xbe, 0x5e, 0x5c, 0x3b, 0xbe,
  0x42, 0x8b, 0x4e, 0x3e, 0x14, 0x9e, 0x9a, 0xbe, 0xe3, 0x8b, 0x2b, 0xbf,
  0xaa, 0x20, 0x7c, 0xbf, 0xca, 0x03, 0x4b, 0x3d, 0x56, 0x29, 0xbf, 0x3f,
  0xf9, 0x52, 0x92, 0x3f, 0x2e, 0x93, 0x23, 0xbe, 0xd3, 0x5a, 0x65, 0xbd,
  0x35, 0xf5, 0x0c, 0x3f, 0x4e, 0xa5, 0x8b, 0xbe, 0xf5, 0x69, 0x30, 0xbf,
  0x6b, 0x09, 0x93, 0xbe, 0x53, 0x5a, 0x1c, 0x3f, 0xbc, 0x3b, 0xfd, 0xbe,
  0x62, 0x87, 0x86, 0x3f, 0x58, 0xb1, 0x98, 0x3d, 0xc0, 0x14, 0x01, 0x3d,
  0x67, 0x93, 0x8f, 0x3f, 0xbd, 0xc2, 0x24, 0x3f, 0x97, 0xf0, 0x82, 0x3e,
  0x63, 0x2f, 0x36, 0xc0, 0x53, 0x8f, 0x04, 0xbf, 0xa4, 0x24, 0x84, 0x3f,
  0x53, 0x18, 0x77, 0x3f, 0x46, 0xa5, 0xc8, 0x3f, 0xa7, 0x27, 0xba, 0xbf,
  0x3c, 0x58, 0xcc, 0x3d, 0x2a, 0xb7, 0x23, 0xbf, 0x0d, 0xc7, 0xc4, 0x3f,
  0xc7, 0xb4, 0x08, 0xbe, 0x73, 0x2c, 0xad, 0x3f, 0x16, 0x0a, 0xac, 0x3f,
  0x79, 0xa0, 0xa3, 0x3f, 0xa1, 0x14, 0x92, 0xbd, 0x1f, 0x72, 0x8f, 0x3d,
  0xc2, 0xb9, 0x15, 0x3f, 0x72, 0x91, 0x20, 0x3e, 0x93, 0x7d, 0xaf, 0xbf,
  0xc0, 0x66, 0x43, 0x40, 0x26, 0x08, 0x1b, 0xbe, 0xb7, 0x77, 0xde, 0xbe,
  0xbd, 0x6a, 0xc0, 0x3f, 0xa7, 0x6e, 0x6d, 0x3f, 0xbe, 0x89, 0xa1, 0x3e,
  0x3f, 0x2b, 0x01, 0xbf, 0x4c, 0xb3, 0x9c, 0xbe, 0x26, 0xd1, 0x6c, 0x3e,
  0x8d, 0x35, 0x0c, 0x3f, 0x2f, 0x88, 0x24, 0x3f, 0xb4, 0xc5, 0x76, 0xbe,
  0x1d, 0x87, 0x0a, 0xc0, 0xf2, 0x1f, 0xea, 0x3e, 0x7a, 0x0f, 0xb2, 0x3f,
  0x1e, 0x2c, 0xa1, 0x3f, 0x23, 0x04, 0x79, 0x3f, 0x28, 0xdd, 0x71, 0xbe,
  0x0b, 0x12, 0xa5, 0x3e, 0x61, 0x36, 0xa4, 0xbf, 0xd6, 0xc9, 0x36, 0xbe,
  0xbc, 0xd3, 0x2a, 0xbe, 0x25, 0x87, 0x0d, 0x40, 0xfe, 0x06, 0x1f, 0xbe,
  0x6f, 0xd5, 0x57, 0xbe, 0xb9, 0x26, 0x6d, 0xbe, 0xd4, 0x74, 0xa8, 0x3e,
  0x16, 0x36, 0x63, 0xbe, 0x75, 0x3f, 0x90, 0xbe, 0xc2, 0x6c, 0xb4, 0xbe,
  0x3f, 0xc6, 0x82, 0xbe, 0x49, 0x6f, 0x95, 0x3e, 0xcf, 0x66, 0x7d, 0x3e,
  0x85, 0x70, 0x9f, 0x3f, 0xb5, 0x92, 0x61, 0xbf, 0x5d, 0x27, 0xa3, 0xbf,
  0xee, 0x72, 0xd2, 0x3f, 0x34, 0x25, 0x05, 0xbf, 0x18, 0x83, 0x10, 0x3d,
  0xa7, 0xe1, 0x8e, 0x3f, 0x63, 0x69, 0xe6, 0xbf, 0x63, 0x47, 0x9b, 0x3e,
  0x97, 0xdf, 0x3e, 0x3d, 0x9a, 0xf1, 0x46, 0xbf, 0xb0, 0xb6, 0x68, 0x3e,
  0x19, 0xd3, 0xd1, 0x3e, 0x0b, 0x63, 0xae, 0xbf, 0x34, 0x80, 0xb4, 0x3e,
  0x9a, 0xb7, 0x62, 0xbe, 0x91, 0x39, 0xce, 0x3f, 0xbc, 0x76, 0x3f, 0x3e,
  0xea, 0x12, 0x8e, 0xbe, 0xc8, 0x90, 0x10, 0x3c, 0xd5, 0x3f, 0xe8, 0x3f,
  0x25, 0x8f, 0x98, 0xbe, 0xc6, 0x12, 0x25, 0x3e, 0xc9, 0xe4, 0xb9, 0x3f,
  0x73, 0xe7, 0x6f, 0xbe, 0x41, 0x7d, 0x01, 0xbe, 0xa0, 0x75, 0x7d, 0xbf,
  0xfe, 0xfc, 0x8b, 0xbf, 0xc0, 0x32, 0xc6, 0xbd, 0x95, 0xfc, 0x2a, 0x3f,
  0xaf, 0x85, 0x04, 0xbe, 0x16, 0xc1, 0xa3, 0xbc, 0xcc, 0x1b, 0x70, 0xbe,
  0x18, 0xb2, 0x8b, 0x3e, 0x5e, 0x33, 0xc1, 0xbd, 0x2e, 0xda, 0x5f, 0x3e,
  0x3a, 0xf5, 0x41, 0xbe, 0x00, 0x5a, 0xb1, 0xba, 0x10, 0x87, 0x82, 0x3d,
  0x26, 0x8d, 0x95, 0xbd, 0x50, 0x58, 0xd0, 0x3f, 0x6b, 0x93, 0x6b, 0x3e,
  0x8c, 0xe8, 0xca, 0xbf, 0x84, 0x31, 0x9e, 0xbe, 0xc9, 0x8c, 0xd3, 0xbe,
  0x4a, 0x74, 0x42, 0x3e, 0x29, 0x5e, 0xb0, 0xbe, 0xf5, 0x01, 0x0d, 0x3f,
  0x37, 0x7e, 0xa6, 0xbe, 0x3f, 0xab, 0x99, 0x3e, 0xbd, 0x06, 0x26, 0xbf,
  0xa0, 0x39, 0x09, 0x40, 0x24, 0x4c, 0x0f, 0x40, 0xde, 0x58, 0xb7, 0x3f,
  0x89, 0x5d, 0x31, 0x3f, 0xe0, 0x62, 0xd2, 0x3c, 0x28, 0x87, 0xcb, 0xbd,
  0xaa, 0x7b, 0xb6, 0xbe, 0x71, 0x47, 0x4b, 0xbe, 0x25, 0x4b, 0xac, 0x3e,
  0x62, 0x97, 0x9d, 0x3f, 0xcc, 0xad, 0xb5, 0x3e, 0x2d, 0xb6, 0x7c, 0x3f,
  0xde, 0xa5, 0xc4, 0xbe, 0x03, 0x23, 0xb9, 0xbe, 0xde, 0x3b, 0x34, 0xbe,
  0x91, 0x39, 0x63, 0x3f, 0x1a, 0x80, 0xd5, 0x3f, 0x4c, 0x89, 0x92, 0xbd,
  0x25, 0xc4, 0x4f, 0xc0, 0x93, 0xa4, 0xc0, 0x3d, 0xc2, 0xb0, 0x55, 0xbf,
  0x58, 0xc1, 0xc6, 0xbf, 0x9d, 0x66, 0x8f, 0x3f, 0x12, 0x76, 0xf1, 0x3f,
  0x6c, 0x4e, 0x44, 0xbe, 0x0b, 0x08, 0x1b, 0x3f, 0xd7, 0xca, 0x8e, 0xbf,
  0xba, 0x6d, 0xa1, 0xbe, 0x74, 0xdc, 0x2f, 0x3f, 0x40, 0x71, 0xfd, 0xbc,
  0xff, 0x25, 0x3b, 0xbe, 0x8c, 0x9e, 0x4a, 0xbe, 0xcf, 0x3e, 0xad, 0xbe,
  0xe7, 0x1c, 0xb7, 0x3d, 0x27, 0x68, 0x8d, 0x3e, 0xdf, 0xaf, 0x9e, 0xbe,
  0xb8, 0x70, 0x0c, 0x3e, 0x94, 0xce, 0x99, 0xbd, 0x82, 0x3f, 0x93, 0xbd,
  0x21, 0x2c, 0x87, 0x3f, 0x1d, 0xd2, 0x01, 0xbf, 0xd8, 0xc4, 0x55, 0xbf,
  0x6b, 0xae, 0xbf, 0xbe, 0xa5, 0x5d, 0xd1, 0x3f, 0xc0, 0xba, 0x55, 0xbd,
  0xb5, 0x36, 0xef, 0xbe, 0xf8, 0xe8, 0x98, 0x3e, 0x2e, 0x7a, 0x85, 0xbe,
  0xcd, 0x48, 0x03, 0x40, 0x4d, 0x7b, 0xa7, 0x3f, 0x4d, 0x22, 0x4a, 0x3f,
  0xbc, 0xdf, 0xdf, 0x3d, 0x5c, 0x53, 0x35, 0xbf, 0x86, 0x69, 0x27, 0xbf,
  0xc8, 0xc0, 0xf2, 0x3d, 0x76, 0x21, 0x68, 0x3f, 0x85, 0x38, 0x38, 0xbe,
  0x34, 0xf8, 0xdc, 0x3d, 0xf2, 0x79, 0x3f, 0x3f, 0xc2, 0x14, 0xbd, 0x3f,
  0x1d, 0x13, 0xb6, 0x3f, 0x27, 0x89, 0x5f, 0xbb, 0xba, 0x92, 0x31, 0x3f,
  0x6a, 0x03, 0x4b, 0x3f, 0x39, 0xb4, 0x85, 0x3e, 0xe2, 0x10, 0x08, 0xbf,
  0x80, 0xf2, 0xd2, 0xbd, 0x66, 0x48, 0xe7, 0xbd, 0xd4, 0x35, 0x6c, 0xbf,
  0xf8, 0x1a, 0x99, 0xbf, 0xe0, 0x0d, 0xab, 0x3d, 0x32, 0x4d, 0x6a, 0xbc,
  0xc0, 0xe6, 0xe1, 0x3e, 0xf7, 0x01, 0x39, 0x3f, 0x90, 0x59, 0x40, 0xbd,
  0x71, 0x57, 0xee, 0x3d, 0xdb, 0x85, 0x94, 0x3f, 0xda, 0xdf, 0x5c, 0x3e,
  0x55, 0xd5, 0x03, 0x40, 0x61, 0xcc, 0x9f, 0xbe, 0x0a, 0x01, 0x08, 0xbf,
  0x93, 0x48, 0x7e, 0xbf, 0x67, 0x83, 0x9c, 0xbe, 0x9d, 0x50, 0xed, 0x3f,
  0xf7, 0x5b, 0x82, 0x3e, 0xda, 0x75, 0xa2, 0x3e, 0xe5, 0xa1, 0x14, 0x40,
  0x00, 0x79, 0xb7, 0x3d, 0x02, 0x67, 0x87, 0xbf, 0x90, 0x9d, 0x9c, 0xbf,
  0x27, 0xb7, 0x9c, 0x3f, 0xfb, 0x16, 0xea, 0xbe, 0x2b, 0xe6, 0x50, 0x3f,
  0xfb, 0x21, 0x6c, 0x3f, 0x68, 0xe4, 0xd8, 0x3d, 0xd6, 0x81, 0x56, 0x3f,
  0x7d, 0xe6, 0x96, 0xbf, 0xef, 0x6b, 0xb1, 0xbe, 0x27, 0xcf, 0xf1, 0x3e,
  0x0f, 0xad, 0x92, 0xbf, 0x8e, 0x38, 0xcd, 0x3f, 0x90, 0xc9, 0x32, 0x40,
  0x12, 0x6c, 0x31, 0x3f, 0x28, 0xc8, 0x38, 0x40, 0x46, 0x96, 0x8e, 0xbe,
  0x8a, 0x03, 0xc5, 0xbf, 0x6c, 0x96, 0x36, 0xbe, 0x73, 0x16, 0x94, 0x3e,
  0xe3, 0x8b, 0x84, 0x3f, 0x44, 0x33, 0x57, 0xbf, 0xed, 0xe0, 0xda, 0x3e,
  0xb2, 0x0b, 0x0b, 0x40, 0x7c, 0x3d, 0x65, 0xbf, 0xd7, 0xdd, 0x29, 0x40,
  0x40, 0xf1, 0x1c, 0x3d, 0xbf, 0x96, 0x86, 0xbe, 0xf0, 0x3e, 0xe0, 0x3f,
  0xe2, 0x98, 0x14, 0x3e, 0xfc, 0x21, 0x8e, 0x3f, 0xa1, 0x9f, 0x3d, 0x3f,
  0x8d, 0xe9, 0x79, 0xbf, 0xf1, 0x01, 0x08, 0xbf, 0x3f, 0xbb, 0x2c, 0xbf,
  0xd0, 0x72, 0x3c, 0xbf, 0x0a, 0xc5, 0x77, 0x3e, 0x7e, 0xfe, 0xae, 0x3f,
  0x0d, 0xe8, 0x22, 0x3f, 0x90, 0xdd, 0x89, 0xbc, 0xa3, 0xdc, 0x43, 0x3f,
  0x0a, 0xef, 0x6c, 0x3d, 0xc8, 0xa4, 0x14, 0xbf, 0xf2, 0xe0, 0x80, 0xbf,
  0x6f, 0x1a, 0x09, 0x3f, 0xef, 0x9c, 0xc2, 0xbf, 0xf4, 0x56, 0xe0, 0x3d,
  0x8a, 0x37, 0x09, 0x40, 0xd3, 0x5e, 0x8f, 0xbe, 0x14, 0x1a, 0x2d, 0xbe,
  0xa2, 0x6d, 0xf2, 0x3f, 0x80, 0x60, 0x92, 0x3f, 0x63, 0x67, 0x36, 0x3f,
  0xaf, 0xc5, 0xac, 0xbf, 0xdc, 0xaf, 0xa6, 0x3e, 0x8b, 0xb4, 0xe9, 0x3f,
  0x59, 0x14, 0x9b, 0x3e, 0x84, 0xb6, 0x27, 0xbf, 0x40, 0xc9, 0x27, 0x3f,
  0xea, 0xbd, 0x6f, 0x3e, 0x91, 0xbb, 0x01, 0x3e, 0x14, 0xf9, 0x2d, 0x3f,
  0xa4, 0x1d, 0x97, 0x3f, 0xca, 0x20, 0x6f, 0x3f, 0x30, 0xce, 0xbe, 0xbe,
  0xfd, 0xec, 0xb6, 0x3c, 0x72, 0x9c, 0x90, 0xbe, 0xfa, 0x59, 0x0e, 0x3f,
  0x11, 0x0e, 0xad, 0xbf, 0x56, 0x05, 0x9b, 0xbe, 0x10, 0xf8, 0x10, 0xc0,
  0x00, 0x00, 0x00, 0x00, 0xb2, 0xfc, 0xff, 0xff, 0x04, 0x00, 0x00, 0x00,
  0x40, 0x01, 0x00, 0x00, 0xcb, 0x63, 0x7c, 0xbf, 0x32, 0x52, 0x18, 0xbf,
  0xb4, 0x0d, 0x19, 0x40, 0x8e, 0xf5, 0xb6, 0x3f, 0xf8, 0x07, 0xe2, 0x3f,
  0xb9, 0x1f, 0xc2, 0xbf, 0x98, 0x78, 0x9c, 0xbd, 0x7c, 0xc3, 0xac, 0x3f,
  0xd1, 0x70, 0x42, 0xbe, 0x21, 0x5d, 0x0b, 0x40, 0xfc, 0x34, 0x97, 0x3f,
  0x10, 0xec, 0x32, 0x3b, 0xfb, 0x80, 0x22, 0x3f, 0x7e, 0xf5, 0xe6, 0x3f,
  0x2f, 0xa1, 0xb0, 0xbe, 0x2a, 0x31, 0x30, 0x3f, 0x92, 0xa1, 0x04, 0x40,
  0x64, 0xa4, 0x15, 0x40, 0x59, 0xc2, 0xc0, 0x3e, 0xe2, 0x58, 0x18, 0x3e,
  0x3e, 0xa8, 0xf4, 0xbe, 0xaf, 0xf1, 0x37, 0xbf, 0x2a, 0xb1, 0x2e, 0xbe,
  0xbf, 0xe0, 0x70, 0xbe, 0x42, 0x11, 0x44, 0x3f, 0xd3, 0xb1, 0x0c, 0x3e,
  0x10, 0x05, 0x99, 0x3f, 0x96, 0x55, 0x3e, 0x40, 0x1a, 0xf1, 0x13, 0x3e,
  0xdf, 0x4c, 0x2f, 0x3f, 0x83, 0xac, 0xaa, 0x3e, 0xa7, 0xfe, 0xd5, 0xbf,
  0x6d, 0xd3, 0x05, 0xbf, 0xf9, 0x41, 0x06, 0x40, 0x61, 0xe9, 0x47, 0xbf,
  0x3b, 0x5c, 0xb5, 0xbf, 0x69, 0x43, 0xa6, 0x3f, 0x63, 0x4f, 0x89, 0x3e,
  0xeb, 0xb3, 0x36, 0x40, 0x19, 0xea, 0x7c, 0xbf, 0xb5, 0x3b, 0x05, 0xbf,
  0xa0, 0x00, 0x19, 0x3e, 0x50, 0x6b, 0x54, 0x3d, 0x20, 0x82, 0xd4, 0x3d,
  0x93, 0x54, 0xc0, 0xbe, 0xdf, 0x31, 0xcf, 0xbe, 0x74, 0x2d, 0xd9, 0x3e,
  0x70, 0xc5, 0x0c, 0xbf, 0x30, 0x38, 0xa7, 0x3f, 0x7f, 0x38, 0xae, 0xbf,
  0xcb, 0x7f, 0xc5, 0xbf, 0x87, 0x43, 0x8a, 0x3f, 0xc9, 0xa4, 0x4a, 0x3f,
  0x4c, 0x85, 0xaf, 0x3f, 0x57, 0xd6, 0x44, 0xbf, 0x82, 0x29, 0x8c, 0x3f,
  0x20, 0x24, 0x81, 0xbf, 0x46, 0x20, 0xc9, 0x3f, 0xcd, 0xf0, 0xfb, 0xbe,
  0x39, 0xbf, 0xb6, 0xbd, 0x58, 0xb8, 0x4b, 0xbf, 0xce, 0xea, 0x30, 0xbf,
  0x74, 0x92, 0xc3, 0x3e, 0x7a, 0xf4, 0x87, 0x3f, 0xb0, 0xce, 0x57, 0x3e,
  0x47, 0xfa, 0xde, 0xbe, 0x6d, 0xa2, 0xc0, 0xbe, 0x40, 0x90, 0xc7, 0x3c,
  0x60, 0xdd, 0x83, 0xbc, 0xcf, 0xef, 0xd8, 0xbe, 0x44, 0xfb, 0x5c, 0x3e,
  0xe2, 0xc3, 0x62, 0xbe, 0xe5, 0xe2, 0x0f, 0x3e, 0x9f, 0xa5, 0xe1, 0xbe,
  0x77, 0x68, 0x03, 0x40, 0x54, 0x03, 0x15, 0xc0, 0xb8, 0x00, 0x12, 0xbf,
  0x33, 0xd4, 0xc1, 0x3f, 0x3f, 0xef, 0x98, 0x3f, 0x67, 0x2f, 0x79, 0xbe,
  0x00, 0x00, 0x00, 0x00, 0x02, 0xfe, 0xff, 0xff, 0x04, 0x00, 0x00, 0x00,
  0x68, 0x00, 0x00, 0x00, 0x27, 0xc4, 0x0f, 0x3f, 0xf1, 0x17, 0x2b, 0xbf,
  0x1d, 0x42, 0x85, 0xbd, 0xdb, 0x06, 0xe9, 0xbd, 0x27, 0xce, 0x98, 0x3e,
  0x28, 0x5c, 0x92, 0xbf, 0xea, 0x4c, 0x72, 0xbf, 0x01, 0x70, 0x6d, 0xbf,
  0xcd, 0x36, 0x35, 0xbf, 0x36, 0x7c, 0xad, 0xbf, 0xed, 0x36, 0x57, 0xbf,
  0x13, 0x25, 0xe6, 0xbc, 0x51, 0x67, 0xb4, 0xbe, 0x51, 0x45, 0x19, 0x3f,
  0x24, 0x5b, 0x39, 0x3f, 0x36, 0x83, 0xf7, 0x3d, 0x50, 0x12, 0xf4, 0xbe,
  0xd8, 0xdc, 0x24, 0x3f, 0xfb, 0xf6, 0x38, 0x3e, 0xda, 0xe2, 0x42, 0x3e,
  0xbe, 0x4d, 0x1a, 0xbf, 0x0c, 0xc6, 0x26, 0x3e, 0xa9, 0x20, 0x53, 0xbd,
  0xb5, 0xa8, 0x81, 0xbe, 0xd6, 0x31, 0x56, 0xbf, 0x04, 0xa0, 0x07, 0x3f,
  0x00, 0x00, 0x00, 0x00, 0x00, 0x00, 0x00, 0x00, 0x00, 0x00, 0x00, 0x00,
  0x82, 0xfe, 0xff, 0xff, 0x04, 0x00, 0x00, 0x00, 0x90, 0x00, 0x00, 0x00,
  0x00, 0x00, 0x00, 0x00, 0x3a, 0xca, 0x80, 0x3f, 0x0a, 0x07, 0x97, 0x3f,
  0x7c, 0x04, 0x2a, 0x3e, 0xfa, 0x4f, 0xaa, 0xbc, 0xd7, 0x1d, 0x88, 0x3f,
  0xd7, 0x33, 0xa1, 0x3f, 0x00, 0x00, 0x00, 0x00, 0x57, 0x83, 0xb3, 0x3f,
  0x91, 0x8c, 0xf4, 0x3c, 0x35, 0xb7, 0x40, 0x3f, 0xcf, 0x9e, 0xae, 0x3e,
  0xac, 0x20, 0x41, 0xbf, 0x7d, 0x9c, 0x9c, 0xbe, 0x4d, 0xb1, 0xb1, 0xbc,
  0x50, 0x64, 0xa2, 0xba, 0x5d, 0xa6, 0xe4, 0x3d, 0x23, 0x19, 0x7e, 0x3d,
  0x7f, 0xa4, 0xde, 0xbc, 0xed, 0xa9, 0xaa, 0xbd, 0xbe, 0xbf, 0xd9, 0xbe,
  0xcb, 0xb3, 0x97, 0x3e, 0xfe, 0xef, 0x47, 0x3f, 0xf7, 0x60, 0x1a, 0xbc,
  0x3e, 0xc1, 0xa1, 0x3e, 0x7b, 0x2f, 0x28, 0x3f, 0x78, 0xd3, 0x2e, 0xbf,
  0xe5, 0x75, 0x54, 0x3f, 0xbd, 0x19, 0xa0, 0x3f, 0x5f, 0xc3, 0x46, 0xbe,
  0x0a, 0xd3, 0x27, 0xbf, 0xc6, 0x86, 0x8b, 0x3c, 0x0f, 0xe2, 0xbb, 0x3f,
  0x64, 0xe4, 0xbd, 0x3f, 0x9c, 0x76, 0x2f, 0x3d, 0x25, 0x23, 0x19, 0xbd,
  0x00, 0x00, 0x00, 0x00, 0x22, 0xff, 0xff, 0xff, 0x04, 0x00, 0x00, 0x00,
  0x28, 0x00, 0x00, 0x00, 0xe6, 0x67, 0xb4, 0x3e, 0x78, 0x8b, 0xa5, 0xbf,
  0xad, 0x60, 0x15, 0xbf, 0x2a, 0xc1, 0x87, 0x3e, 0xc4, 0xef, 0xd6, 0x3e,
  0x00, 0x00, 0x00, 0x00, 0x4f, 0x0b, 0xa7, 0x3f, 0xf8, 0x67, 0x93, 0x3f,
  0x00, 0x00, 0x00, 0x00, 0x34, 0xf3, 0x65, 0x3e, 0x00, 0x00, 0x00, 0x00,
  0x44, 0xfa, 0xff, 0xff, 0x00, 0x00, 0x00, 0x00, 0x00, 0x00, 0x00, 0x00,
  0x00, 0x00, 0x00, 0x00, 0x54, 0xfa, 0xff, 0xff, 0x00, 0x00, 0x00, 0x00,
  0x0f, 0x00, 0x00, 0x00, 0x4d, 0x4c, 0x49, 0x52, 0x20, 0x43, 0x6f, 0x6e,
  0x76, 0x65, 0x72, 0x74, 0x65, 0x64, 0x2e, 0x00, 0x01, 0x00, 0x00, 0x00,
  0x14, 0x00, 0x00, 0x00, 0x00, 0x00, 0x0e, 0x00, 0x18, 0x00, 0x04, 0x00,
  0x08, 0x00, 0x0c, 0x00, 0x10, 0x00, 0x14, 0x00, 0x0e, 0x00, 0x00, 0x00,
  0x4c, 0x01, 0x00, 0x00, 0x40, 0x01, 0x00, 0x00, 0x34, 0x01, 0x00, 0x00,
  0x14, 0x00, 0x00, 0x00, 0x04, 0x00, 0x00, 0x00, 0x04, 0x00, 0x00, 0x00,
  0x6d, 0x61, 0x69, 0x6e, 0x00, 0x00, 0x00, 0x00, 0x04, 0x00, 0x00, 0x00,
  0xdc, 0x00, 0x00, 0x00, 0x94, 0x00, 0x00, 0x00, 0x50, 0x00, 0x00, 0x00,
  0x14, 0x00, 0x00, 0x00, 0x00, 0x00, 0x0e, 0x00, 0x1a, 0x00, 0x08, 0x00,
  0x0c, 0x00, 0x10, 0x00, 0x07, 0x00, 0x14, 0x00, 0x0e, 0x00, 0x00, 0x00,
  0x00, 0x00, 0x00, 0x09, 0x01, 0x00, 0x00, 0x00, 0x24, 0x00, 0x00, 0x00,
  0x18, 0x00, 0x00, 0x00, 0x0c, 0x00, 0x00, 0x00, 0x00, 0x00, 0x06, 0x00,
  0x08, 0x00, 0x04, 0x00, 0x06, 0x00, 0x00, 0x00, 0x00, 0x00, 0x80, 0x3f,
  0x01, 0x00, 0x00, 0x00, 0x0a, 0x00, 0x00, 0x00, 0x01, 0x00, 0x00, 0x00,
  0x09, 0x00, 0x00, 0x00, 0xce, 0xff, 0xff, 0xff, 0x00, 0x00, 0x00, 0x08,
  0x18, 0x00, 0x00, 0x00, 0x0c, 0x00, 0x00, 0x00, 0x04, 0x00, 0x00, 0x00,
  0x1c, 0xfb, 0xff, 0xff, 0x01, 0x00, 0x00, 0x00, 0x09, 0x00, 0x00, 0x00,
  0x03, 0x00, 0x00, 0x00, 0x08, 0x00, 0x00, 0x00, 0x06, 0x00, 0x00, 0x00,
  0x03, 0x00, 0x00, 0x00, 0x00, 0x00, 0x0e, 0x00, 0x14, 0x00, 0x00, 0x00,
  0x08, 0x00, 0x0c, 0x00, 0x07, 0x00, 0x10, 0x00, 0x0e, 0x00, 0x00, 0x00,
  0x00, 0x00, 0x00, 0x08, 0x1c, 0x00, 0x00, 0x00, 0x10, 0x00, 0x00, 0x00,
  0x04, 0x00, 0x00, 0x00, 0xba, 0xff, 0xff, 0xff, 0x00, 0x00, 0x00, 0x01,
  0x01, 0x00, 0x00, 0x00, 0x08, 0x00, 0x00, 0x00, 0x03, 0x00, 0x00, 0x00,
  0x07, 0x00, 0x00, 0x00, 0x05, 0x00, 0x00, 0x00, 0x02, 0x00, 0x00, 0x00,
  0x00, 0x00, 0x0e, 0x00, 0x16, 0x00, 0x00, 0x00, 0x08, 0x00, 0x0c, 0x00,
  0x07, 0x00, 0x10, 0x00, 0x0e, 0x00, 0x00, 0x00, 0x00, 0x00, 0x00, 0x08,
  0x24, 0x00, 0x00, 0x00, 0x18, 0x00, 0x00, 0x00, 0x0c, 0x00, 0x00, 0x00,
  0x00, 0x00, 0x06, 0x00, 0x08, 0x00, 0x07, 0x00, 0x06, 0x00, 0x00, 0x00,
  0x00, 0x00, 0x00, 0x01, 0x01, 0x00, 0x00, 0x00, 0x07, 0x00, 0x00, 0x00,
  0x03, 0x00, 0x00, 0x00, 0x00, 0x00, 0x00, 0x00, 0x04, 0x00, 0x00, 0x00,
  0x01, 0x00, 0x00, 0x00, 0x01, 0x00, 0x00, 0x00, 0x0a, 0x00, 0x00, 0x00,
  0x01, 0x00, 0x00, 0x00, 0x00, 0x00, 0x00, 0x00, 0x0b, 0x00, 0x00, 0x00,
  0x00, 0x04, 0x00, 0x00, 0x8c, 0x03, 0x00, 0x00, 0x1c, 0x03, 0x00, 0x00,
  0xbc, 0x02, 0x00, 0x00, 0x74, 0x02, 0x00, 0x00, 0x2c, 0x02, 0x00, 0x00,
  0xe4, 0x01, 0x00, 0x00, 0x54, 0x01, 0x00, 0x00, 0xc4, 0x00, 0x00, 0x00,
  0x4c, 0x00, 0x00, 0x00, 0x04, 0x00, 0x00, 0x00, 0x40, 0xfc, 0xff, 0xff,
  0x34, 0x00, 0x00, 0x00, 0x0b, 0x00, 0x00, 0x00, 0x1c, 0x00, 0x00, 0x00,
  0x14, 0x00, 0x00, 0x00, 0x04, 0x00, 0x00, 0x00, 0x02, 0x00, 0x00, 0x00,
  0xff, 0xff, 0xff, 0xff, 0x1a, 0x00, 0x00, 0x00, 0x2c, 0xfc, 0xff, 0xff,
  0x08, 0x00, 0x00, 0x00, 0x49, 0x64, 0x65, 0x6e, 0x74, 0x69, 0x74, 0x79,
  0x00, 0x00, 0x00, 0x00, 0x02, 0x00, 0x00, 0x00, 0x01, 0x00, 0x00, 0x00,
  0x1a, 0x00, 0x00, 0x00, 0x84, 0xfc, 0xff, 0xff, 0x64, 0x00, 0x00, 0x00,
  0x0a, 0x00, 0x00, 0x00, 0x1c, 0x00, 0x00, 0x00, 0x14, 0x00, 0x00, 0x00,
  0x04, 0x00, 0x00, 0x00, 0x02, 0x00, 0x00, 0x00, 0xff, 0xff, 0xff, 0xff,
  0x1a, 0x00, 0x00, 0x00, 0x70, 0xfc, 0xff, 0xff, 0x38, 0x00, 0x00, 0x00,
  0x73, 0x65, 0x71, 0x75, 0x65, 0x6e, 0x74, 0x69, 0x61, 0x6c, 0x5f, 0x31,
  0x2f, 0x64, 0x65, 0x6e, 0x73, 0x65, 0x5f, 0x35, 0x2f, 0x4d, 0x61, 0x74,
  0x4d, 0x75, 0x6c, 0x3b, 0x73, 0x65, 0x71, 0x75, 0x65, 0x6e, 0x74, 0x69,
  0x61, 0x6c, 0x5f, 0x31, 0x2f, 0x64, 0x65, 0x6e, 0x73, 0x65, 0x5f, 0x35,
  0x2f, 0x42, 0x69, 0x61, 0x73, 0x41, 0x64, 0x64, 0x00, 0x00, 0x00, 0x00,
  0x02, 0x00, 0x00, 0x00, 0x01, 0x00, 0x00, 0x00, 0x1a, 0x00, 0x00, 0x00,
  0xf8, 0xfc, 0xff, 0xff, 0x7c, 0x00, 0x00, 0x00, 0x09, 0x00, 0x00, 0x00,
  0x1c, 0x00, 0x00, 0x00, 0x14, 0x00, 0x00, 0x00, 0x04, 0x00, 0x00, 0x00,
  0x02, 0x00, 0x00, 0x00, 0xff, 0xff, 0xff, 0xff, 0x24, 0x00, 0x00, 0x00,
  0xe4, 0xfc, 0xff, 0xff, 0x52, 0x00, 0x00, 0x00, 0x73, 0x65, 0x71, 0x75,
  0x65, 0x6e, 0x74, 0x69, 0x61, 0x6c, 0x5f, 0x31, 0x2f, 0x64, 0x65, 0x6e,
  0x73, 0x65, 0x5f, 0x34, 0x2f, 0x4d, 0x61, 0x74, 0x4d, 0x75, 0x6c, 0x3b,
  0x73, 0x65, 0x71, 0x75, 0x65, 0x6e, 0x74, 0x69, 0x61, 0x6c, 0x5f, 0x31,
  0x2f, 0x64, 0x65, 0x6e, 0x73, 0x65, 0x5f, 0x34, 0x2f, 0x52, 0x65, 0x6c,
  0x75, 0x3b, 0x73, 0x65, 0x71, 0x75, 0x65, 0x6e, 0x74, 0x69, 0x61, 0x6c,
  0x5f, 0x31, 0x2f, 0x64, 0x65, 0x6e, 0x73, 0x65, 0x5f, 0x34, 0x2f, 0x42,
  0x69, 0x61, 0x73, 0x41, 0x64, 0x64, 0x00, 0x00, 0x02, 0x00, 0x00, 0x00,
  0x01, 0x00, 0x00, 0x00, 0x24, 0x00, 0x00, 0x00, 0x84, 0xfd, 0xff, 0xff,
  0x7c, 0x00, 0x00, 0x00, 0x08, 0x00, 0x00, 0x00, 0x1c, 0x00, 0x00, 0x00,
  0x14, 0x00, 0x00, 0x00, 0x04, 0x00, 0x00, 0x00, 0x02, 0x00, 0x00, 0x00,
  0xff, 0xff, 0xff, 0xff, 0x0a, 0x00, 0x00, 0x00, 0x70, 0xfd, 0xff, 0xff,
  0x52, 0x00, 0x00, 0x00, 0x73, 0x65, 0x71, 0x75, 0x65, 0x6e, 0x74, 0x69,
  0x61, 0x6c, 0x5f, 0x31, 0x2f, 0x64, 0x65, 0x6e, 0x73, 0x65, 0x5f, 0x33,
  0x2f, 0x4d, 0x61, 0x74, 0x4d, 0x75, 0x6c, 0x3b, 0x73, 0x65, 0x71, 0x75,
  0x65, 0x6e, 0x74, 0x69, 0x61, 0x6c, 0x5f, 0x31, 0x2f, 0x64, 0x65, 0x6e,
  0x73, 0x65, 0x5f, 0x33, 0x2f, 0x52, 0x65, 0x6c, 0x75, 0x3b, 0x73, 0x65,
  0x71, 0x75, 0x65, 0x6e, 0x74, 0x69, 0x61, 0x6c, 0x5f, 0x31, 0x2f, 0x64,
  0x65, 0x6e, 0x73, 0x65, 0x5f, 0x33, 0x2f, 0x42, 0x69, 0x61, 0x73, 0x41,
  0x64, 0x64, 0x00, 0x00, 0x02, 0x00, 0x00, 0x00, 0x01, 0x00, 0x00, 0x00,
  0x0a, 0x00, 0x00, 0x00, 0x7a, 0xfe, 0xff, 0xff, 0x34, 0x00, 0x00, 0x00,
  0x07, 0x00, 0x00, 0x00, 0x0c, 0x00, 0x00, 0x00, 0x04, 0x00, 0x00, 0x00,
  0xec, 0xfd, 0xff, 0xff, 0x1b, 0x00, 0x00, 0x00, 0x73, 0x65, 0x71, 0x75,
  0x65, 0x6e, 0x74, 0x69, 0x61, 0x6c, 0x5f, 0x31, 0x2f, 0x64, 0x65, 0x6e,
  0x73, 0x65, 0x5f, 0x35, 0x2f, 0x4d, 0x61, 0x74, 0x4d, 0x75, 0x6c, 0x00,
  0x02, 0x00, 0x00, 0x00, 0x1a, 0x00, 0x00, 0x00, 0x24, 0x00, 0x00, 0x00,
  0xbe, 0xfe, 0xff, 0xff, 0x34, 0x00, 0x00, 0x00, 0x06, 0x00, 0x00, 0x00,
  0x0c, 0x00, 0x00, 0x00, 0x04, 0x00, 0x00, 0x00, 0x30, 0xfe, 0xff, 0xff,
  0x1b, 0x00, 0x00, 0x00, 0x73, 0x65, 0x71, 0x75, 0x65, 0x6e, 0x74, 0x69,
  0x61, 0x6c, 0x5f, 0x31, 0x2f, 0x64, 0x65, 0x6e, 0x73, 0x65, 0x5f, 0x34,
  0x2f, 0x4d, 0x61, 0x74, 0x4d, 0x75, 0x6c, 0x00, 0x02, 0x00, 0x00, 0x00,
  0x24, 0x00, 0x00, 0x00, 0x0a, 0x00, 0x00, 0x00, 0x02, 0xff, 0xff, 0xff,
  0x34, 0x00, 0x00, 0x00, 0x05, 0x00, 0x00, 0x00, 0x0c, 0x00, 0x00, 0x00,
  0x04, 0x00, 0x00, 0x00, 0x74, 0xfe, 0xff, 0xff, 0x1b, 0x00, 0x00, 0x00,
  0x73, 0x65, 0x71, 0x75, 0x65, 0x6e, 0x74, 0x69, 0x61, 0x6c, 0x5f, 0x31,
  0x2f, 0x64, 0x65, 0x6e, 0x73, 0x65, 0x5f, 0x33, 0x2f, 0x4d, 0x61, 0x74,
  0x4d, 0x75, 0x6c, 0x00, 0x02, 0x00, 0x00, 0x00, 0x0a, 0x00, 0x00, 0x00,
  0x08, 0x00, 0x00, 0x00, 0x46, 0xff, 0xff, 0xff, 0x50, 0x00, 0x00, 0x00,
  0x04, 0x00, 0x00, 0x00, 0x0c, 0x00, 0x00, 0x00, 0x04, 0x00, 0x00, 0x00,
  0xb8, 0xfe, 0xff, 0xff, 0x34, 0x00, 0x00, 0x00, 0x73, 0x65, 0x71, 0x75,
  0x65, 0x6e, 0x74, 0x69, 0x61, 0x6c, 0x5f, 0x31, 0x2f, 0x64, 0x65, 0x6e,
  0x73, 0x65, 0x5f, 0x35, 0x2f, 0x42, 0x69, 0x61, 0x73, 0x41, 0x64, 0x64,
  0x2f, 0x52, 0x65, 0x61, 0x64, 0x56, 0x61, 0x72, 0x69, 0x61, 0x62, 0x6c,
  0x65, 0x4f, 0x70, 0x2f, 0x72, 0x65, 0x73, 0x6f, 0x75, 0x72, 0x63, 0x65,
  0x00, 0x00, 0x00, 0x00, 0x01, 0x00, 0x00, 0x00, 0x1a, 0x00, 0x00, 0x00,
  0xa2, 0xff, 0xff, 0xff, 0x50, 0x00, 0x00, 0x00, 0x03, 0x00, 0x00, 0x00,
  0x0c, 0x00, 0x00, 0x00, 0x04, 0x00, 0x00, 0x00, 0x14, 0xff, 0xff, 0xff,
  0x34, 0x00, 0x00, 0x00, 0x73, 0x65, 0x71, 0x75, 0x65, 0x6e, 0x74, 0x69,
  0x61, 0x6c, 0x5f, 0x31, 0x2f, 0x64, 0x65, 0x6e, 0x73, 0x65, 0x5f, 0x34,
  0x2f, 0x42, 0x69, 0x61, 0x73, 0x41, 0x64, 0x64, 0x2f, 0x52, 0x65, 0x61,
  0x64, 0x56, 0x61, 0x72, 0x69, 0x61, 0x62, 0x6c, 0x65, 0x4f, 0x70, 0x2f,
  0x72, 0x65, 0x73, 0x6f, 0x75, 0x72, 0x63, 0x65, 0x00, 0x00, 0x00, 0x00,
  0x01, 0x00, 0x00, 0x00, 0x24, 0x00, 0x00, 0x00, 0x00, 0x00, 0x0e, 0x00,
  0x14, 0x00, 0x04, 0x00, 0x00, 0x00, 0x08, 0x00, 0x0c, 0x00, 0x10, 0x00,
  0x0e, 0x00, 0x00, 0x00, 0x50, 0x00, 0x00, 0x00, 0x02, 0x00, 0x00, 0x00,
  0x0c, 0x00, 0x00, 0x00, 0x04, 0x00, 0x00, 0x00, 0x80, 0xff, 0xff, 0xff,
  0x34, 0x00, 0x00, 0x00, 0x73, 0x65, 0x71, 0x75, 0x65, 0x6e, 0x74, 0x69,
  0x61, 0x6c, 0x5f, 0x31, 0x2f, 0x64, 0x65, 0x6e, 0x73, 0x65, 0x5f, 0x33,
  0x2f, 0x42, 0x69, 0x61, 0x73, 0x41, 0x64, 0x64, 0x2f, 0x52, 0x65, 0x61,
  0x64, 0x56, 0x61, 0x72, 0x69, 0x61, 0x62, 0x6c, 0x65, 0x4f, 0x70, 0x2f,
  0x72, 0x65, 0x73, 0x6f, 0x75, 0x72, 0x63, 0x65, 0x00, 0x00, 0x00, 0x00,
  0x01, 0x00, 0x00, 0x00, 0x0a, 0x00, 0x00, 0x00, 0x14, 0x00, 0x18, 0x00,
  0x04, 0x00, 0x00, 0x00, 0x08, 0x00, 0x0c, 0x00, 0x10, 0x00, 0x00, 0x00,
  0x00, 0x00, 0x14, 0x00, 0x14, 0x00, 0x00, 0x00, 0x3c, 0x00, 0x00, 0x00,
  0x01, 0x00, 0x00, 0x00, 0x20, 0x00, 0x00, 0x00, 0x18, 0x00, 0x00, 0x00,
  0x04, 0x00, 0x00, 0x00, 0x02, 0x00, 0x00, 0x00, 0xff, 0xff, 0xff, 0xff,
  0x08, 0x00, 0x00, 0x00, 0x04, 0x00, 0x04, 0x00, 0x04, 0x00, 0x00, 0x00,
  0x0d, 0x00, 0x00, 0x00, 0x64, 0x65, 0x6e, 0x73, 0x65, 0x5f, 0x33, 0x5f,
  0x69, 0x6e, 0x70, 0x75, 0x74, 0x00, 0x00, 0x00, 0x02, 0x00, 0x00, 0x00,
  0x01, 0x00, 0x00, 0x00, 0x08, 0x00, 0x00, 0x00, 0x02, 0x00, 0x00, 0x00,
  0x2c, 0x00, 0x00, 0x00, 0x10, 0x00, 0x00, 0x00, 0x0c, 0x00, 0x0c, 0x00,
  0x07, 0x00, 0x00, 0x00, 0x00, 0x00, 0x08, 0x00, 0x0c, 0x00, 0x00, 0x00,
  0x00, 0x00, 0x00, 0x19, 0x19, 0x00, 0x00, 0x00, 0x0c, 0x00, 0x10, 0x00,
  0x07, 0x00, 0x00, 0x00, 0x08, 0x00, 0x0c, 0x00, 0x0c, 0x00, 0x00, 0x00,
  0x00, 0x00, 0x00, 0x09, 0x09, 0x00, 0x00, 0x00, 0x09, 0x00, 0x00, 0x00
 
};

#endif //THREE_MODEL_H
