#ifndef MY_MODEL1617390472.537142_H
#define MY_MODEL1617390472.537142_H


unsigned int my_model1617390472.537142_len = 7696;
unsigned char my_model1617390472.537142[] = {
 0x1c, 0x00, 0x00, 0x00, 0x54, 0x46, 0x4c, 0x33, 0x00, 0x00, 0x12, 0x00,
  0x1c, 0x00, 0x04, 0x00, 0x08, 0x00, 0x0c, 0x00, 0x10, 0x00, 0x14, 0x00,
  0x00, 0x00, 0x18, 0x00, 0x12, 0x00, 0x00, 0x00, 0x03, 0x00, 0x00, 0x00,
  0xac, 0x1d, 0x00, 0x00, 0x18, 0x18, 0x00, 0x00, 0x00, 0x18, 0x00, 0x00,
  0x3c, 0x00, 0x00, 0x00, 0x04, 0x00, 0x00, 0x00, 0x01, 0x00, 0x00, 0x00,
  0x0c, 0x00, 0x00, 0x00, 0x08, 0x00, 0x0c, 0x00, 0x04, 0x00, 0x08, 0x00,
  0x08, 0x00, 0x00, 0x00, 0x08, 0x00, 0x00, 0x00, 0x0c, 0x00, 0x00, 0x00,
  0x13, 0x00, 0x00, 0x00, 0x6d, 0x69, 0x6e, 0x5f, 0x72, 0x75, 0x6e, 0x74,
  0x69, 0x6d, 0x65, 0x5f, 0x76, 0x65, 0x72, 0x73, 0x69, 0x6f, 0x6e, 0x00,
  0x0d, 0x00, 0x00, 0x00, 0xac, 0x17, 0x00, 0x00, 0x98, 0x17, 0x00, 0x00,
  0x5c, 0x17, 0x00, 0x00, 0xb8, 0x16, 0x00, 0x00, 0x34, 0x16, 0x00, 0x00,
  0xe0, 0x14, 0x00, 0x00, 0x2c, 0x0f, 0x00, 0x00, 0x78, 0x00, 0x00, 0x00,
  0x6c, 0x00, 0x00, 0x00, 0x58, 0x00, 0x00, 0x00, 0x44, 0x00, 0x00, 0x00,
  0x30, 0x00, 0x00, 0x00, 0x04, 0x00, 0x00, 0x00, 0xea, 0xe7, 0xff, 0xff,
  0x04, 0x00, 0x00, 0x00, 0x10, 0x00, 0x00, 0x00, 0x31, 0x2e, 0x35, 0x2e,
  0x30, 0x00, 0x00, 0x00, 0x00, 0x00, 0x00, 0x00, 0x00, 0x00, 0x00, 0x00,
  0x00, 0x00, 0x00, 0x00, 0x00, 0x00, 0x00, 0x00, 0x00, 0x00, 0x00, 0x00,
  0x20, 0xe3, 0xff, 0xff, 0x00, 0x00, 0x00, 0x00, 0x00, 0x00, 0x00, 0x00,
  0x00, 0x00, 0x00, 0x00, 0x30, 0xe3, 0xff, 0xff, 0x00, 0x00, 0x00, 0x00,
  0x00, 0x00, 0x00, 0x00, 0x00, 0x00, 0x00, 0x00, 0x40, 0xe3, 0xff, 0xff,
  0x00, 0x00, 0x00, 0x00, 0x00, 0x00, 0x00, 0x00, 0x00, 0x00, 0x00, 0x00,
  0x50, 0xe3, 0xff, 0xff, 0x00, 0x00, 0x00, 0x00, 0x4a, 0xe8, 0xff, 0xff,
  0x04, 0x00, 0x00, 0x00, 0xa0, 0x0e, 0x00, 0x00, 0x9a, 0x6a, 0xa1, 0x3e,
  0xdc, 0x76, 0x79, 0xc0, 0x25, 0x7e, 0x1d, 0xbf, 0xf5, 0xd7, 0x1e, 0x3d,
  0xc0, 0xc6, 0x13, 0x3f, 0xaa, 0x09, 0xfc, 0x3e, 0xcf, 0x76, 0x77, 0xbd,
  0xc4, 0x94, 0x2c, 0xbe, 0x31, 0x7c, 0x59, 0x3e, 0xde, 0xe1, 0x06, 0x3e,
  0x3c, 0x9f, 0x21, 0xbf, 0xdf, 0x9d, 0x81, 0xbf, 0xd2, 0x21, 0x0a, 0x3f,
  0xed, 0xf8, 0xa1, 0xbf, 0x4e, 0xf3, 0x49, 0x3c, 0x30, 0x57, 0x02, 0x3d,
  0x8d, 0x60, 0x1b, 0xbf, 0x7a, 0x37, 0xd3, 0x3e, 0x74, 0xb4, 0x97, 0xbe,
  0xcf, 0x19, 0x9b, 0xbe, 0xae, 0x32, 0x5a, 0xbe, 0x46, 0xff, 0x6c, 0xbf,
  0x4f, 0x52, 0x8a, 0x3e, 0x01, 0xb5, 0x32, 0x3f, 0x7b, 0xb8, 0xb4, 0xbf,
  0x59, 0xa3, 0x1a, 0xbe, 0xe3, 0x26, 0x7d, 0x3e, 0x22, 0x84, 0x7d, 0x3d,
  0x05, 0xb3, 0xd6, 0xbe, 0x4d, 0x75, 0x6e, 0xbe, 0xea, 0x14, 0x3c, 0xc0,
  0x33, 0x51, 0x29, 0xbf, 0x51, 0x12, 0xe5, 0x3d, 0x42, 0xb4, 0xf9, 0xbe,
  0xba, 0x5f, 0x93, 0x3e, 0x42, 0x2f, 0xe6, 0xbd, 0xd5, 0xb7, 0x32, 0xc0,
  0x7b, 0xf0, 0xd7, 0x3e, 0x3b, 0x34, 0xb9, 0x3a, 0x02, 0x05, 0x56, 0x3d,
  0xbf, 0x09, 0xff, 0xbd, 0xc5, 0xd9, 0x89, 0xc0, 0x62, 0x25, 0x83, 0xc0,
  0x8c, 0xed, 0x9b, 0xbd, 0x8f, 0x31, 0x03, 0xc1, 0xe0, 0x61, 0x1b, 0x3d,
  0x6d, 0x1f, 0x54, 0xc0, 0x13, 0x56, 0xbf, 0xbf, 0xc8, 0x2c, 0x0c, 0x3f,
  0x30, 0xf9, 0xb8, 0xbd, 0xf7, 0xa5, 0x2e, 0xbf, 0x22, 0xf2, 0x4d, 0xbe,
  0xc9, 0x6c, 0x9e, 0xbe, 0xc4, 0xf6, 0x4a, 0x3e, 0x98, 0xe9, 0x8e, 0xbe,
  0x40, 0xd0, 0xf4, 0x3c, 0x99, 0x05, 0x8b, 0x3e, 0xff, 0xf7, 0xb2, 0x3e,
  0x0f, 0x0d, 0x31, 0xbf, 0xe6, 0x46, 0x80, 0xbf, 0x6b, 0xb5, 0x23, 0xbd,
  0x9d, 0xfb, 0x64, 0xc0, 0xb5, 0x93, 0xef, 0x3d, 0xd3, 0x57, 0xe1, 0x3e,
  0x51, 0x3f, 0x51, 0xbe, 0x13, 0xaa, 0x8b, 0x3e, 0x2f, 0xf9, 0x1d, 0x3f,
  0xc5, 0x1d, 0x99, 0x3f, 0xb5, 0x94, 0xe0, 0xbd, 0x0f, 0xe1, 0x1b, 0xc0,
  0x6a, 0xfd, 0x8f, 0xbd, 0x78, 0xad, 0x24, 0xbf, 0x1b, 0x83, 0x6c, 0xbf,
  0xe9, 0x1a, 0x46, 0x3e, 0x6d, 0xc8, 0x4d, 0xbf, 0xfb, 0x77, 0x2e, 0x3f,
  0x0f, 0xad, 0x19, 0x3e, 0x42, 0x5b, 0xec, 0xc0, 0x22, 0xca, 0x56, 0xc0,
  0x6b, 0xd8, 0x86, 0x3e, 0x49, 0x87, 0x32, 0xbf, 0x4c, 0x9b, 0x96, 0x3e,
  0xca, 0xc3, 0x3a, 0xbf, 0xb5, 0xcf, 0x30, 0xbf, 0x21, 0x5c, 0xec, 0x3e,
  0x49, 0x09, 0x9e, 0xbe, 0x8c, 0x95, 0x80, 0x3b, 0x50, 0xc3, 0xb1, 0x3c,
  0x39, 0x8d, 0xd9, 0xbe, 0x3e, 0x08, 0xad, 0x3e, 0x6c, 0x88, 0xca, 0x3d,
  0x0a, 0xde, 0x0f, 0xbe, 0xe1, 0xb2, 0x8f, 0x3e, 0x07, 0xc0, 0xe7, 0xbe,
  0xbc, 0x9a, 0x49, 0x3e, 0xec, 0x82, 0xfd, 0x3d, 0xd7, 0xa8, 0xaf, 0xbf,
  0x4e, 0x02, 0x35, 0xbf, 0xf5, 0x1c, 0xcc, 0xbf, 0x07, 0x39, 0xef, 0x3e,
  0x66, 0xf3, 0xa5, 0xbe, 0x5e, 0xfc, 0x2a, 0xbf, 0x59, 0x72, 0x21, 0x3f,
  0x9a, 0x8d, 0x55, 0x3f, 0x9f, 0xe4, 0x75, 0xbe, 0xa5, 0x80, 0xbf, 0xbf,
  0x08, 0xf7, 0x90, 0x3d, 0xd8, 0x4c, 0xe5, 0xbe, 0x36, 0x1c, 0xa1, 0xbe,
  0x78, 0xe3, 0x4a, 0xbd, 0xe5, 0x4a, 0x65, 0xbe, 0x85, 0x28, 0x8a, 0xbd,
  0xf9, 0x8e, 0xcf, 0xbe, 0x15, 0x11, 0xbf, 0xc0, 0x69, 0x5c, 0x7c, 0xbf,
  0x77, 0x35, 0x19, 0x3e, 0x3d, 0x73, 0xeb, 0xbe, 0x60, 0xf3, 0x5c, 0x3c,
  0xc4, 0xcc, 0x4f, 0x3e, 0x5a, 0x1b, 0x04, 0x3f, 0x96, 0xe8, 0x92, 0x3e,
  0xd5, 0x7a, 0x94, 0xbc, 0x3b, 0x69, 0xaf, 0x3e, 0x5a, 0xa0, 0x6f, 0xbe,
  0x02, 0x54, 0x80, 0xbd, 0x83, 0xb8, 0x9b, 0xbf, 0x28, 0x34, 0x9a, 0x3e,
  0x32, 0x8b, 0x24, 0xbe, 0x3e, 0x4d, 0xbe, 0x3e, 0x27, 0x7d, 0xb5, 0x3e,
  0x2b, 0x7c, 0x3d, 0x3e, 0x32, 0xf9, 0x66, 0xbd, 0x6d, 0xcf, 0x57, 0xc0,
  0x65, 0xe9, 0xd8, 0xc0, 0x66, 0x76, 0xd2, 0xc0, 0x57, 0x35, 0x86, 0x3e,
  0x09, 0x74, 0x4e, 0x3f, 0xce, 0x8a, 0x19, 0xbf, 0x1e, 0xf4, 0xdd, 0x3e,
  0xd2, 0x94, 0x25, 0xbf, 0x5d, 0x20, 0x46, 0xbe, 0xae, 0xa1, 0xa9, 0x3e,
  0x7e, 0x58, 0x98, 0xbe, 0x5a, 0xe1, 0xca, 0x3d, 0xc3, 0xcf, 0x4f, 0x3e,
  0x11, 0xb8, 0x5e, 0xc0, 0x0e, 0xc9, 0xe9, 0x3e, 0xa5, 0x48, 0x83, 0xc0,
  0x98, 0xfb, 0x53, 0xbe, 0xbd, 0xe7, 0x2b, 0x3f, 0x4c, 0xa1, 0x93, 0x3e,
  0x80, 0xcf, 0x96, 0xbe, 0xf8, 0x2e, 0x59, 0x3e, 0x80, 0xab, 0x20, 0xbb,
  0x9d, 0x60, 0xbe, 0x3e, 0x3b, 0xae, 0xad, 0xbe, 0x57, 0x04, 0xaa, 0xbf,
  0x97, 0x17, 0x5f, 0xbf, 0xbc, 0x12, 0xf2, 0x3e, 0xd3, 0xf4, 0x05, 0xbe,
  0x1d, 0xd7, 0x08, 0xbf, 0xa6, 0xe5, 0x4f, 0xbd, 0xce, 0x2a, 0xce, 0xbd,
  0x80, 0x81, 0xcd, 0xbd, 0xc4, 0x5b, 0xc7, 0xbf, 0x2d, 0x21, 0x23, 0x3f,
  0xe6, 0xfd, 0x52, 0x3e, 0x13, 0x21, 0x06, 0x3f, 0x60, 0x0e, 0x8c, 0x3e,
  0xbe, 0x5b, 0x8a, 0x3e, 0xdf, 0xfc, 0x11, 0x3e, 0x40, 0x97, 0xb5, 0xbe,
  0xe7, 0x46, 0x5f, 0xbf, 0x3b, 0x5e, 0x01, 0xbd, 0xf6, 0xe0, 0x82, 0xbf,
  0x78, 0xc7, 0xce, 0xbe, 0xa5, 0xff, 0xb3, 0xbb, 0xe7, 0x8d, 0x0f, 0x3f,
  0xa8, 0x95, 0x6c, 0x3e, 0x32, 0xaa, 0x97, 0xbf, 0x80, 0xb4, 0x31, 0xbf,
  0xb5, 0xc6, 0x51, 0x3f, 0x29, 0x88, 0xde, 0x3e, 0xb4, 0xed, 0x59, 0x3d,
  0xf8, 0x70, 0xcf, 0xbf, 0x6d, 0x43, 0xb5, 0xc0, 0x4d, 0x75, 0xca, 0x3f,
  0x6c, 0xcd, 0xf5, 0xbc, 0x47, 0x98, 0x8f, 0xbf, 0xf0, 0xe9, 0xce, 0x3d,
  0xb2, 0x4d, 0x8b, 0xc0, 0xb1, 0x43, 0x95, 0xc0, 0x0b, 0x96, 0x36, 0x3d,
  0xf0, 0xfb, 0x83, 0x3e, 0x2c, 0x4a, 0x62, 0x3d, 0x1f, 0xa6, 0x97, 0xbe,
  0x67, 0xb3, 0x93, 0xbe, 0x67, 0x2c, 0x1f, 0x40, 0x8e, 0x3b, 0x9f, 0x3e,
  0x90, 0x39, 0xf7, 0xbc, 0x88, 0xe2, 0x3a, 0x3e, 0x91, 0xaa, 0x1f, 0xbe,
  0x88, 0x0b, 0x34, 0xbf, 0x44, 0xc1, 0x66, 0xbf, 0x38, 0x6b, 0x34, 0x3f,
  0x57, 0x1a, 0xa6, 0x3e, 0x81, 0x7b, 0xdf, 0x3d, 0xa2, 0x6d, 0xc5, 0x3e,
  0x30, 0x52, 0x1e, 0xc0, 0x4a, 0x67, 0x72, 0x3f, 0xc2, 0x6a, 0x98, 0x3e,
  0x13, 0x7a, 0x11, 0x3f, 0xc6, 0xdc, 0x03, 0xbc, 0x14, 0x08, 0x0d, 0xc0,
  0xea, 0x7b, 0xfc, 0xbd, 0x6b, 0x8f, 0xa0, 0xbf, 0x84, 0xda, 0x10, 0x40,
  0xc7, 0x8b, 0x92, 0xbf, 0x02, 0x8c, 0xbe, 0xbf, 0xc8, 0xfc, 0xb2, 0xbe,
  0x50, 0xe2, 0x4f, 0x3f, 0xa7, 0x72, 0x65, 0xbf, 0xad, 0xe1, 0xf0, 0x3f,
  0xea, 0x91, 0x2c, 0x3e, 0xcd, 0x25, 0xa8, 0x3f, 0x9c, 0x64, 0xfa, 0xbd,
  0x11, 0x92, 0xbb, 0x3e, 0x2e, 0x0e, 0x3a, 0xbe, 0x2d, 0xb6, 0x81, 0x3e,
  0x5c, 0xf1, 0xbb, 0x3a, 0x5a, 0xf0, 0xf3, 0xbe, 0x4a, 0xb3, 0x8c, 0xbe,
  0x06, 0x9e, 0x79, 0xbe, 0x52, 0x28, 0x10, 0x40, 0x38, 0x77, 0x8d, 0x3e,
  0x1c, 0x77, 0x4b, 0xbe, 0x8a, 0xd2, 0xe3, 0xbe, 0x8b, 0x18, 0xf5, 0xbf,
  0xc9, 0xc6, 0xfa, 0xbf, 0x25, 0x77, 0x01, 0xbf, 0x42, 0x5f, 0xee, 0xc0,
  0x94, 0x29, 0xad, 0xc0, 0x06, 0x60, 0x0e, 0xbf, 0xe2, 0xb6, 0x72, 0x3f,
  0xec, 0x5e, 0xcb, 0xbd, 0xcd, 0x0a, 0x9c, 0x3f, 0xd7, 0x11, 0xee, 0xbf,
  0x1a, 0x6d, 0x68, 0xbf, 0xbf, 0x39, 0xe7, 0xbb, 0xf2, 0x30, 0xd4, 0x3e,
  0x7c, 0x86, 0x76, 0x3e, 0xfa, 0xee, 0xf9, 0x3e, 0x2d, 0xe5, 0x22, 0x3f,
  0xd8, 0x14, 0xcf, 0x3e, 0x43, 0xd4, 0xc9, 0x3e, 0xa4, 0x01, 0x3b, 0xbf,
  0x19, 0x38, 0xd4, 0x3e, 0x0a, 0x5e, 0xed, 0xc0, 0xec, 0x1c, 0x22, 0x40,
  0xe4, 0x8c, 0x23, 0xbe, 0x43, 0x12, 0x13, 0x3f, 0x22, 0xf4, 0x02, 0xbe,
  0xcd, 0xb5, 0x1c, 0x3f, 0xb8, 0xe3, 0x31, 0xbe, 0x66, 0xbb, 0x69, 0x3e,
  0x47, 0x85, 0x9c, 0xbf, 0x94, 0x51, 0xfb, 0xbf, 0x80, 0x21, 0x4c, 0x3b,
  0x7f, 0xbe, 0x1e, 0x3e, 0xe6, 0xdb, 0x0f, 0x40, 0x59, 0x92, 0x28, 0xbe,
  0xaa, 0xcd, 0x89, 0x3e, 0x44, 0x53, 0x6c, 0x3d, 0xee, 0xc2, 0xad, 0xbe,
  0x5d, 0x7c, 0x63, 0xc0, 0x7b, 0xd9, 0x2e, 0xc0, 0x86, 0xb8, 0x53, 0xbf,
  0x4c, 0xce, 0x09, 0xbf, 0xce, 0xe7, 0x01, 0x3e, 0x14, 0x38, 0x30, 0xc0,
  0x54, 0x5b, 0xda, 0xbe, 0xeb, 0xa0, 0x44, 0x3f, 0x03, 0x62, 0x50, 0xbe,
  0xb0, 0xd2, 0x1f, 0xc0, 0x08, 0xb8, 0x8d, 0x3e, 0xa7, 0x94, 0xf5, 0x3e,
  0xec, 0x6c, 0x50, 0x3e, 0x26, 0x21, 0x4b, 0x3e, 0x66, 0x54, 0x19, 0xbf,
  0x78, 0x5c, 0x5b, 0xbf, 0xcd, 0x3a, 0x8f, 0xbd, 0x4b, 0x3d, 0xd4, 0xbf,
  0x79, 0xe4, 0xbe, 0x3e, 0xce, 0x6e, 0xd7, 0x3e, 0xcf, 0x5e, 0xc6, 0x3e,
  0x78, 0x75, 0x14, 0xbe, 0xc8, 0xce, 0xb5, 0xbd, 0x00, 0xa4, 0x05, 0x3b,
  0xe4, 0x46, 0x7d, 0xc0, 0x0d, 0x32, 0xb5, 0xbf, 0x8e, 0x67, 0xfa, 0x3d,
  0x2e, 0x83, 0xca, 0xbf, 0x58, 0xa4, 0xe8, 0x3d, 0x0a, 0x5e, 0xc3, 0xbd,
  0x4c, 0x67, 0x6c, 0xc0, 0xe0, 0x7b, 0xe0, 0x3f, 0x00, 0xce, 0x00, 0xbb,
  0x70, 0xbe, 0x49, 0xbe, 0xce, 0xa7, 0x17, 0xc0, 0xc5, 0x17, 0x2e, 0x3e,
  0x6c, 0x5f, 0xeb, 0x3e, 0xed, 0xf4, 0xe9, 0x3e, 0x05, 0x0d, 0xda, 0xbe,
  0x93, 0x77, 0x2e, 0xbe, 0x4c, 0x23, 0x6b, 0x3f, 0xe8, 0x24, 0x1f, 0xbe,
  0xe0, 0x86, 0x43, 0xbe, 0xf0, 0x4d, 0xcd, 0x3e, 0x4a, 0x60, 0x1b, 0xbf,
  0x98, 0xf4, 0x87, 0x3f, 0xba, 0x1c, 0x11, 0xbe, 0xf2, 0xfe, 0xac, 0xc0,
  0x22, 0x95, 0xe9, 0xbd, 0x96, 0xe9, 0x8c, 0xc0, 0xac, 0xc2, 0xea, 0x3e,
  0x19, 0x1a, 0x09, 0x40, 0x7e, 0x77, 0x31, 0x3e, 0x86, 0x7f, 0x0c, 0xc0,
  0x4e, 0x02, 0x91, 0x3f, 0x21, 0x69, 0x8f, 0xbf, 0xf8, 0x30, 0x4d, 0x40,
  0xd6, 0x92, 0x44, 0xbe, 0x14, 0x3f, 0x09, 0x3f, 0x64, 0xc4, 0xca, 0x3d,
  0x6e, 0xb6, 0x4f, 0x3d, 0x35, 0xf4, 0xde, 0xbf, 0x8d, 0xa2, 0x43, 0x3f,
  0x67, 0xda, 0x10, 0xc1, 0x14, 0xf7, 0x2a, 0xbf, 0x50, 0xf1, 0x89, 0x3e,
  0x9d, 0x38, 0x98, 0xbf, 0x46, 0x15, 0x41, 0x40, 0x7c, 0x18, 0x69, 0xbe,
  0xc0, 0xeb, 0xa2, 0x3b, 0xd8, 0xb9, 0xa9, 0xbf, 0xa3, 0x82, 0x74, 0x3e,
  0x96, 0x9e, 0x6d, 0xbf, 0x74, 0xa9, 0x27, 0xbf, 0x54, 0x17, 0xe0, 0xbf,
  0x2e, 0x39, 0x4b, 0xc0, 0x67, 0x6c, 0xfb, 0x3e, 0x85, 0x07, 0xd9, 0xbf,
  0x8b, 0x94, 0x43, 0x3d, 0x57, 0x55, 0x9c, 0x3f, 0x34, 0x34, 0x2f, 0xbe,
  0x63, 0x87, 0x80, 0x3e, 0x1e, 0x0e, 0x57, 0x3e, 0x2a, 0x76, 0x2d, 0xbe,
  0x9f, 0x51, 0x8a, 0xbe, 0x0f, 0x17, 0x01, 0xbf, 0x6d, 0x48, 0x7f, 0x3f,
  0x07, 0x3c, 0x21, 0x3f, 0x86, 0x2e, 0xfe, 0xbe, 0x61, 0x40, 0x28, 0x3f,
  0xca, 0x82, 0x4b, 0x3f, 0x99, 0x09, 0xb6, 0xc0, 0x42, 0xcc, 0xb6, 0x3f,
  0x97, 0x53, 0xaf, 0x3d, 0xcb, 0xf1, 0x6a, 0x3f, 0xf5, 0xa1, 0x9d, 0xbe,
  0x44, 0xf5, 0x46, 0x3d, 0x26, 0x31, 0x0b, 0xbf, 0x1c, 0x33, 0xe1, 0x3e,
  0x60, 0x09, 0x17, 0xbe, 0x16, 0x2c, 0x2d, 0xbe, 0xe0, 0x48, 0x17, 0x3c,
  0xed, 0xeb, 0x40, 0xbd, 0x12, 0xa9, 0xb0, 0x3f, 0x72, 0x44, 0x84, 0x3e,
  0xdf, 0x4f, 0x36, 0xbe, 0x9c, 0xc8, 0x02, 0x3e, 0x59, 0x75, 0x47, 0xc0,
  0x11, 0x71, 0x3f, 0xbf, 0x03, 0xb4, 0x73, 0xbf, 0xf7, 0x82, 0x63, 0xbf,
  0x22, 0x46, 0x81, 0xbe, 0xee, 0xd0, 0xf2, 0xbf, 0xba, 0x6d, 0x5a, 0x3e,
  0xe4, 0xb8, 0x4e, 0xbf, 0x91, 0xb2, 0x32, 0x3f, 0xde, 0x33, 0xfa, 0x3d,
  0xc7, 0x4c, 0xad, 0xbf, 0xf1, 0x54, 0x80, 0xbd, 0xef, 0x4c, 0x67, 0xbe,
  0xd0, 0xb9, 0x5f, 0x3d, 0x19, 0x5c, 0xc0, 0x3e, 0xbe, 0xb6, 0x4c, 0x3f,
  0x65, 0xc7, 0x7e, 0xbd, 0xc2, 0x94, 0x92, 0xc0, 0x63, 0x1e, 0x69, 0x3f,
  0x60, 0x28, 0xdb, 0x3e, 0x30, 0xdd, 0x26, 0x3f, 0xd5, 0x90, 0xae, 0xbd,
  0x61, 0xc3, 0xe2, 0xbd, 0xa3, 0x48, 0x89, 0x3e, 0x9a, 0xa8, 0x26, 0x3e,
  0x01, 0x4f, 0x30, 0xbf, 0x42, 0x7c, 0x8e, 0xbe, 0xba, 0x67, 0x38, 0x3f,
  0xe9, 0xba, 0x3a, 0xbf, 0x40, 0x3d, 0x1e, 0x3c, 0x70, 0x10, 0x4d, 0x3e,
  0xfb, 0xde, 0xff, 0x3d, 0x9c, 0x49, 0x7b, 0x3e, 0xcf, 0x25, 0x9e, 0xbe,
  0x34, 0x46, 0x81, 0xbe, 0xfc, 0x9d, 0xe4, 0x3e, 0x86, 0x80, 0x88, 0xc0,
  0x80, 0x4b, 0x5b, 0xbd, 0x82, 0xf8, 0x8e, 0x3e, 0x53, 0x3a, 0x80, 0xc0,
  0x82, 0x24, 0x23, 0xc0, 0x2b, 0xdb, 0x02, 0xc0, 0xcb, 0x09, 0x2e, 0x3f,
  0x26, 0xe8, 0x4d, 0x3b, 0x4b, 0x91, 0x8b, 0xbf, 0xe0, 0x6b, 0xfc, 0x3d,
  0x2f, 0x3c, 0xfa, 0xbe, 0xc8, 0x44, 0x56, 0xbe, 0xf6, 0xa7, 0xd5, 0xbf,
  0xf0, 0xff, 0xe4, 0xbc, 0x0c, 0x4d, 0x25, 0x3f, 0xd9, 0x72, 0xa3, 0x3e,
  0xbc, 0x6a, 0x28, 0xbe, 0x97, 0x6c, 0xfe, 0x3d, 0x2e, 0x56, 0x26, 0xbf,
  0x10, 0x04, 0x27, 0x3f, 0xf8, 0x86, 0xd4, 0xbd, 0x34, 0xb7, 0xeb, 0x3f,
  0xc4, 0xce, 0x3e, 0xbe, 0x63, 0x66, 0x3d, 0x3e, 0xb4, 0x64, 0x6f, 0xbe,
  0x74, 0x11, 0x28, 0xbf, 0x1f, 0x2f, 0xfa, 0xbf, 0x58, 0x3d, 0x90, 0x3e,
  0xd6, 0xd6, 0xc1, 0xbf, 0xd8, 0x14, 0x8f, 0x3d, 0x9c, 0xbd, 0xd5, 0xbd,
  0x21, 0x16, 0x04, 0xbf, 0xf0, 0xb1, 0xcd, 0x3f, 0x86, 0xf4, 0xe6, 0xbd,
  0xe0, 0x59, 0x3d, 0x3d, 0x7b, 0x29, 0x9a, 0xbe, 0xdb, 0x6a, 0x86, 0xbd,
  0xe4, 0xf4, 0x63, 0xbd, 0xd6, 0xe2, 0x89, 0xbc, 0xbf, 0x54, 0x41, 0xbf,
  0xd0, 0x32, 0x25, 0xbf, 0xcf, 0x34, 0x6a, 0x3f, 0x06, 0x77, 0xb6, 0xbe,
  0x05, 0xd8, 0x95, 0xbf, 0x94, 0x37, 0xae, 0x3e, 0x2d, 0x29, 0xb1, 0xbf,
  0x36, 0xd1, 0x48, 0xbe, 0x41, 0x8e, 0x6a, 0x3d, 0xdd, 0xa4, 0x42, 0xbf,
  0x98, 0x0a, 0x86, 0x3e, 0xd7, 0x5e, 0x2f, 0xbf, 0xb4, 0xf3, 0x06, 0x3f,
  0xa5, 0x09, 0xa0, 0x3e, 0xe3, 0x3a, 0x9d, 0x3e, 0x25, 0xab, 0x1d, 0xbf,
  0x29, 0x58, 0xc3, 0xbe, 0x59, 0x3d, 0xcc, 0xbe, 0xd9, 0x4d, 0x8f, 0x3f,
  0x27, 0xf6, 0x5c, 0x3d, 0x62, 0x2a, 0x4a, 0x3f, 0x61, 0x7f, 0x74, 0xbe,
  0x46, 0x8a, 0x81, 0x3e, 0xd7, 0x84, 0x69, 0xbe, 0x73, 0x8d, 0xce, 0xbe,
  0xe4, 0x9e, 0xaa, 0xbc, 0xc0, 0xd1, 0x9f, 0xbe, 0x00, 0x2c, 0x7c, 0xba,
  0x59, 0x31, 0x66, 0x3d, 0x74, 0xa6, 0x94, 0x3e, 0x38, 0x25, 0x72, 0xbd,
  0x42, 0x2d, 0xb5, 0xbd, 0x0f, 0x69, 0x20, 0xbe, 0xf0, 0xec, 0x1a, 0xbf,
  0x37, 0x8b, 0x15, 0xbf, 0xe8, 0x16, 0xd6, 0xbe, 0x65, 0x8d, 0xda, 0xbb,
  0x0f, 0xdf, 0x18, 0x3f, 0x2e, 0x3b, 0xb2, 0xbc, 0x4c, 0xed, 0x4f, 0xbf,
  0xb6, 0x88, 0x80, 0xbf, 0x0d, 0xa8, 0x67, 0x3e, 0x6f, 0x84, 0x81, 0xbf,
  0x3a, 0x34, 0x04, 0xc0, 0xb6, 0x1a, 0x81, 0xbe, 0xfd, 0x09, 0x2e, 0x3f,
  0xb6, 0x81, 0x3e, 0x3e, 0x6a, 0x56, 0x54, 0x3e, 0xce, 0x28, 0x1a, 0x3f,
  0x18, 0xa6, 0x0c, 0xbf, 0x6b, 0x0c, 0x90, 0xbe, 0x81, 0xb5, 0x0a, 0xbd,
  0xc1, 0x55, 0x9b, 0xbf, 0xa8, 0xbe, 0xb4, 0xbf, 0x9e, 0x39, 0x43, 0xc0,
  0xb6, 0x2b, 0xb0, 0xbd, 0x8b, 0xb3, 0xd6, 0xbe, 0x40, 0xc9, 0x33, 0xbd,
  0x0c, 0x28, 0x6a, 0xbf, 0xf5, 0xf0, 0x3f, 0xbf, 0x95, 0xf8, 0x66, 0xbf,
  0x16, 0x4d, 0x11, 0x3f, 0x7d, 0x43, 0x4f, 0x3f, 0xa2, 0xdd, 0x94, 0x3e,
  0x62, 0x19, 0x2f, 0xbf, 0xda, 0x56, 0x8d, 0xbf, 0x06, 0x63, 0x97, 0xbe,
  0x94, 0x21, 0x76, 0x3e, 0x4c, 0x1e, 0x37, 0xbf, 0x29, 0x01, 0x1c, 0xbd,
  0xe2, 0x9f, 0x3c, 0x3f, 0x2d, 0x42, 0xa9, 0x3e, 0x8a, 0x4e, 0xf5, 0x3d,
  0x6d, 0x31, 0xa0, 0x3f, 0xa2, 0x1c, 0x02, 0xbc, 0x05, 0x19, 0x37, 0x3f,
  0x5f, 0x51, 0x9d, 0xbf, 0x76, 0x38, 0x88, 0xbe, 0xdd, 0x0f, 0xf5, 0xbe,
  0xaa, 0xbc, 0x3e, 0xbd, 0x7d, 0xc0, 0xdc, 0x3d, 0xbb, 0x99, 0x3d, 0xbf,
  0x04, 0xbd, 0x95, 0x3d, 0xd6, 0x56, 0x4d, 0xbf, 0x1e, 0xbf, 0xf9, 0xbe,
  0x4e, 0xfa, 0x38, 0xbf, 0x8a, 0xa3, 0xd9, 0xbd, 0xf2, 0xfc, 0x96, 0xbd,
  0xa4, 0x12, 0x1a, 0x3d, 0xd1, 0xc8, 0x94, 0xc0, 0x75, 0x1d, 0x80, 0xbe,
  0x08, 0x5c, 0x78, 0xbe, 0x00, 0x4a, 0xb7, 0xbd, 0xf0, 0xcb, 0x70, 0xbd,
  0x41, 0xea, 0xfd, 0x3e, 0xd1, 0x97, 0x61, 0x3f, 0x90, 0x78, 0x33, 0x3e,
  0x13, 0x6c, 0xfd, 0x3d, 0xa8, 0x09, 0x2b, 0xbf, 0x26, 0xca, 0x8a, 0x3e,
  0xc8, 0x8e, 0xf5, 0x3e, 0x91, 0xc4, 0x34, 0xbe, 0x70, 0xbf, 0x18, 0xbd,
  0x9c, 0xfd, 0x53, 0x3e, 0x90, 0x0c, 0x5c, 0x3e, 0xdc, 0x68, 0x8a, 0x3e,
  0x38, 0x41, 0x4f, 0xbf, 0x04, 0x39, 0x26, 0xbf, 0x95, 0xfc, 0x90, 0xbf,
  0xda, 0x98, 0x01, 0xc0, 0xc2, 0x31, 0x1d, 0xc1, 0xb5, 0xa4, 0xe8, 0xbe,
  0x0f, 0xed, 0x0a, 0x3f, 0xb7, 0xb9, 0x48, 0xbf, 0x66, 0xa1, 0x0f, 0x3d,
  0x5f, 0x2a, 0x2a, 0xc0, 0xb6, 0x96, 0x4d, 0x3e, 0x7a, 0xf7, 0x65, 0x3e,
  0x50, 0x4b, 0xe3, 0x3c, 0x44, 0xcc, 0x0b, 0x3f, 0xf7, 0x23, 0xe7, 0xbf,
  0xbe, 0xda, 0x8b, 0xbf, 0xc7, 0x1d, 0x53, 0xc0, 0xd2, 0xe2, 0x27, 0x3e,
  0xa1, 0x8d, 0x99, 0x3f, 0x0b, 0xcf, 0xbb, 0xc0, 0x16, 0xec, 0xd4, 0x3d,
  0x0b, 0xd1, 0x2f, 0x3e, 0x71, 0x13, 0x8d, 0x3e, 0x14, 0x94, 0x81, 0xbe,
  0x3a, 0x1c, 0x13, 0x3e, 0x97, 0xdb, 0x5a, 0x3f, 0x9f, 0xd8, 0x39, 0x3f,
  0xe0, 0x95, 0xcc, 0xc0, 0xa4, 0xa7, 0x8b, 0xbf, 0xf0, 0x84, 0xa4, 0x3c,
  0xaf, 0xeb, 0x15, 0xbe, 0xf7, 0x42, 0x65, 0x3e, 0xc6, 0x60, 0x38, 0x3e,
  0x5a, 0x7d, 0x41, 0xbe, 0x10, 0x4c, 0x00, 0x3c, 0x2f, 0x37, 0x5d, 0x3e,
  0x98, 0x11, 0x81, 0xbf, 0x0d, 0xcb, 0x43, 0xbd, 0x1f, 0xc0, 0x4b, 0xc0,
  0xba, 0x4b, 0x49, 0xc0, 0x44, 0x5c, 0x54, 0xc0, 0x08, 0x7f, 0xb4, 0xc0,
  0x8b, 0xf1, 0x99, 0x3f, 0x1d, 0x3a, 0x77, 0xc0, 0xe8, 0x2c, 0x68, 0xbb,
  0xa0, 0x6f, 0x42, 0xc0, 0x52, 0x6f, 0x87, 0x3e, 0x44, 0xb3, 0x78, 0xbe,
  0x54, 0xd6, 0xba, 0x3d, 0x48, 0xd2, 0xf3, 0x3b, 0xbe, 0xfa, 0xe6, 0x3b,
  0x9f, 0xb9, 0x25, 0xbf, 0x97, 0xaf, 0x14, 0xbe, 0x2f, 0xe0, 0x67, 0x3e,
  0xdf, 0xb6, 0x03, 0xc0, 0xa1, 0x3a, 0xcc, 0xc0, 0x97, 0xdc, 0x62, 0xbf,
  0x70, 0x2a, 0x60, 0xbe, 0x7c, 0xad, 0x38, 0x3e, 0xa8, 0x08, 0x6e, 0xbe,
  0x70, 0x6a, 0xa5, 0x3d, 0x44, 0x4f, 0x33, 0x3f, 0xc5, 0x8c, 0x47, 0xbe,
  0x48, 0x3e, 0xd9, 0x3e, 0x55, 0x07, 0xb7, 0xbe, 0x6c, 0x04, 0xf2, 0x3d,
  0xdf, 0xc1, 0xae, 0x3e, 0x9d, 0x94, 0x5e, 0xbf, 0x55, 0xff, 0x11, 0xbe,
  0x83, 0x11, 0x7a, 0xbe, 0x22, 0xe5, 0x95, 0x3e, 0x3d, 0x68, 0xaf, 0xbe,
  0xa4, 0xdf, 0x1c, 0xbf, 0xe6, 0x42, 0x5a, 0xbf, 0x91, 0x28, 0xb0, 0x3e,
  0xf9, 0x87, 0x00, 0x3f, 0x3f, 0x97, 0x21, 0xc0, 0xd0, 0x56, 0xee, 0xbd,
  0xe4, 0x7f, 0xd0, 0x3e, 0xd4, 0x8e, 0xa8, 0xbe, 0xb7, 0xcd, 0x08, 0xbf,
  0xe4, 0xe1, 0x5f, 0xc0, 0xff, 0x36, 0x7f, 0xbe, 0xd4, 0x1b, 0x7c, 0x3e,
  0x9c, 0x5c, 0x48, 0x3e, 0x15, 0xa7, 0x0a, 0x3f, 0xe5, 0xd9, 0x58, 0xbc,
  0x59, 0x7f, 0xe4, 0xbf, 0xae, 0xd3, 0x4d, 0x3f, 0x37, 0xfa, 0x34, 0xbf,
  0x7e, 0x2f, 0xa9, 0xbf, 0x6c, 0x4d, 0x12, 0x3f, 0x57, 0x26, 0x5e, 0xbf,
  0x0b, 0xdd, 0x87, 0x3d, 0xc3, 0x19, 0x4d, 0x3d, 0xfc, 0x51, 0x9c, 0x3e,
  0x70, 0xd2, 0x65, 0xbf, 0x09, 0x0d, 0x83, 0xbf, 0x5a, 0xd7, 0xa8, 0xc0,
  0xd9, 0xed, 0xfc, 0x3e, 0xdc, 0x3c, 0xde, 0x3e, 0xe8, 0x10, 0x78, 0xbd,
  0x65, 0xe8, 0x9e, 0xbf, 0x0f, 0xe5, 0x3d, 0xbf, 0x60, 0x4c, 0x76, 0x3c,
  0x6a, 0xff, 0x57, 0xbe, 0xec, 0x46, 0x27, 0xc0, 0x12, 0xb8, 0x14, 0x3f,
  0x2a, 0xb2, 0xde, 0x3e, 0xe5, 0x29, 0x58, 0x3f, 0x3a, 0x2f, 0x62, 0x3f,
  0x00, 0x90, 0xce, 0x3f, 0xdd, 0xf4, 0x34, 0x3f, 0xfd, 0x21, 0xb1, 0x3e,
  0x4b, 0x18, 0x20, 0xc0, 0xa0, 0x39, 0xa4, 0x3e, 0x35, 0xe9, 0x38, 0xc0,
  0xbf, 0x10, 0x97, 0xbe, 0x60, 0x5c, 0x5c, 0x3e, 0x33, 0x77, 0xc2, 0x3e,
  0x4e, 0x1f, 0x81, 0xbe, 0xf3, 0x4c, 0x38, 0xc0, 0xa1, 0xf6, 0x5d, 0x3e,
  0x83, 0x03, 0xdf, 0xbf, 0xd7, 0x44, 0x83, 0xbf, 0x70, 0x5c, 0xd1, 0xbd,
  0x1c, 0xb6, 0x92, 0xbe, 0xbd, 0x60, 0xc9, 0x3e, 0x46, 0x34, 0xc5, 0xbf,
  0xd2, 0x57, 0x88, 0x3e, 0x2c, 0xb4, 0x3f, 0x3e, 0xe6, 0x5a, 0x32, 0x3e,
  0xd5, 0xa6, 0x97, 0x3e, 0x54, 0xc4, 0x6b, 0x3f, 0xfb, 0x82, 0xa0, 0xbf,
  0xfe, 0x88, 0x76, 0x3e, 0xa2, 0xd8, 0x0d, 0x3f, 0x1a, 0xd3, 0xe5, 0xbd,
  0x89, 0xb3, 0xc9, 0x3d, 0x52, 0x8f, 0xae, 0xbf, 0xfa, 0xd2, 0x23, 0xbe,
  0x6c, 0x04, 0x61, 0x3e, 0x62, 0xfd, 0xf2, 0x3d, 0xde, 0x94, 0x45, 0xbf,
  0x4d, 0xc0, 0x34, 0x3e, 0x79, 0xed, 0x50, 0x3f, 0xd7, 0x78, 0xbc, 0xbf,
  0x48, 0xff, 0x96, 0x3f, 0x24, 0x2d, 0x14, 0xbf, 0xd7, 0xc5, 0x07, 0x3d,
  0x8b, 0xb9, 0xd7, 0xbe, 0xaa, 0x0f, 0x45, 0xbf, 0x44, 0x0f, 0xca, 0x3e,
  0x99, 0x55, 0x1c, 0xc0, 0x33, 0x06, 0x5b, 0xbc, 0x3b, 0xac, 0xfa, 0x3e,
  0x7c, 0xcd, 0x88, 0x3e, 0x34, 0x18, 0xb9, 0x3d, 0xb3, 0x1d, 0x83, 0x3d,
  0x74, 0x43, 0xac, 0x3f, 0xf6, 0x57, 0x8f, 0x3e, 0xc0, 0xe8, 0x10, 0x3f,
  0x7f, 0x56, 0x1d, 0xc0, 0x9c, 0xdd, 0x0b, 0xc1, 0xfa, 0x1c, 0xf1, 0x3e,
  0xee, 0xaa, 0x84, 0xbe, 0xe0, 0x74, 0xb3, 0xbf, 0xb4, 0xd9, 0x5a, 0x3e,
  0x90, 0x94, 0x93, 0xbe, 0x79, 0x7e, 0x36, 0xbf, 0xf9, 0x0c, 0xc0, 0xba,
  0xef, 0x9f, 0x35, 0x3f, 0x98, 0x22, 0xbe, 0xbf, 0xc0, 0x5f, 0x6e, 0xbc,
  0x76, 0xc6, 0xfc, 0x3e, 0x5e, 0x6d, 0x39, 0x3f, 0xcc, 0xe8, 0x90, 0xbd,
  0x63, 0x82, 0x97, 0xbe, 0x32, 0xd6, 0x1e, 0x3f, 0x0d, 0x65, 0x10, 0xc0,
  0x99, 0xd6, 0x1a, 0xc0, 0xa0, 0x04, 0x80, 0xc0, 0x95, 0xcd, 0x5a, 0x3f,
  0xe9, 0x36, 0x24, 0xbe, 0x6d, 0x7a, 0x78, 0xbf, 0x0e, 0x82, 0x14, 0x3f,
  0xc6, 0xf8, 0xbf, 0xbf, 0x4f, 0x82, 0x15, 0x3f, 0xfc, 0xb2, 0x21, 0x3f,
  0xbe, 0xb5, 0x50, 0xbf, 0xb0, 0x65, 0x9e, 0xbe, 0x84, 0x29, 0xac, 0x3d,
  0x20, 0x1f, 0x57, 0x3c, 0xb6, 0xb9, 0xe0, 0x3e, 0xb6, 0x07, 0x03, 0xbe,
  0xdc, 0xa3, 0xac, 0x3d, 0xd2, 0x3f, 0x9e, 0x3e, 0x4a, 0x85, 0xb2, 0x3e,
  0x25, 0x46, 0xed, 0xc0, 0xef, 0xdf, 0x04, 0xc1, 0x5e, 0x3d, 0xb8, 0xbf,
  0x9b, 0xf6, 0x97, 0x3d, 0xf3, 0xbc, 0xde, 0xbe, 0x4e, 0xbb, 0x74, 0xbe,
  0x81, 0x44, 0xf0, 0x3d, 0x4e, 0x34, 0x2f, 0x3e, 0xbb, 0x7d, 0xf7, 0xbd,
  0x23, 0x3b, 0x5d, 0x3e, 0x82, 0x14, 0x2c, 0xbf, 0x8b, 0xbf, 0x99, 0xbe,
  0xdb, 0x2c, 0xc2, 0x3e, 0xb9, 0xd7, 0x44, 0xbf, 0xe4, 0x17, 0xca, 0x3d,
  0x3c, 0x93, 0xd7, 0xbd, 0x4d, 0xdc, 0xa9, 0x3e, 0x3c, 0x12, 0xfb, 0xbe,
  0x63, 0x48, 0x24, 0xbf, 0xc5, 0xe6, 0x69, 0xbf, 0x75, 0xea, 0x04, 0x3e,
  0x2a, 0xc5, 0x7a, 0x3e, 0x54, 0x16, 0xef, 0xbf, 0xff, 0x3d, 0xc9, 0xbd,
  0x6d, 0xb1, 0xa1, 0x3d, 0x00, 0xac, 0x00, 0x3e, 0x41, 0x4a, 0x2c, 0x3e,
  0x30, 0xd1, 0xd8, 0xbf, 0xdf, 0x97, 0x51, 0xbe, 0x70, 0xc0, 0xc9, 0x3e,
  0xba, 0x3d, 0x67, 0xbe, 0x94, 0x97, 0xaf, 0x3d, 0xed, 0x92, 0x0b, 0x3e,
  0x75, 0xd4, 0x4e, 0x3f, 0x96, 0x09, 0x72, 0x3e, 0x63, 0x35, 0x65, 0x3f,
  0xe9, 0x7b, 0x88, 0xc0, 0x17, 0x0d, 0x6b, 0xc0, 0x75, 0xe7, 0xb1, 0xc0,
  0x53, 0x7a, 0x88, 0xbd, 0x95, 0xde, 0x4a, 0xc0, 0xb2, 0x3f, 0xe7, 0xbd,
  0x63, 0xc2, 0xbe, 0xbe, 0x3f, 0xc0, 0x66, 0xbf, 0x7a, 0xc7, 0x11, 0x3e,
  0xb5, 0x53, 0xbe, 0x3e, 0xbb, 0x15, 0x7e, 0xbf, 0x05, 0x0b, 0x9a, 0xbe,
  0xc0, 0xc7, 0x04, 0x3f, 0x4b, 0xb2, 0xb9, 0xbd, 0x38, 0x3b, 0x59, 0x3d,
  0xed, 0xe0, 0x8a, 0xbe, 0xbc, 0x41, 0x46, 0x3f, 0x68, 0xe1, 0x70, 0xbf,
  0x9a, 0xf9, 0xe6, 0xbf, 0x18, 0x5e, 0x09, 0xc0, 0x39, 0xbc, 0x84, 0x3e,
  0x7a, 0xb6, 0x09, 0xc0, 0x82, 0x1e, 0x2c, 0xc0, 0xb0, 0x36, 0x20, 0x3e,
  0x40, 0xd6, 0x47, 0xbe, 0x63, 0xeb, 0x80, 0x3e, 0x9e, 0x33, 0x23, 0x3f,
  0xca, 0xf5, 0xad, 0xbd, 0x20, 0x89, 0x36, 0x3e, 0x98, 0xb0, 0x66, 0xbe,
  0xd5, 0x72, 0x8b, 0xbe, 0xfd, 0xb1, 0xdb, 0x3d, 0x6e, 0xce, 0x98, 0xbf,
  0xc7, 0xf4, 0x5d, 0xbf, 0x38, 0x00, 0x5f, 0xbf, 0x49, 0xa7, 0xaf, 0xbe,
  0xd2, 0xbb, 0x8a, 0x3e, 0xcb, 0xa4, 0xd7, 0xbf, 0x3a, 0x78, 0x91, 0xbf,
  0x87, 0x8b, 0x0f, 0x3e, 0x9f, 0xa6, 0xc7, 0xbd, 0x56, 0xac, 0x8e, 0xbe,
  0x7d, 0x32, 0x87, 0x3d, 0xea, 0x19, 0xd9, 0x3e, 0x8f, 0x36, 0x79, 0xbe,
  0xf8, 0xf0, 0x3c, 0xbf, 0x67, 0xba, 0xd7, 0x3e, 0x78, 0x0b, 0x9f, 0x3e,
  0x57, 0x14, 0x16, 0xbf, 0xa7, 0xf4, 0xd4, 0xbf, 0xc0, 0xdb, 0x90, 0xbc,
  0x3e, 0x70, 0x97, 0x3e, 0xed, 0x27, 0xc5, 0xbe, 0xd6, 0xe5, 0xe4, 0x3e,
  0x37, 0x9f, 0x0e, 0x3f, 0xce, 0x61, 0xa7, 0x3e, 0xc9, 0x42, 0xb2, 0xbf,
  0x7b, 0xf5, 0xa0, 0xbf, 0xa0, 0x98, 0xd9, 0xbe, 0xd1, 0xe9, 0x55, 0x3e,
  0x78, 0x80, 0x26, 0x3e, 0x21, 0x03, 0x31, 0xbf, 0xc3, 0x4d, 0x61, 0xbe,
  0x31, 0x35, 0xcb, 0xbd, 0x55, 0x10, 0xa9, 0xbe, 0x36, 0x22, 0x39, 0x3d,
  0x76, 0x1b, 0x80, 0xbe, 0x53, 0xa2, 0x1b, 0xbf, 0x90, 0xa6, 0x2d, 0x3f,
  0x29, 0xa1, 0x6f, 0x3c, 0x39, 0xa1, 0x0f, 0xbf, 0xb0, 0xc7, 0xe8, 0x3e,
  0x7c, 0x2c, 0xe8, 0x3e, 0xb6, 0x51, 0xa5, 0x3f, 0xd9, 0x60, 0x0c, 0x3f,
  0x20, 0xa2, 0x64, 0x3e, 0x98, 0xea, 0xd9, 0x3d, 0xa2, 0x7a, 0x5b, 0xbe,
  0x1a, 0xff, 0x3e, 0xc0, 0x17, 0xd5, 0xeb, 0xc0, 0x72, 0x24, 0xf3, 0xbd,
  0x51, 0x3c, 0x45, 0xbf, 0x0e, 0x5a, 0x2a, 0x3f, 0x72, 0xfa, 0x41, 0xbe,
  0xb2, 0xb3, 0x01, 0xc0, 0x31, 0xf7, 0x19, 0x3f, 0xd0, 0x5c, 0xa5, 0x3c,
  0x5c, 0xe4, 0x5a, 0x3e, 0xcf, 0x22, 0x1c, 0xbf, 0x56, 0xc9, 0x21, 0xc0,
  0x09, 0xbc, 0xfd, 0x3e, 0x88, 0x8c, 0x08, 0x3f, 0xe5, 0x77, 0x0f, 0xbf,
  0x4b, 0x0e, 0x93, 0x3d, 0x2c, 0x3c, 0xc2, 0x3e, 0xa6, 0xfe, 0xf9, 0x3e,
  0xe6, 0xc1, 0x8a, 0xc0, 0x3a, 0x49, 0xdd, 0x3e, 0x37, 0x84, 0x1c, 0xc0,
  0x8b, 0x86, 0x99, 0xbd, 0x2b, 0x37, 0x84, 0xbe, 0xe1, 0x25, 0x5e, 0xc0,
  0x48, 0xd4, 0xa5, 0x3d, 0x03, 0x87, 0x92, 0xbf, 0x6f, 0xe5, 0xec, 0xc0,
  0x96, 0x06, 0x17, 0xc0, 0xfe, 0x27, 0x0f, 0xc0, 0x78, 0x0b, 0x73, 0xbe,
  0xeb, 0x00, 0x4e, 0x3e, 0xa9, 0xd3, 0x07, 0xbe, 0xc8, 0xad, 0xeb, 0xbe,
  0x4c, 0x43, 0x4d, 0xbc, 0x98, 0xbe, 0xab, 0xbf, 0xde, 0x5a, 0xcc, 0xbd,
  0x51, 0x0b, 0x1b, 0x3f, 0xae, 0xfc, 0xa1, 0x3f, 0x9f, 0x15, 0x3e, 0x3f,
  0x53, 0x5a, 0x42, 0xc0, 0xdf, 0xa6, 0x9e, 0xc0, 0x10, 0xcd, 0x1c, 0xbd,
  0x5c, 0x85, 0x60, 0x3e, 0xd7, 0xf8, 0x43, 0xc0, 0xb8, 0xde, 0x7c, 0xbd,
  0x40, 0x62, 0xb3, 0xbd, 0x56, 0x24, 0xff, 0xbd, 0x95, 0x62, 0xe4, 0x3f,
  0xbd, 0x06, 0xfe, 0xbf, 0x03, 0xe0, 0x92, 0xbf, 0x21, 0x57, 0xa0, 0xc0,
  0x98, 0x26, 0x39, 0xbf, 0x57, 0xf9, 0x98, 0xc0, 0x1c, 0x57, 0x9c, 0xc0,
  0x82, 0xd9, 0xd4, 0x3f, 0x41, 0xe7, 0xb1, 0xc0, 0x63, 0xc7, 0x4f, 0x3f,
  0xd2, 0x62, 0x57, 0x3f, 0x7c, 0x73, 0x7b, 0x3e, 0x47, 0x07, 0x10, 0x3f,
  0x92, 0x72, 0x12, 0xbe, 0x55, 0xd9, 0x46, 0x3e, 0x00, 0x00, 0x00, 0x00,
  0xfa, 0xf6, 0xff, 0xff, 0x04, 0x00, 0x00, 0x00, 0xa0, 0x05, 0x00, 0x00,
  0x2d, 0x83, 0xa6, 0x3f, 0xbf, 0x6b, 0x1f, 0x3f, 0xa7, 0x9a, 0x8b, 0x3e,
  0xa7, 0x04, 0x97, 0x3e, 0x86, 0x36, 0x08, 0xbe, 0x74, 0x61, 0x78, 0xbf,
  0x03, 0xef, 0xb9, 0xbc, 0x2a, 0x7b, 0xff, 0xbf, 0xdc, 0xdf, 0x98, 0x3e,
  0xc9, 0x92, 0xa5, 0xbe, 0xbc, 0x53, 0xb9, 0x3f, 0x72, 0xf3, 0xbc, 0xbe,
  0xb0, 0x5c, 0x93, 0x3e, 0x6b, 0x73, 0x9b, 0x3e, 0xc4, 0x36, 0x19, 0x3e,
  0x5b, 0xcc, 0x8b, 0x3f, 0x8c, 0xd6, 0xe8, 0xbd, 0xd0, 0x1b, 0x98, 0x3f,
  0xfa, 0xe7, 0x89, 0xbe, 0x71, 0x9b, 0x92, 0x3e, 0x0f, 0x22, 0x9e, 0x3e,
  0x0a, 0x16, 0xe1, 0xbe, 0xb2, 0x2d, 0x7e, 0x3e, 0xe3, 0x91, 0xb1, 0xbe,
  0x92, 0xdd, 0xcb, 0x3c, 0x3c, 0x05, 0x0c, 0x40, 0xce, 0xfa, 0x90, 0x3e,
  0x61, 0x12, 0x50, 0xbf, 0x34, 0xe7, 0xc7, 0x3f, 0xfc, 0x58, 0x8e, 0x3d,
  0xcc, 0xc1, 0xed, 0x3f, 0x79, 0x09, 0xc0, 0x3f, 0xcc, 0x44, 0x35, 0x3d,
  0xfc, 0xa5, 0x43, 0xbe, 0x10, 0x7e, 0xf4, 0x3d, 0x30, 0x95, 0xf8, 0x3c,
  0xcb, 0xca, 0x91, 0x3e, 0xc8, 0xb0, 0x94, 0x3e, 0xa8, 0x67, 0xc4, 0xbf,
  0x14, 0x82, 0xd5, 0xbd, 0x41, 0xc1, 0x74, 0xbf, 0xd4, 0x08, 0xc1, 0x3f,
  0xf5, 0xb5, 0x4b, 0xbe, 0x1e, 0x34, 0xa5, 0xbe, 0x17, 0xec, 0x81, 0x3e,
  0x0c, 0xb7, 0xe7, 0xbf, 0xc3, 0xbc, 0x00, 0xbe, 0xf8, 0x8e, 0x30, 0x3f,
  0xe7, 0x7a, 0x6e, 0x3f, 0x7f, 0x70, 0x6f, 0xbe, 0x3d, 0x09, 0xfe, 0x3f,
  0x09, 0x5a, 0x5d, 0xbc, 0xbb, 0xd0, 0x1e, 0x3d, 0x6e, 0xb9, 0x8e, 0xbe,
  0xcc, 0x70, 0x67, 0xbe, 0xb8, 0xf7, 0x12, 0xc0, 0x18, 0xef, 0x12, 0x3e,
  0xc0, 0x44, 0x41, 0xbf, 0x82, 0x93, 0xc8, 0x3e, 0x3a, 0x26, 0x1a, 0x3e,
  0x60, 0xe8, 0xdc, 0xbe, 0x39, 0x4e, 0x48, 0x3f, 0x68, 0xf3, 0xb3, 0xbd,
  0xf0, 0x4c, 0x74, 0xbd, 0x55, 0x58, 0x29, 0xbe, 0xea, 0x0e, 0x25, 0xbe,
  0xc6, 0x22, 0xa1, 0xbe, 0x12, 0x0c, 0xca, 0xbf, 0x8a, 0x6b, 0xdd, 0x3f,
  0x32, 0x9a, 0x1b, 0x3e, 0x3d, 0x5f, 0x9a, 0xbe, 0xbf, 0x1e, 0xae, 0xbd,
  0xa8, 0x90, 0x6e, 0x3d, 0x45, 0x13, 0x8f, 0x3e, 0x58, 0xd0, 0x5d, 0xbd,
  0x6f, 0x4a, 0x9a, 0x3d, 0x80, 0xf7, 0xe4, 0xbc, 0x7b, 0xdc, 0x74, 0x3e,
  0x0a, 0x9f, 0x92, 0xbe, 0x37, 0x5c, 0x98, 0xbe, 0xeb, 0x91, 0x0a, 0xbe,
  0x2e, 0x0e, 0x77, 0x3f, 0x38, 0x5b, 0x07, 0xbe, 0x04, 0x3b, 0x60, 0xbe,
  0x99, 0x70, 0x4a, 0x3e, 0x1d, 0x9e, 0x92, 0xbf, 0xeb, 0x7e, 0x8a, 0xbe,
  0x2b, 0x34, 0xcf, 0xbf, 0x43, 0x81, 0xab, 0x3f, 0x56, 0xb4, 0x14, 0x3e,
  0x16, 0x97, 0x86, 0xbe, 0xcf, 0x07, 0x72, 0xbe, 0xdb, 0xc3, 0xad, 0x3e,
  0x1a, 0xeb, 0x7b, 0x3e, 0xae, 0xa5, 0x08, 0x3e, 0x3e, 0xa7, 0xa2, 0xbe,
  0x62, 0xbd, 0x07, 0xbe, 0x40, 0xd1, 0xfc, 0xbc, 0x00, 0x08, 0xd7, 0x3c,
  0x9c, 0x4f, 0xac, 0x3d, 0x57, 0x30, 0x13, 0xbf, 0xb6, 0x75, 0x27, 0x3f,
  0xa0, 0x6c, 0x96, 0xbc, 0xa6, 0x67, 0x7d, 0x3e, 0xe9, 0x28, 0x25, 0x3e,
  0x99, 0xe2, 0x4d, 0x3f, 0x3c, 0x1f, 0x86, 0x3e, 0x01, 0xa2, 0xe5, 0xbf,
  0x1d, 0xe7, 0x75, 0x3e, 0xa7, 0x7b, 0x94, 0xbe, 0xbc, 0x45, 0x92, 0xbf,
  0xba, 0x66, 0x67, 0x3f, 0x78, 0xfa, 0x1c, 0x3d, 0x38, 0x36, 0x80, 0xbd,
  0x0b, 0xb0, 0xee, 0x3c, 0x5c, 0xd8, 0xa4, 0x3f, 0x10, 0xbd, 0x0e, 0x3e,
  0x9e, 0x4b, 0x89, 0xbf, 0xc4, 0x1a, 0x0b, 0xbf, 0xa4, 0x7e, 0xe0, 0x3d,
  0x17, 0x67, 0x86, 0xbe, 0x34, 0xa5, 0xf4, 0x3f, 0x60, 0x98, 0xc6, 0x3d,
  0xa0, 0x00, 0x3d, 0x3c, 0x9a, 0xa4, 0xa8, 0x3d, 0x03, 0x24, 0x3f, 0xbe,
  0x21, 0x3a, 0xec, 0x3d, 0x98, 0x86, 0xd1, 0x3f, 0x10, 0x06, 0xd1, 0xbe,
  0xb0, 0x06, 0x59, 0x3d, 0x25, 0xcd, 0xe5, 0x3f, 0x32, 0x9e, 0xcb, 0xbe,
  0xce, 0x3f, 0xf3, 0xbd, 0xea, 0x4d, 0x21, 0x3e, 0x12, 0xd3, 0x95, 0xba,
  0x69, 0x5c, 0xe3, 0x3f, 0x83, 0x6e, 0x4a, 0xbe, 0xfd, 0x9c, 0x5f, 0xbf,
  0x5f, 0x5b, 0xff, 0xbe, 0xe4, 0x28, 0x8b, 0x3d, 0x8e, 0xad, 0x8c, 0x3f,
  0xce, 0xc2, 0xbb, 0xbe, 0xd2, 0x62, 0xdc, 0xbd, 0x8e, 0xbd, 0x56, 0x3e,
  0xc2, 0x28, 0xdf, 0x3c, 0x6c, 0xac, 0xb7, 0xbf, 0x88, 0xa0, 0xa8, 0xbe,
  0x94, 0x41, 0x70, 0x3f, 0xd5, 0x55, 0x45, 0x3f, 0x9d, 0x43, 0xab, 0x3e,
  0x51, 0x91, 0x18, 0xbe, 0xa3, 0x2d, 0x7c, 0xbe, 0x9e, 0x10, 0x7e, 0x3e,
  0xeb, 0x9e, 0xa3, 0xbe, 0xc6, 0x83, 0x5e, 0x3e, 0xb8, 0xda, 0xd0, 0x3d,
  0xdb, 0xd7, 0x25, 0xbe, 0xca, 0x33, 0x73, 0x3e, 0x1a, 0x6e, 0x69, 0xbe,
  0xd3, 0x87, 0x87, 0x3e, 0x0f, 0xf2, 0x2a, 0x3f, 0x5d, 0x32, 0x6c, 0x3f,
  0xa0, 0xf2, 0xd8, 0xbc, 0xe0, 0xb2, 0x8b, 0x3c, 0x71, 0x10, 0x8d, 0xbe,
  0xc2, 0x3a, 0x24, 0x40, 0xec, 0x7f, 0x65, 0x3e, 0x98, 0x03, 0xd9, 0xbf,
  0x11, 0x05, 0x2a, 0xbf, 0x78, 0x4e, 0x1d, 0xbe, 0xe4, 0x00, 0xa7, 0x3e,
  0x2f, 0xb6, 0x44, 0x3f, 0x4b, 0x0d, 0x06, 0x3d, 0x06, 0xe7, 0x02, 0x3e,
  0x2d, 0x19, 0x75, 0xbe, 0xca, 0x39, 0x22, 0xbf, 0xd4, 0x92, 0xfe, 0xbd,
  0x3d, 0xcf, 0x2b, 0xbf, 0x49, 0x74, 0xa3, 0x3f, 0xee, 0xad, 0x47, 0x3e,
  0xa0, 0x53, 0x7d, 0xbd, 0x64, 0x25, 0x8c, 0xbd, 0xce, 0x39, 0xf5, 0xbd,
  0x92, 0x89, 0x7a, 0x3e, 0x68, 0x24, 0x2a, 0xbd, 0x96, 0xf2, 0x31, 0xbe,
  0x5d, 0x0d, 0xa1, 0x3e, 0x58, 0x67, 0x86, 0xbd, 0x6d, 0xee, 0x1f, 0xbe,
  0x78, 0x10, 0x8a, 0xbe, 0x70, 0x1c, 0xc9, 0xbc, 0x92, 0xcb, 0x8f, 0xbe,
  0x2a, 0x54, 0x1f, 0x3e, 0x4e, 0x34, 0x7a, 0x3e, 0x10, 0x31, 0x9a, 0x3c,
  0x83, 0x4b, 0x80, 0xbe, 0x00, 0xbc, 0xcf, 0x3d, 0x3f, 0x3f, 0x96, 0x3e,
  0xfe, 0x2b, 0x75, 0xbe, 0xae, 0x43, 0x51, 0x3e, 0xe0, 0xa5, 0x9b, 0x3f,
  0x3d, 0xaf, 0xa4, 0x3f, 0xef, 0xb3, 0xac, 0xbe, 0x0c, 0x19, 0xab, 0x3d,
  0xf0, 0x64, 0x08, 0xbe, 0x4a, 0x1e, 0xbd, 0x3f, 0x5a, 0x93, 0xd3, 0x3d,
  0x36, 0xbc, 0xe3, 0xbe, 0x81, 0xa9, 0x7a, 0xbf, 0x70, 0xe1, 0x59, 0x3d,
  0xad, 0x15, 0xd1, 0xbf, 0xb6, 0x3d, 0xe0, 0xbe, 0x38, 0xa8, 0x0d, 0x3e,
  0xba, 0x38, 0xf8, 0xbd, 0x1d, 0xbb, 0xa7, 0x3d, 0x98, 0xc3, 0x8f, 0x3f,
  0xb0, 0x37, 0x2c, 0x3d, 0x18, 0xeb, 0x05, 0x40, 0x88, 0xbb, 0xb1, 0x3f,
  0xc5, 0x24, 0xa6, 0xbe, 0x21, 0x83, 0x24, 0x3f, 0x1f, 0x90, 0x38, 0xbe,
  0xb1, 0x95, 0x08, 0x3d, 0x72, 0x8e, 0x2c, 0x3e, 0xae, 0x60, 0x36, 0x3e,
  0xfb, 0x9e, 0xb3, 0xbf, 0x6a, 0xf7, 0xa1, 0x3e, 0xf5, 0x31, 0xeb, 0x3f,
  0xa9, 0x11, 0x0f, 0x3f, 0xe0, 0x0c, 0x0e, 0x3d, 0x08, 0x23, 0xee, 0x3e,
  0x45, 0x1e, 0xa8, 0x3d, 0x7e, 0x28, 0x53, 0x3e, 0x86, 0x28, 0x9d, 0xbe,
  0x85, 0x0d, 0x18, 0xbd, 0xd1, 0xab, 0x09, 0xc0, 0xa0, 0x39, 0x9b, 0x3c,
  0x16, 0x10, 0xf2, 0x3f, 0xec, 0xa2, 0x90, 0x3f, 0xbe, 0x10, 0x69, 0x3e,
  0xec, 0x3b, 0x95, 0x3f, 0x28, 0x8f, 0x4c, 0xbf, 0x95, 0x70, 0xaf, 0xbe,
  0x27, 0x83, 0xaa, 0x3e, 0xfe, 0x9f, 0x6e, 0xbe, 0x04, 0xe4, 0xf9, 0x3f,
  0xe4, 0xa9, 0x9b, 0xbe, 0xff, 0x38, 0x40, 0xbf, 0xa2, 0x22, 0x67, 0x3f,
  0x26, 0x1c, 0x15, 0x3e, 0x21, 0x35, 0x93, 0x3f, 0x3b, 0x99, 0x25, 0xbf,
  0x73, 0x8d, 0x96, 0xbe, 0x2c, 0xcf, 0x82, 0xbe, 0xa1, 0xe4, 0x8a, 0xbd,
  0xab, 0x34, 0x6c, 0x3e, 0x5f, 0xcb, 0xc0, 0x3d, 0x1d, 0x98, 0x08, 0xc0,
  0x48, 0xf5, 0x48, 0x3f, 0xd0, 0xa8, 0x9d, 0xbe, 0x28, 0x55, 0xe6, 0x3e,
  0xb1, 0x5f, 0x1a, 0xbf, 0xd2, 0xe8, 0x5a, 0xbe, 0xc0, 0x31, 0xe8, 0xbd,
  0xd0, 0x94, 0xdb, 0x3c, 0x3e, 0xab, 0xca, 0xbf, 0x86, 0xb5, 0x8d, 0xbe,
  0xab, 0xbb, 0xf5, 0x3f, 0x8c, 0x51, 0x03, 0x40, 0xc0, 0x5e, 0xe4, 0xbc,
  0xd7, 0xde, 0x15, 0x40, 0x53, 0x79, 0xaf, 0xbe, 0xf9, 0xf1, 0x92, 0x3e,
  0x42, 0x67, 0x13, 0x3e, 0xfc, 0x28, 0x40, 0xbe, 0x99, 0xe3, 0x54, 0x3d,
  0x46, 0xa2, 0x8b, 0xbd, 0x9e, 0x25, 0xb5, 0x3f, 0x9d, 0xab, 0x11, 0xbf,
  0xb8, 0x42, 0x8e, 0x3d, 0x4d, 0x43, 0xda, 0xbf, 0xb0, 0x49, 0x9e, 0x3f,
  0xe6, 0xc1, 0x18, 0x3e, 0x34, 0x04, 0x5e, 0xbe, 0x92, 0x03, 0x42, 0xbe,
  0xb7, 0x15, 0x37, 0x3f, 0x3d, 0xb2, 0x86, 0xbe, 0x10, 0x1b, 0xa0, 0x3f,
  0x1f, 0x80, 0x13, 0xbf, 0x00, 0x88, 0xa5, 0x3b, 0x6e, 0x8b, 0xa7, 0x3f,
  0xa9, 0x71, 0x3f, 0x3e, 0xa7, 0xc0, 0x7e, 0xbe, 0xfe, 0x69, 0xfc, 0xbd,
  0xbc, 0xad, 0x2e, 0x3e, 0x00, 0xea, 0x81, 0x3f, 0x39, 0x56, 0x8e, 0xbd,
  0xd1, 0x09, 0x94, 0xbf, 0xe8, 0x4b, 0xb0, 0x3f, 0x96, 0xff, 0x49, 0x3e,
  0x3b, 0x91, 0xe7, 0x3e, 0xc7, 0x14, 0x10, 0x3e, 0xa0, 0x72, 0x7c, 0x3e,
  0x1d, 0x7d, 0x85, 0x3e, 0x27, 0x05, 0x2b, 0xbe, 0x74, 0x1b, 0xef, 0x3f,
  0x73, 0xee, 0x5c, 0xbe, 0x50, 0x8f, 0x21, 0x40, 0xa7, 0xe1, 0x48, 0xbf,
  0x67, 0xab, 0x87, 0x3e, 0x1e, 0xb6, 0x35, 0x3e, 0xfc, 0xcc, 0xf1, 0xbe,
  0x11, 0xf7, 0xc4, 0x3d, 0xbe, 0xf9, 0x8f, 0xbe, 0x0e, 0xa7, 0x59, 0x3e,
  0x92, 0xeb, 0x05, 0xbf, 0xb6, 0x89, 0xab, 0xbe, 0xea, 0x3f, 0x81, 0x40,
  0x77, 0x79, 0xc6, 0x3e, 0x00, 0x3f, 0x65, 0xbc, 0x0f, 0xdb, 0xad, 0x3d,
  0xc3, 0xdd, 0xbb, 0xbe, 0x9c, 0x48, 0x7c, 0x3d, 0x58, 0x85, 0x9f, 0x3d,
  0x80, 0x1d, 0x6c, 0xbd, 0xb0, 0xa6, 0xa7, 0x3c, 0xb5, 0xb6, 0x8b, 0x3e,
  0x21, 0xd4, 0x90, 0x3e, 0x51, 0xb5, 0x07, 0xbe, 0x00, 0x4c, 0xcc, 0x3b,
  0x7c, 0x11, 0x08, 0xbf, 0xee, 0x46, 0x83, 0x3e, 0x28, 0x36, 0x53, 0x3d,
  0x18, 0x94, 0x8e, 0xbe, 0x49, 0x9f, 0x01, 0xbd, 0xfc, 0x46, 0xb5, 0x3f,
  0x39, 0xa1, 0xab, 0xbe, 0x7f, 0xe7, 0x11, 0xc0, 0x4b, 0x54, 0x10, 0x3f,
  0x24, 0x1c, 0xd8, 0x3d, 0xde, 0x62, 0xa1, 0xbe, 0x3b, 0x50, 0xb0, 0xbe,
  0x95, 0xb7, 0x82, 0x3e, 0xd5, 0x50, 0x84, 0x3e, 0x42, 0xa5, 0x68, 0x3e,
  0x3c, 0xdc, 0xb5, 0x3d, 0x07, 0xdb, 0x03, 0xbe, 0x5a, 0x40, 0x65, 0x3e,
  0x02, 0x0e, 0xb6, 0xbe, 0x60, 0x45, 0xca, 0x3d, 0x0b, 0x5c, 0x0f, 0x3f,
  0x39, 0xb9, 0xcb, 0x3f, 0xee, 0xa0, 0x69, 0x3e, 0x8e, 0x07, 0x42, 0x3e,
  0x81, 0x2c, 0x79, 0x3e, 0x8c, 0x94, 0x52, 0x3f, 0xd0, 0x1e, 0xb0, 0x3e,
  0x69, 0x30, 0x06, 0xc0, 0xac, 0xa6, 0x01, 0xbf, 0x49, 0x81, 0x86, 0x3e,
  0x00, 0x00, 0x00, 0x00, 0xaa, 0xfc, 0xff, 0xff, 0x04, 0x00, 0x00, 0x00,
  0x40, 0x01, 0x00, 0x00, 0x3b, 0xe9, 0xa1, 0x3f, 0xf3, 0x17, 0x06, 0xbf,
  0xd7, 0xe6, 0xe7, 0x3f, 0x6f, 0xbe, 0x05, 0x40, 0x6f, 0xa8, 0xd8, 0x3e,
  0xf0, 0xb5, 0x4a, 0xbd, 0x33, 0xf5, 0x66, 0xc0, 0xa7, 0x10, 0xba, 0x3e,
  0x7a, 0xc7, 0xc0, 0x3f, 0xe0, 0x0f, 0x10, 0x40, 0x68, 0xec, 0x55, 0x3f,
  0x69, 0x23, 0xaa, 0x3f, 0x35, 0x08, 0x5d, 0xbe, 0xa0, 0xf9, 0x9d, 0x3f,
  0xcc, 0x93, 0x0b, 0x40, 0xd0, 0x63, 0x1b, 0x3f, 0x90, 0xaa, 0x96, 0xbe,
  0x34, 0xc0, 0x68, 0xbe, 0xb6, 0x69, 0xe3, 0xbe, 0x30, 0xff, 0x0a, 0xbe,
  0x4a, 0x74, 0x92, 0x3e, 0x99, 0x2a, 0xfc, 0xbd, 0x32, 0x21, 0x98, 0xbe,
  0xd0, 0x64, 0x03, 0xbe, 0x7c, 0x47, 0xe2, 0xbe, 0x52, 0xe7, 0x83, 0x3e,
  0x6f, 0xbb, 0x00, 0xbf, 0xc0, 0x41, 0xa7, 0xbc, 0x28, 0x6e, 0x0b, 0xbf,
  0x93, 0x9d, 0x91, 0xbe, 0x1e, 0xe0, 0x18, 0xbe, 0xa8, 0x7c, 0xec, 0xbd,
  0x3e, 0xe1, 0x96, 0x3c, 0xac, 0x05, 0x63, 0x3e, 0xf2, 0xdf, 0xcb, 0xbe,
  0x67, 0x3c, 0x15, 0xbf, 0x47, 0x79, 0x1b, 0xbf, 0x08, 0x39, 0x0d, 0xbf,
  0xc4, 0xf5, 0x6d, 0x3e, 0x43, 0xb7, 0xa9, 0x3e, 0xdf, 0x92, 0xf8, 0xbf,
  0x4b, 0x24, 0xe3, 0x3f, 0x83, 0x0d, 0x15, 0x40, 0x48, 0x41, 0x25, 0x3f,
  0xb6, 0x37, 0xd9, 0x3e, 0x2f, 0xd4, 0x07, 0x3e, 0xb1, 0xdd, 0x3a, 0xbe,
  0xc5, 0x3e, 0xbd, 0xbd, 0x09, 0x59, 0xec, 0xbe, 0x9b, 0x59, 0xa4, 0x3e,
  0xbe, 0xc2, 0xdc, 0xbe, 0x1c, 0xf6, 0xe9, 0xbe, 0x6f, 0x1d, 0xff, 0x3d,
  0xd1, 0xc9, 0xc5, 0xbe, 0xbe, 0xed, 0x01, 0xbf, 0xe4, 0x62, 0x3f, 0x3e,
  0x97, 0x08, 0x92, 0xbf, 0x4d, 0xa4, 0xff, 0x3e, 0x2d, 0x95, 0xa3, 0xbf,
  0xfb, 0xfe, 0x2b, 0x40, 0x10, 0xc3, 0xcb, 0x3f, 0x9e, 0x48, 0x61, 0xbf,
  0x07, 0xa4, 0xd0, 0x3d, 0xfa, 0x52, 0x00, 0x3e, 0xa0, 0xad, 0xb4, 0xbf,
  0x8b, 0x3f, 0xdc, 0xbf, 0x20, 0xd5, 0xa9, 0x3f, 0xf9, 0xe3, 0x99, 0x3e,
  0x0b, 0x85, 0x15, 0x3f, 0xc8, 0xf8, 0x42, 0x3f, 0x89, 0xa7, 0xf8, 0x3f,
  0x58, 0x2e, 0x0e, 0x40, 0xfa, 0x3a, 0xf5, 0xbe, 0x00, 0x26, 0xe1, 0xbc,
  0xb3, 0x4f, 0xec, 0xbe, 0xae, 0xc7, 0x89, 0x3e, 0x1c, 0xfd, 0xe0, 0xbd,
  0x3c, 0x79, 0x6a, 0x3e, 0x54, 0xc9, 0xf7, 0xbe, 0x00, 0xf5, 0x04, 0x3c,
  0x00, 0x00, 0x00, 0x00, 0xfa, 0xfd, 0xff, 0xff, 0x04, 0x00, 0x00, 0x00,
  0x68, 0x00, 0x00, 0x00, 0x5b, 0x0b, 0x1a, 0xbe, 0x1c, 0x0c, 0x58, 0xbf,
  0x90, 0xb9, 0x81, 0xbd, 0xc5, 0x97, 0x5f, 0x3f, 0x46, 0xae, 0x94, 0x3e,
  0xe0, 0xfc, 0xd1, 0xbf, 0xbf, 0xb1, 0x8d, 0xbf, 0x69, 0x82, 0xf8, 0xbf,
  0xf9, 0x2d, 0x35, 0xbf, 0x9a, 0x44, 0x19, 0xc0, 0x23, 0x19, 0x8e, 0xbf,
  0x22, 0x3e, 0x79, 0xbd, 0x28, 0xec, 0x91, 0xbf, 0xf0, 0xb0, 0x6c, 0xbd,
  0x2f, 0x5b, 0x4d, 0x3f, 0x71, 0x21, 0x0b, 0x3f, 0x2d, 0xb4, 0x92, 0x3d,
  0x4a, 0xa8, 0x5f, 0x3f, 0xea, 0x10, 0x58, 0x3f, 0x45, 0x51, 0xb9, 0x3f,
  0x2b, 0xb0, 0xbb, 0xbf, 0x86, 0x7c, 0x0f, 0x3f, 0xdb, 0x8f, 0x82, 0xbf,
  0x5e, 0xce, 0x1f, 0x3f, 0x78, 0x91, 0x62, 0xbf, 0xe2, 0x39, 0x06, 0x3f,
  0x00, 0x00, 0x00, 0x00, 0x00, 0x00, 0x00, 0x00, 0x00, 0x00, 0x00, 0x00,
  0x7a, 0xfe, 0xff, 0xff, 0x04, 0x00, 0x00, 0x00, 0x90, 0x00, 0x00, 0x00,
  0xf9, 0x71, 0xab, 0xbe, 0xbf, 0x9a, 0x0f, 0xc0, 0x5f, 0xf9, 0x23, 0xbf,
  0x39, 0xc5, 0xfd, 0xbe, 0xca, 0x92, 0xd9, 0xbe, 0xca, 0x0f, 0x13, 0x3f,
  0x86, 0x3f, 0x10, 0xc0, 0xba, 0xad, 0x91, 0xbc, 0x08, 0x76, 0x9d, 0x3f,
  0x00, 0x00, 0x00, 0x00, 0x8d, 0x25, 0x8e, 0x3f, 0x03, 0xea, 0x43, 0x40,
  0x30, 0xa4, 0xf4, 0xbf, 0xf5, 0x2e, 0x98, 0x3f, 0x13, 0xdd, 0x0a, 0x40,
  0x00, 0x00, 0x00, 0x00, 0xf0, 0x9c, 0x00, 0x3f, 0x45, 0x84, 0x28, 0xc0,
  0x00, 0x00, 0x00, 0x00, 0x00, 0x00, 0x00, 0x00, 0x9e, 0x4b, 0xa9, 0xbe,
  0xee, 0x86, 0x0c, 0x40, 0x25, 0x08, 0x14, 0x40, 0xee, 0x89, 0x4a, 0x40,
  0x9f, 0x4b, 0xc5, 0xbe, 0xf8, 0xb8, 0x0a, 0x40, 0x75, 0x9d, 0xc2, 0x3c,
  0x4f, 0x3f, 0xf4, 0x3d, 0xac, 0x73, 0xc4, 0x3f, 0xcf, 0xd7, 0x07, 0xc0,
  0x46, 0x26, 0xbc, 0xbf, 0x0a, 0x9d, 0x22, 0xbf, 0xa7, 0xaf, 0x8b, 0xbd,
  0x35, 0x9d, 0xc7, 0x3f, 0x00, 0x00, 0x00, 0x00, 0x6e, 0xd5, 0xf4, 0x3e,
  0x00, 0x00, 0x00, 0x00, 0x1a, 0xff, 0xff, 0xff, 0x04, 0x00, 0x00, 0x00,
  0x28, 0x00, 0x00, 0x00, 0x59, 0xa0, 0x8c, 0x3e, 0x23, 0xc1, 0x03, 0xbf,
  0xe6, 0xfc, 0xc9, 0xbb, 0x00, 0x00, 0x00, 0x00, 0xab, 0x84, 0x81, 0xbd,
  0x9e, 0x9d, 0x4a, 0x3e, 0x4e, 0xdb, 0xa1, 0xbc, 0xf7, 0xe5, 0x1a, 0x3f,
  0xd8, 0x84, 0x6d, 0x3f, 0x00, 0x00, 0x00, 0x00, 0x00, 0x00, 0x00, 0x00,
  0x60, 0xfa, 0xff, 0xff, 0x00, 0x00, 0x00, 0x00, 0x00, 0x00, 0x00, 0x00,
  0x00, 0x00, 0x00, 0x00, 0x70, 0xfa, 0xff, 0xff, 0x00, 0x00, 0x00, 0x00,
  0x00, 0x00, 0x00, 0x00, 0x00, 0x00, 0x00, 0x00, 0x0f, 0x00, 0x00, 0x00,
  0x4d, 0x4c, 0x49, 0x52, 0x20, 0x43, 0x6f, 0x6e, 0x76, 0x65, 0x72, 0x74,
  0x65, 0x64, 0x2e, 0x00, 0x01, 0x00, 0x00, 0x00, 0x14, 0x00, 0x00, 0x00,
  0x00, 0x00, 0x0e, 0x00, 0x18, 0x00, 0x04, 0x00, 0x08, 0x00, 0x0c, 0x00,
  0x10, 0x00, 0x14, 0x00, 0x0e, 0x00, 0x00, 0x00, 0x4c, 0x01, 0x00, 0x00,
  0x40, 0x01, 0x00, 0x00, 0x34, 0x01, 0x00, 0x00, 0x14, 0x00, 0x00, 0x00,
  0x04, 0x00, 0x00, 0x00, 0x04, 0x00, 0x00, 0x00, 0x6d, 0x61, 0x69, 0x6e,
  0x00, 0x00, 0x00, 0x00, 0x04, 0x00, 0x00, 0x00, 0xdc, 0x00, 0x00, 0x00,
  0x94, 0x00, 0x00, 0x00, 0x50, 0x00, 0x00, 0x00, 0x14, 0x00, 0x00, 0x00,
  0x00, 0x00, 0x0e, 0x00, 0x1a, 0x00, 0x08, 0x00, 0x0c, 0x00, 0x10, 0x00,
  0x07, 0x00, 0x14, 0x00, 0x0e, 0x00, 0x00, 0x00, 0x00, 0x00, 0x00, 0x09,
  0x01, 0x00, 0x00, 0x00, 0x24, 0x00, 0x00, 0x00, 0x18, 0x00, 0x00, 0x00,
  0x0c, 0x00, 0x00, 0x00, 0x00, 0x00, 0x06, 0x00, 0x08, 0x00, 0x04, 0x00,
  0x06, 0x00, 0x00, 0x00, 0x00, 0x00, 0x80, 0x3f, 0x01, 0x00, 0x00, 0x00,
  0x0a, 0x00, 0x00, 0x00, 0x01, 0x00, 0x00, 0x00, 0x09, 0x00, 0x00, 0x00,
  0xce, 0xff, 0xff, 0xff, 0x00, 0x00, 0x00, 0x08, 0x18, 0x00, 0x00, 0x00,
  0x0c, 0x00, 0x00, 0x00, 0x04, 0x00, 0x00, 0x00, 0x40, 0xfb, 0xff, 0xff,
  0x01, 0x00, 0x00, 0x00, 0x09, 0x00, 0x00, 0x00, 0x03, 0x00, 0x00, 0x00,
  0x08, 0x00, 0x00, 0x00, 0x06, 0x00, 0x00, 0x00, 0x03, 0x00, 0x00, 0x00,
  0x00, 0x00, 0x0e, 0x00, 0x14, 0x00, 0x00, 0x00, 0x08, 0x00, 0x0c, 0x00,
  0x07, 0x00, 0x10, 0x00, 0x0e, 0x00, 0x00, 0x00, 0x00, 0x00, 0x00, 0x08,
  0x1c, 0x00, 0x00, 0x00, 0x10, 0x00, 0x00, 0x00, 0x04, 0x00, 0x00, 0x00,
  0xba, 0xff, 0xff, 0xff, 0x00, 0x00, 0x00, 0x01, 0x01, 0x00, 0x00, 0x00,
  0x08, 0x00, 0x00, 0x00, 0x03, 0x00, 0x00, 0x00, 0x07, 0x00, 0x00, 0x00,
  0x05, 0x00, 0x00, 0x00, 0x02, 0x00, 0x00, 0x00, 0x00, 0x00, 0x0e, 0x00,
  0x16, 0x00, 0x00, 0x00, 0x08, 0x00, 0x0c, 0x00, 0x07, 0x00, 0x10, 0x00,
  0x0e, 0x00, 0x00, 0x00, 0x00, 0x00, 0x00, 0x08, 0x24, 0x00, 0x00, 0x00,
  0x18, 0x00, 0x00, 0x00, 0x0c, 0x00, 0x00, 0x00, 0x00, 0x00, 0x06, 0x00,
  0x08, 0x00, 0x07, 0x00, 0x06, 0x00, 0x00, 0x00, 0x00, 0x00, 0x00, 0x01,
  0x01, 0x00, 0x00, 0x00, 0x07, 0x00, 0x00, 0x00, 0x03, 0x00, 0x00, 0x00,
  0x00, 0x00, 0x00, 0x00, 0x04, 0x00, 0x00, 0x00, 0x01, 0x00, 0x00, 0x00,
  0x01, 0x00, 0x00, 0x00, 0x0a, 0x00, 0x00, 0x00, 0x01, 0x00, 0x00, 0x00,
  0x00, 0x00, 0x00, 0x00, 0x0b, 0x00, 0x00, 0x00, 0xdc, 0x03, 0x00, 0x00,
  0x6c, 0x03, 0x00, 0x00, 0x00, 0x03, 0x00, 0x00, 0xa4, 0x02, 0x00, 0x00,
  0x60, 0x02, 0x00, 0x00, 0x18, 0x02, 0x00, 0x00, 0xd0, 0x01, 0x00, 0x00,
  0x4c, 0x01, 0x00, 0x00, 0xc0, 0x00, 0x00, 0x00, 0x4c, 0x00, 0x00, 0x00,
  0x04, 0x00, 0x00, 0x00, 0x64, 0xfc, 0xff, 0xff, 0x34, 0x00, 0x00, 0x00,
  0x0b, 0x00, 0x00, 0x00, 0x1c, 0x00, 0x00, 0x00, 0x14, 0x00, 0x00, 0x00,
  0x04, 0x00, 0x00, 0x00, 0x02, 0x00, 0x00, 0x00, 0xff, 0xff, 0xff, 0xff,
  0x1a, 0x00, 0x00, 0x00, 0x50, 0xfc, 0xff, 0xff, 0x08, 0x00, 0x00, 0x00,
  0x49, 0x64, 0x65, 0x6e, 0x74, 0x69, 0x74, 0x79, 0x00, 0x00, 0x00, 0x00,
  0x02, 0x00, 0x00, 0x00, 0x01, 0x00, 0x00, 0x00, 0x1a, 0x00, 0x00, 0x00,
  0xa8, 0xfc, 0xff, 0xff, 0x60, 0x00, 0x00, 0x00, 0x0a, 0x00, 0x00, 0x00,
  0x1c, 0x00, 0x00, 0x00, 0x14, 0x00, 0x00, 0x00, 0x04, 0x00, 0x00, 0x00,
  0x02, 0x00, 0x00, 0x00, 0xff, 0xff, 0xff, 0xff, 0x1a, 0x00, 0x00, 0x00,
  0x94, 0xfc, 0xff, 0xff, 0x34, 0x00, 0x00, 0x00, 0x73, 0x65, 0x71, 0x75,
  0x65, 0x6e, 0x74, 0x69, 0x61, 0x6c, 0x2f, 0x64, 0x65, 0x6e, 0x73, 0x65,
  0x5f, 0x32, 0x2f, 0x4d, 0x61, 0x74, 0x4d, 0x75, 0x6c, 0x3b, 0x73, 0x65,
  0x71, 0x75, 0x65, 0x6e, 0x74, 0x69, 0x61, 0x6c, 0x2f, 0x64, 0x65, 0x6e,
  0x73, 0x65, 0x5f, 0x32, 0x2f, 0x42, 0x69, 0x61, 0x73, 0x41, 0x64, 0x64,
  0x00, 0x00, 0x00, 0x00, 0x02, 0x00, 0x00, 0x00, 0x01, 0x00, 0x00, 0x00,
  0x1a, 0x00, 0x00, 0x00, 0x18, 0xfd, 0xff, 0xff, 0x78, 0x00, 0x00, 0x00,
  0x09, 0x00, 0x00, 0x00, 0x1c, 0x00, 0x00, 0x00, 0x14, 0x00, 0x00, 0x00,
  0x04, 0x00, 0x00, 0x00, 0x02, 0x00, 0x00, 0x00, 0xff, 0xff, 0xff, 0xff,
  0x24, 0x00, 0x00, 0x00, 0x04, 0xfd, 0xff, 0xff, 0x4c, 0x00, 0x00, 0x00,
  0x73, 0x65, 0x71, 0x75, 0x65, 0x6e, 0x74, 0x69, 0x61, 0x6c, 0x2f, 0x64,
  0x65, 0x6e, 0x73, 0x65, 0x5f, 0x31, 0x2f, 0x4d, 0x61, 0x74, 0x4d, 0x75,
  0x6c, 0x3b, 0x73, 0x65, 0x71, 0x75, 0x65, 0x6e, 0x74, 0x69, 0x61, 0x6c,
  0x2f, 0x64, 0x65, 0x6e, 0x73, 0x65, 0x5f, 0x31, 0x2f, 0x52, 0x65, 0x6c,
  0x75, 0x3b, 0x73, 0x65, 0x71, 0x75, 0x65, 0x6e, 0x74, 0x69, 0x61, 0x6c,
  0x2f, 0x64, 0x65, 0x6e, 0x73, 0x65, 0x5f, 0x31, 0x2f, 0x42, 0x69, 0x61,
  0x73, 0x41, 0x64, 0x64, 0x00, 0x00, 0x00, 0x00, 0x02, 0x00, 0x00, 0x00,
  0x01, 0x00, 0x00, 0x00, 0x24, 0x00, 0x00, 0x00, 0xa0, 0xfd, 0xff, 0xff,
  0x70, 0x00, 0x00, 0x00, 0x08, 0x00, 0x00, 0x00, 0x1c, 0x00, 0x00, 0x00,
  0x14, 0x00, 0x00, 0x00, 0x04, 0x00, 0x00, 0x00, 0x02, 0x00, 0x00, 0x00,
  0xff, 0xff, 0xff, 0xff, 0x0a, 0x00, 0x00, 0x00, 0x8c, 0xfd, 0xff, 0xff,
  0x46, 0x00, 0x00, 0x00, 0x73, 0x65, 0x71, 0x75, 0x65, 0x6e, 0x74, 0x69,
  0x61, 0x6c, 0x2f, 0x64, 0x65, 0x6e, 0x73, 0x65, 0x2f, 0x4d, 0x61, 0x74,
  0x4d, 0x75, 0x6c, 0x3b, 0x73, 0x65, 0x71, 0x75, 0x65, 0x6e, 0x74, 0x69,
  0x61, 0x6c, 0x2f, 0x64, 0x65, 0x6e, 0x73, 0x65, 0x2f, 0x52, 0x65, 0x6c,
  0x75, 0x3b, 0x73, 0x65, 0x71, 0x75, 0x65, 0x6e, 0x74, 0x69, 0x61, 0x6c,
  0x2f, 0x64, 0x65, 0x6e, 0x73, 0x65, 0x2f, 0x42, 0x69, 0x61, 0x73, 0x41,
  0x64, 0x64, 0x00, 0x00, 0x02, 0x00, 0x00, 0x00, 0x01, 0x00, 0x00, 0x00,
  0x0a, 0x00, 0x00, 0x00, 0x86, 0xfe, 0xff, 0xff, 0x34, 0x00, 0x00, 0x00,
  0x07, 0x00, 0x00, 0x00, 0x0c, 0x00, 0x00, 0x00, 0x04, 0x00, 0x00, 0x00,
  0xfc, 0xfd, 0xff, 0xff, 0x19, 0x00, 0x00, 0x00, 0x73, 0x65, 0x71, 0x75,
  0x65, 0x6e, 0x74, 0x69, 0x61, 0x6c, 0x2f, 0x64, 0x65, 0x6e, 0x73, 0x65,
  0x5f, 0x32, 0x2f, 0x4d, 0x61, 0x74, 0x4d, 0x75, 0x6c, 0x00, 0x00, 0x00,
  0x02, 0x00, 0x00, 0x00, 0x1a, 0x00, 0x00, 0x00, 0x24, 0x00, 0x00, 0x00,
  0xca, 0xfe, 0xff, 0xff, 0x34, 0x00, 0x00, 0x00, 0x06, 0x00, 0x00, 0x00,
  0x0c, 0x00, 0x00, 0x00, 0x04, 0x00, 0x00, 0x00, 0x40, 0xfe, 0xff, 0xff,
  0x19, 0x00, 0x00, 0x00, 0x73, 0x65, 0x71, 0x75, 0x65, 0x6e, 0x74, 0x69,
  0x61, 0x6c, 0x2f, 0x64, 0x65, 0x6e, 0x73, 0x65, 0x5f, 0x31, 0x2f, 0x4d,
  0x61, 0x74, 0x4d, 0x75, 0x6c, 0x00, 0x00, 0x00, 0x02, 0x00, 0x00, 0x00,
  0x24, 0x00, 0x00, 0x00, 0x0a, 0x00, 0x00, 0x00, 0x0e, 0xff, 0xff, 0xff,
  0x30, 0x00, 0x00, 0x00, 0x05, 0x00, 0x00, 0x00, 0x0c, 0x00, 0x00, 0x00,
  0x04, 0x00, 0x00, 0x00, 0x84, 0xfe, 0xff, 0xff, 0x17, 0x00, 0x00, 0x00,
  0x73, 0x65, 0x71, 0x75, 0x65, 0x6e, 0x74, 0x69, 0x61, 0x6c, 0x2f, 0x64,
  0x65, 0x6e, 0x73, 0x65, 0x2f, 0x4d, 0x61, 0x74, 0x4d, 0x75, 0x6c, 0x00,
  0x02, 0x00, 0x00, 0x00, 0x0a, 0x00, 0x00, 0x00, 0x08, 0x00, 0x00, 0x00,
  0x4e, 0xff, 0xff, 0xff, 0x4c, 0x00, 0x00, 0x00, 0x04, 0x00, 0x00, 0x00,
  0x0c, 0x00, 0x00, 0x00, 0x04, 0x00, 0x00, 0x00, 0xc4, 0xfe, 0xff, 0xff,
  0x32, 0x00, 0x00, 0x00, 0x73, 0x65, 0x71, 0x75, 0x65, 0x6e, 0x74, 0x69,
  0x61, 0x6c, 0x2f, 0x64, 0x65, 0x6e, 0x73, 0x65, 0x5f, 0x32, 0x2f, 0x42,
  0x69, 0x61, 0x73, 0x41, 0x64, 0x64, 0x2f, 0x52, 0x65, 0x61, 0x64, 0x56,
  0x61, 0x72, 0x69, 0x61, 0x62, 0x6c, 0x65, 0x4f, 0x70, 0x2f, 0x72, 0x65,
  0x73, 0x6f, 0x75, 0x72, 0x63, 0x65, 0x00, 0x00, 0x01, 0x00, 0x00, 0x00,
  0x1a, 0x00, 0x00, 0x00, 0xa6, 0xff, 0xff, 0xff, 0x4c, 0x00, 0x00, 0x00,
  0x03, 0x00, 0x00, 0x00, 0x0c, 0x00, 0x00, 0x00, 0x04, 0x00, 0x00, 0x00,
  0x1c, 0xff, 0xff, 0xff, 0x32, 0x00, 0x00, 0x00, 0x73, 0x65, 0x71, 0x75,
  0x65, 0x6e, 0x74, 0x69, 0x61, 0x6c, 0x2f, 0x64, 0x65, 0x6e, 0x73, 0x65,
  0x5f, 0x31, 0x2f, 0x42, 0x69, 0x61, 0x73, 0x41, 0x64, 0x64, 0x2f, 0x52,
  0x65, 0x61, 0x64, 0x56, 0x61, 0x72, 0x69, 0x61, 0x62, 0x6c, 0x65, 0x4f,
  0x70, 0x2f, 0x72, 0x65, 0x73, 0x6f, 0x75, 0x72, 0x63, 0x65, 0x00, 0x00,
  0x01, 0x00, 0x00, 0x00, 0x24, 0x00, 0x00, 0x00, 0x00, 0x00, 0x0e, 0x00,
  0x14, 0x00, 0x04, 0x00, 0x00, 0x00, 0x08, 0x00, 0x0c, 0x00, 0x10, 0x00,
  0x0e, 0x00, 0x00, 0x00, 0x4c, 0x00, 0x00, 0x00, 0x02, 0x00, 0x00, 0x00,
  0x0c, 0x00, 0x00, 0x00, 0x04, 0x00, 0x00, 0x00, 0x84, 0xff, 0xff, 0xff,
  0x30, 0x00, 0x00, 0x00, 0x73, 0x65, 0x71, 0x75, 0x65, 0x6e, 0x74, 0x69,
  0x61, 0x6c, 0x2f, 0x64, 0x65, 0x6e, 0x73, 0x65, 0x2f, 0x42, 0x69, 0x61,
  0x73, 0x41, 0x64, 0x64, 0x2f, 0x52, 0x65, 0x61, 0x64, 0x56, 0x61, 0x72,
  0x69, 0x61, 0x62, 0x6c, 0x65, 0x4f, 0x70, 0x2f, 0x72, 0x65, 0x73, 0x6f,
  0x75, 0x72, 0x63, 0x65, 0x00, 0x00, 0x00, 0x00, 0x01, 0x00, 0x00, 0x00,
  0x0a, 0x00, 0x00, 0x00, 0x14, 0x00, 0x18, 0x00, 0x04, 0x00, 0x00, 0x00,
  0x08, 0x00, 0x0c, 0x00, 0x10, 0x00, 0x00, 0x00, 0x00, 0x00, 0x14, 0x00,
  0x14, 0x00, 0x00, 0x00, 0x38, 0x00, 0x00, 0x00, 0x01, 0x00, 0x00, 0x00,
  0x20, 0x00, 0x00, 0x00, 0x18, 0x00, 0x00, 0x00, 0x04, 0x00, 0x00, 0x00,
  0x02, 0x00, 0x00, 0x00, 0xff, 0xff, 0xff, 0xff, 0x08, 0x00, 0x00, 0x00,
  0x04, 0x00, 0x04, 0x00, 0x04, 0x00, 0x00, 0x00, 0x0b, 0x00, 0x00, 0x00,
  0x64, 0x65, 0x6e, 0x73, 0x65, 0x5f, 0x69, 0x6e, 0x70, 0x75, 0x74, 0x00,
  0x02, 0x00, 0x00, 0x00, 0x01, 0x00, 0x00, 0x00, 0x08, 0x00, 0x00, 0x00,
  0x02, 0x00, 0x00, 0x00, 0x2c, 0x00, 0x00, 0x00, 0x10, 0x00, 0x00, 0x00,
  0x0c, 0x00, 0x0c, 0x00, 0x07, 0x00, 0x00, 0x00, 0x00, 0x00, 0x08, 0x00,
  0x0c, 0x00, 0x00, 0x00, 0x00, 0x00, 0x00, 0x19, 0x19, 0x00, 0x00, 0x00,
  0x0c, 0x00, 0x10, 0x00, 0x07, 0x00, 0x00, 0x00, 0x08, 0x00, 0x0c, 0x00,
  0x0c, 0x00, 0x00, 0x00, 0x00, 0x00, 0x00, 0x09, 0x09, 0x00, 0x00, 0x00,
  0x09, 0x00, 0x00, 0x00
};

#endif //MY_MODEL1617390472.537142_H