#ifndef MY_MODEL_H
#define MY_MODEL_H


unsigned int my_model_len = 7696;
unsigned char my_model[] = {
 0x1c, 0x00, 0x00, 0x00, 0x54, 0x46, 0x4c, 0x33, 0x00, 0x00, 0x12, 0x00,
  0x1c, 0x00, 0x04, 0x00, 0x08, 0x00, 0x0c, 0x00, 0x10, 0x00, 0x14, 0x00,
  0x00, 0x00, 0x18, 0x00, 0x12, 0x00, 0x00, 0x00, 0x03, 0x00, 0x00, 0x00,
  0xac, 0x1d, 0x00, 0x00, 0x18, 0x18, 0x00, 0x00, 0x00, 0x18, 0x00, 0x00,
  0x3c, 0x00, 0x00, 0x00, 0x04, 0x00, 0x00, 0x00, 0x01, 0x00, 0x00, 0x00,
  0x0c, 0x00, 0x00, 0x00, 0x08, 0x00, 0x0c, 0x00, 0x04, 0x00, 0x08, 0x00,
  0x08, 0x00, 0x00, 0x00, 0x08, 0x00, 0x00, 0x00, 0x0c, 0x00, 0x00, 0x00,
  0x13, 0x00, 0x00, 0x00, 0x6d, 0x69, 0x6e, 0x5f, 0x72, 0x75, 0x6e, 0x74,
  0x69, 0x6d, 0x65, 0x5f, 0x76, 0x65, 0x72, 0x73, 0x69, 0x6f, 0x6e, 0x00,
  0x0d, 0x00, 0x00, 0x00, 0xac, 0x17, 0x00, 0x00, 0x98, 0x17, 0x00, 0x00,
  0x5c, 0x17, 0x00, 0x00, 0xb8, 0x16, 0x00, 0x00, 0x34, 0x16, 0x00, 0x00,
  0xe0, 0x14, 0x00, 0x00, 0x2c, 0x0f, 0x00, 0x00, 0x78, 0x00, 0x00, 0x00,
  0x6c, 0x00, 0x00, 0x00, 0x58, 0x00, 0x00, 0x00, 0x44, 0x00, 0x00, 0x00,
  0x30, 0x00, 0x00, 0x00, 0x04, 0x00, 0x00, 0x00, 0xea, 0xe7, 0xff, 0xff,
  0x04, 0x00, 0x00, 0x00, 0x10, 0x00, 0x00, 0x00, 0x31, 0x2e, 0x35, 0x2e,
  0x30, 0x00, 0x00, 0x00, 0x00, 0x00, 0x00, 0x00, 0x00, 0x00, 0x00, 0x00,
  0x00, 0x00, 0x00, 0x00, 0x00, 0x00, 0x00, 0x00, 0x00, 0x00, 0x00, 0x00,
  0x20, 0xe3, 0xff, 0xff, 0x00, 0x00, 0x00, 0x00, 0x00, 0x00, 0x00, 0x00,
  0x00, 0x00, 0x00, 0x00, 0x30, 0xe3, 0xff, 0xff, 0x00, 0x00, 0x00, 0x00,
  0x00, 0x00, 0x00, 0x00, 0x00, 0x00, 0x00, 0x00, 0x40, 0xe3, 0xff, 0xff,
  0x00, 0x00, 0x00, 0x00, 0x00, 0x00, 0x00, 0x00, 0x00, 0x00, 0x00, 0x00,
  0x50, 0xe3, 0xff, 0xff, 0x00, 0x00, 0x00, 0x00, 0x4a, 0xe8, 0xff, 0xff,
  0x04, 0x00, 0x00, 0x00, 0xa0, 0x0e, 0x00, 0x00, 0xbb, 0x53, 0x98, 0xbd,
  0x18, 0x6b, 0x94, 0xbe, 0x2e, 0xf7, 0x1a, 0x3e, 0x67, 0x16, 0x8c, 0xbd,
  0x2c, 0xca, 0xb7, 0xbe, 0xe6, 0x4e, 0x82, 0xbe, 0x67, 0x33, 0x7e, 0xbe,
  0x8d, 0x72, 0x75, 0xbe, 0xbf, 0xa4, 0x38, 0xbe, 0x28, 0x36, 0xe7, 0xbe,
  0xda, 0x8f, 0x80, 0xbe, 0xba, 0x04, 0x61, 0xbe, 0x75, 0x40, 0x8a, 0xbe,
  0x62, 0x59, 0x9a, 0x3e, 0x57, 0x45, 0x97, 0xbe, 0x78, 0x6a, 0x94, 0x3d,
  0xec, 0x09, 0xc3, 0xbe, 0x2c, 0xed, 0x2c, 0x3e, 0x41, 0x5d, 0xd6, 0x3c,
  0xbc, 0xc1, 0xe3, 0x3b, 0xbe, 0xfb, 0x07, 0xbe, 0x00, 0x4b, 0xc9, 0xbe,
  0x34, 0xa9, 0xcb, 0xbe, 0x1c, 0x42, 0x94, 0x3e, 0xdb, 0x66, 0x56, 0x3e,
  0x4d, 0x64, 0xc9, 0xbe, 0xdb, 0x66, 0xcf, 0xbe, 0x14, 0x70, 0xb1, 0xbd,
  0xd3, 0xfe, 0x45, 0xbe, 0xd5, 0x4c, 0x99, 0xbe, 0xbc, 0x4e, 0xdc, 0xbe,
  0x4b, 0x8f, 0xa5, 0xbe, 0x74, 0xc9, 0x07, 0xbf, 0xe6, 0xb8, 0x2a, 0xbe,
  0x82, 0x1b, 0x41, 0xbe, 0x0f, 0x77, 0x16, 0xbd, 0x8c, 0x44, 0x2a, 0xbe,
  0x41, 0x26, 0x20, 0xbe, 0xb4, 0x4d, 0x9c, 0x3e, 0x63, 0x22, 0x2f, 0xbf,
  0x33, 0x92, 0xbd, 0x3d, 0x2c, 0xac, 0xbd, 0x3d, 0xe0, 0x40, 0x01, 0xbd,
  0xf0, 0xbf, 0x5e, 0x3e, 0x92, 0x61, 0xc1, 0xbd, 0xb5, 0x20, 0x11, 0xbe,
  0x14, 0xe0, 0x92, 0x3d, 0xac, 0x02, 0xaf, 0x3e, 0xbf, 0x84, 0x76, 0xbe,
  0xfd, 0x16, 0x5b, 0xbe, 0xe8, 0x76, 0xa0, 0xbe, 0x22, 0x72, 0x10, 0xbe,
  0x6d, 0xe2, 0xe2, 0xbe, 0x8e, 0x71, 0x1e, 0xbf, 0x98, 0x5e, 0x9f, 0xbc,
  0x33, 0xce, 0x8f, 0xbe, 0xe3, 0x40, 0x94, 0xbe, 0x82, 0x9e, 0xd9, 0xbe,
  0xee, 0x14, 0xce, 0xbe, 0x3e, 0xa4, 0x8d, 0x3e, 0x56, 0xf2, 0x2e, 0x3e,
  0x85, 0x0d, 0x22, 0xbe, 0xb5, 0x03, 0xbe, 0x3d, 0x56, 0xa5, 0x5d, 0x3e,
  0x83, 0x1a, 0xa2, 0xbe, 0x2f, 0xf5, 0x92, 0xbd, 0x22, 0xdd, 0x30, 0x3e,
  0x71, 0xca, 0x70, 0xbd, 0x02, 0xca, 0x21, 0xbf, 0xd0, 0x44, 0x1b, 0xbe,
  0xd8, 0x05, 0x37, 0xbe, 0x5b, 0x7e, 0xc1, 0xbd, 0xf6, 0x25, 0x18, 0xbe,
  0x7a, 0x46, 0x0f, 0x3f, 0x25, 0xa8, 0xfd, 0x3d, 0x3b, 0x84, 0xeb, 0xbd,
  0x8b, 0xa8, 0xa4, 0xbe, 0x6a, 0xec, 0x83, 0xbd, 0x87, 0xca, 0x1a, 0xbe,
  0xc8, 0x0d, 0x4c, 0xbd, 0x26, 0x31, 0x81, 0x3e, 0x43, 0x60, 0x24, 0x3f,
  0xdb, 0x14, 0xa9, 0x3d, 0xc5, 0x08, 0xdf, 0x3d, 0x62, 0x02, 0x5c, 0x3d,
  0x10, 0x93, 0xe2, 0x3d, 0x5d, 0xcb, 0x39, 0xbe, 0x40, 0xa7, 0x89, 0xbb,
  0x2b, 0x4d, 0x34, 0xbf, 0x3c, 0x77, 0xf8, 0xbc, 0x82, 0xbc, 0x97, 0x3e,
  0xbd, 0xcc, 0x19, 0x3f, 0xc3, 0xb6, 0x81, 0x3e, 0xc4, 0x68, 0x99, 0xbe,
  0xa0, 0x85, 0xbe, 0x3d, 0x50, 0xa4, 0xfe, 0xbc, 0x92, 0x8f, 0x98, 0xbe,
  0xed, 0x94, 0x69, 0xbf, 0x42, 0x07, 0xae, 0xbd, 0xee, 0x1d, 0x20, 0x3f,
  0x15, 0x92, 0x86, 0x3e, 0x97, 0xfe, 0x37, 0xbe, 0x94, 0x87, 0x0f, 0x3f,
  0x20, 0xc6, 0x85, 0xbf, 0x4c, 0x93, 0x29, 0xbf, 0x11, 0xc4, 0xcf, 0xbd,
  0x17, 0xee, 0xd3, 0x3e, 0x4a, 0xe6, 0x6c, 0x3e, 0x42, 0x89, 0x3b, 0xbe,
  0x77, 0xe4, 0xc8, 0x3d, 0x45, 0x7a, 0x79, 0xbd, 0x7b, 0x68, 0x97, 0xbe,
  0xdb, 0x5c, 0x46, 0xbe, 0xf0, 0xe6, 0x60, 0x3d, 0xdb, 0xf7, 0x02, 0xbe,
  0x9e, 0x98, 0x3a, 0x3e, 0x0d, 0xf5, 0x7a, 0xbe, 0xa5, 0x32, 0x16, 0x3e,
  0x1c, 0xa1, 0xbc, 0xbe, 0x1a, 0x3a, 0x4d, 0x3e, 0x73, 0x1f, 0x26, 0xbe,
  0xe0, 0xa4, 0x4e, 0x3e, 0x9e, 0x5e, 0xd6, 0xbe, 0xe6, 0xd1, 0x52, 0xbe,
  0x75, 0x71, 0x94, 0xbe, 0xd1, 0xef, 0xf7, 0xbe, 0x31, 0x1f, 0xef, 0xbc,
  0x16, 0x46, 0x82, 0x3e, 0xb3, 0x10, 0xfc, 0xbe, 0xbb, 0xd7, 0x21, 0xbf,
  0x97, 0x66, 0xfb, 0xbd, 0x94, 0x9c, 0xde, 0x3d, 0x02, 0xce, 0x11, 0xbe,
  0x27, 0x4d, 0x51, 0xbf, 0x15, 0xd3, 0xef, 0x3c, 0x48, 0x2e, 0x77, 0xbe,
  0x61, 0xed, 0x20, 0xbe, 0x2a, 0xe1, 0x94, 0xbd, 0x91, 0x20, 0x56, 0xbe,
  0x9f, 0x90, 0xee, 0xbe, 0x55, 0x41, 0x0c, 0xbf, 0x32, 0x30, 0x27, 0x3e,
  0x13, 0xf9, 0xf1, 0xbc, 0x1b, 0xfc, 0x35, 0xbe, 0x32, 0x3f, 0x5d, 0x3f,
  0x43, 0x10, 0xeb, 0xbf, 0x1a, 0x6a, 0x88, 0xbd, 0xf4, 0x55, 0xbe, 0x3e,
  0x53, 0x45, 0x13, 0xc0, 0x88, 0xc3, 0x7a, 0x3d, 0x70, 0xc9, 0xfa, 0x3c,
  0x1e, 0xdd, 0x3a, 0xbe, 0x8c, 0x00, 0x8d, 0x3e, 0x51, 0x15, 0x02, 0xbf,
  0x8b, 0xab, 0x06, 0xc0, 0x87, 0xd4, 0x0c, 0xc0, 0x62, 0xc7, 0x55, 0x3f,
  0xa0, 0xff, 0x08, 0xbe, 0x19, 0xd7, 0x0f, 0xbc, 0x14, 0x4f, 0xb3, 0x3d,
  0xeb, 0xb1, 0x71, 0x3f, 0xa5, 0x37, 0x25, 0x3f, 0x7e, 0x0a, 0x57, 0x3e,
  0x17, 0x40, 0xe0, 0x3e, 0xad, 0x1c, 0x4f, 0xbe, 0xf7, 0x2a, 0x08, 0x3e,
  0x81, 0x43, 0x66, 0xbe, 0x53, 0xb9, 0x7f, 0xbe, 0xd5, 0x76, 0x7f, 0x3e,
  0x06, 0xf1, 0x6f, 0xbe, 0xbf, 0x05, 0x33, 0xbf, 0x45, 0xc8, 0xee, 0x3e,
  0x2b, 0x16, 0x04, 0x3f, 0x62, 0x41, 0x96, 0xbf, 0x53, 0xcb, 0xf6, 0xbf,
  0x45, 0x2b, 0x3a, 0x3e, 0xdf, 0xf8, 0x9a, 0x3e, 0xfd, 0x15, 0x24, 0xc0,
  0x25, 0x1c, 0xc8, 0xbf, 0xd2, 0x13, 0x33, 0xc0, 0xb6, 0x0b, 0x5e, 0x3e,
  0x8a, 0x97, 0x5e, 0x3e, 0x17, 0x89, 0xc7, 0x3c, 0xdf, 0xc7, 0xdd, 0xbf,
  0x68, 0x81, 0x7e, 0xbf, 0x29, 0xd1, 0x92, 0xbe, 0x96, 0xbf, 0x92, 0xbf,
  0x18, 0xa2, 0x66, 0xbd, 0xf8, 0x2f, 0x14, 0x3e, 0x04, 0xa0, 0xf0, 0x3e,
  0xfa, 0x7e, 0xb3, 0xbf, 0x79, 0xd6, 0x19, 0x3f, 0xcc, 0x07, 0x8b, 0x3e,
  0xc4, 0x0d, 0x69, 0x3e, 0x37, 0x7a, 0x1d, 0x3f, 0xc8, 0x0d, 0x56, 0xbd,
  0x9e, 0x8f, 0x7d, 0x3e, 0xad, 0x8f, 0xd1, 0x3d, 0x9f, 0x66, 0x0f, 0x3f,
  0xe4, 0xfa, 0x9b, 0x3d, 0xc4, 0xa7, 0x7e, 0x3f, 0x7b, 0x5a, 0xc5, 0xbf,
  0x97, 0x5a, 0x64, 0x3f, 0xb8, 0x2b, 0x9b, 0xbd, 0x2b, 0x0c, 0xb2, 0xbd,
  0x43, 0xe8, 0xa6, 0xbb, 0x38, 0xff, 0x5b, 0x3d, 0xb5, 0x11, 0x8e, 0x3d,
  0x0f, 0xf2, 0x64, 0xbf, 0xe6, 0x2a, 0x8e, 0x3e, 0xa1, 0x5a, 0x00, 0x3f,
  0x39, 0xea, 0x03, 0x3e, 0x85, 0x13, 0xab, 0x3c, 0x63, 0x17, 0x60, 0xbf,
  0x24, 0xda, 0x16, 0x3f, 0x33, 0xb8, 0x7d, 0xbf, 0x8e, 0xfb, 0xbd, 0xbe,
  0x43, 0x1e, 0xa0, 0xbd, 0x0f, 0xcc, 0x4c, 0xbf, 0xdc, 0x9b, 0x7d, 0xbd,
  0xc8, 0xa9, 0xba, 0x3e, 0x8c, 0xd9, 0x99, 0x3e, 0x4d, 0x41, 0x54, 0x3e,
  0x4c, 0xe6, 0x90, 0x3d, 0x90, 0x76, 0xbd, 0x3c, 0x71, 0x55, 0x41, 0xbf,
  0xb2, 0xb4, 0x68, 0xbe, 0x51, 0xfa, 0xe6, 0xbe, 0xe5, 0xef, 0x2d, 0x3d,
  0xa0, 0x3e, 0x30, 0x3c, 0x83, 0xed, 0x2b, 0x3e, 0x2c, 0x36, 0xa0, 0x3d,
  0x81, 0x66, 0x87, 0x3e, 0xc5, 0xf0, 0x3a, 0x3e, 0xa5, 0x25, 0x39, 0xbe,
  0x98, 0x7c, 0x2c, 0xbf, 0xc9, 0xdb, 0xe2, 0x3d, 0x21, 0x34, 0x0f, 0x3f,
  0x4a, 0x11, 0x7f, 0xbe, 0x5e, 0x58, 0x71, 0xbe, 0x40, 0x3e, 0xc5, 0x3b,
  0x8a, 0x39, 0x89, 0x3e, 0xf6, 0x80, 0xe3, 0x3e, 0x6c, 0xc0, 0x4f, 0xbf,
  0x36, 0x6f, 0x11, 0xbf, 0x71, 0x97, 0x47, 0x3e, 0xba, 0x7b, 0xb3, 0xbe,
  0x09, 0xe1, 0x18, 0x3f, 0xa1, 0x68, 0x0b, 0x3f, 0x50, 0xc2, 0xad, 0xbd,
  0x52, 0x84, 0x87, 0xbf, 0xae, 0xe7, 0x1e, 0xbe, 0x32, 0xc4, 0x24, 0xbd,
  0x55, 0x00, 0x6a, 0xbf, 0x38, 0xcd, 0x1e, 0x3e, 0x45, 0x2d, 0x95, 0xbf,
  0x30, 0x4c, 0x78, 0x3c, 0x16, 0xdb, 0x99, 0x3e, 0x2d, 0x87, 0xd3, 0xbf,
  0x90, 0xfa, 0xf6, 0xbc, 0xd8, 0x77, 0x70, 0xbd, 0x83, 0xd4, 0x9d, 0x3e,
  0x2e, 0xa0, 0xc8, 0xbe, 0xb1, 0xb6, 0x38, 0x3f, 0x63, 0x9d, 0xaa, 0x3e,
  0x47, 0xb2, 0x7d, 0xbe, 0x89, 0x3d, 0xee, 0x3e, 0xd0, 0xa1, 0x4a, 0x3d,
  0xeb, 0x3c, 0x00, 0x3f, 0x01, 0xf2, 0x88, 0x3e, 0x2a, 0x3d, 0x01, 0xbd,
  0x93, 0xc2, 0x7b, 0xbf, 0xe0, 0xfa, 0xb8, 0x3e, 0x17, 0xb1, 0x73, 0xbe,
  0x19, 0xee, 0x4e, 0x3f, 0x90, 0x4c, 0x48, 0x3e, 0xae, 0x27, 0x34, 0xbe,
  0x45, 0x37, 0xcb, 0x3e, 0x56, 0xec, 0x84, 0x3f, 0xfa, 0x72, 0x44, 0xbf,
  0x00, 0xc4, 0xe7, 0xbf, 0x2c, 0x20, 0x2c, 0x3f, 0x6a, 0xda, 0x0c, 0xbf,
  0x5c, 0x95, 0x53, 0x3f, 0xb8, 0x83, 0xe1, 0x3d, 0xaa, 0xf8, 0xca, 0xbe,
  0xc3, 0xc6, 0x2b, 0xbf, 0xfa, 0xc2, 0x08, 0xbf, 0xc8, 0x07, 0x18, 0x3f,
  0xfa, 0x54, 0xa3, 0xbf, 0xb8, 0xf5, 0x34, 0x3e, 0xdf, 0xa7, 0x6d, 0xbf,
  0x7c, 0xa4, 0xaf, 0xbf, 0x3a, 0xbe, 0x82, 0x3e, 0x0a, 0x02, 0xc7, 0xbd,
  0x94, 0xb2, 0xfa, 0x3d, 0xb0, 0x3d, 0x66, 0x3e, 0xfc, 0xfa, 0xad, 0x3e,
  0x76, 0x83, 0x1e, 0xc0, 0xd1, 0x19, 0x0c, 0xbe, 0xcc, 0x98, 0x29, 0x3f,
  0x4e, 0xa8, 0x4c, 0xbe, 0x83, 0x14, 0x34, 0x3f, 0x80, 0x0c, 0xaa, 0x3c,
  0xa0, 0x57, 0x33, 0x3f, 0x58, 0x06, 0xd6, 0x3e, 0x43, 0x62, 0x85, 0x3e,
  0xe0, 0x47, 0x16, 0x3d, 0x90, 0x4a, 0x2b, 0x3f, 0x98, 0x04, 0x33, 0xbf,
  0xcf, 0x67, 0x1b, 0x3f, 0xb0, 0x18, 0x17, 0x3d, 0x67, 0x8e, 0xf5, 0xbd,
  0x84, 0x05, 0x8f, 0x3e, 0x2d, 0x28, 0xbf, 0xbf, 0x1e, 0x61, 0x17, 0x3f,
  0x44, 0x57, 0x13, 0xbd, 0x04, 0x99, 0xa1, 0xbe, 0x60, 0x9d, 0x48, 0xbd,
  0xca, 0x12, 0xe3, 0xbc, 0x19, 0x6f, 0x84, 0x3d, 0xe2, 0xf6, 0xb7, 0xbf,
  0xd4, 0xa6, 0xfe, 0xbe, 0x6d, 0x5b, 0x08, 0xc0, 0xa0, 0xf8, 0xe6, 0xbd,
  0x6f, 0x75, 0x22, 0xbf, 0xf2, 0xb7, 0xdd, 0xbc, 0x3d, 0x6b, 0x93, 0xbe,
  0xd8, 0x14, 0xc3, 0xbe, 0xc4, 0x9a, 0x8a, 0xbd, 0x2d, 0x72, 0x25, 0xbf,
  0xd2, 0x29, 0x40, 0x3e, 0xee, 0x58, 0x98, 0x3e, 0x38, 0x2d, 0x03, 0xbf,
  0xf1, 0x35, 0xeb, 0xbe, 0xc6, 0x14, 0x31, 0xbf, 0x42, 0x63, 0xcd, 0x3c,
  0x48, 0xc1, 0x6c, 0xbe, 0xa7, 0xc1, 0x45, 0x3e, 0xd5, 0xb4, 0x84, 0xbe,
  0x86, 0xb3, 0xad, 0x3e, 0xad, 0x76, 0x3b, 0xbe, 0x3c, 0xc1, 0x9d, 0xbe,
  0xbb, 0x87, 0xa1, 0xbe, 0xf8, 0x38, 0xb2, 0x3e, 0x1e, 0x4f, 0x00, 0xbd,
  0xcb, 0xff, 0x71, 0xbe, 0x80, 0x20, 0x4e, 0xbd, 0x98, 0x12, 0x80, 0x3e,
  0x8c, 0x29, 0x9a, 0x3e, 0x5f, 0x51, 0x22, 0xbf, 0xbf, 0x9b, 0x8c, 0xbe,
  0x9d, 0x11, 0x05, 0xbf, 0x98, 0x50, 0x8c, 0xbe, 0xb0, 0x5d, 0x24, 0xbf,
  0x8b, 0xe9, 0xbd, 0x3e, 0xf8, 0x76, 0x8f, 0x3d, 0x2a, 0xba, 0x41, 0xbf,
  0x45, 0x2a, 0x58, 0xbf, 0xbd, 0x73, 0xff, 0xbe, 0x4f, 0x90, 0xb0, 0xbe,
  0x69, 0xaa, 0x20, 0x3e, 0x78, 0x71, 0x15, 0xbd, 0xcf, 0x39, 0x21, 0xbf,
  0x07, 0xbf, 0x38, 0xbe, 0xc0, 0xc9, 0x08, 0x3e, 0x1a, 0xe5, 0x0c, 0x3e,
  0x4e, 0xef, 0x2d, 0x3e, 0x54, 0xb9, 0x9e, 0x3d, 0x88, 0xd8, 0x29, 0xbe,
  0xf7, 0x14, 0x0b, 0x3e, 0x75, 0xf0, 0x83, 0x3e, 0x22, 0x32, 0x78, 0xbe,
  0x65, 0x33, 0x11, 0xbe, 0x5f, 0xc7, 0x28, 0xbf, 0xe9, 0xe6, 0x33, 0xbe,
  0x97, 0x82, 0x3f, 0xbe, 0x6c, 0x4b, 0x32, 0xbf, 0xeb, 0xbd, 0x61, 0xbe,
  0xac, 0xb1, 0x6e, 0xbe, 0xcf, 0x2e, 0xcf, 0xbe, 0x66, 0x59, 0x22, 0xbf,
  0xda, 0x07, 0x18, 0xbf, 0x93, 0xd6, 0x32, 0xbe, 0x99, 0x7c, 0x94, 0x3c,
  0xa9, 0xe0, 0x9f, 0xbe, 0xa3, 0x1c, 0x9f, 0xbd, 0xbc, 0x68, 0x5f, 0xbd,
  0x08, 0x0a, 0xc3, 0xbe, 0x2c, 0xa0, 0x09, 0x3e, 0x69, 0xcc, 0xf2, 0x3d,
  0x05, 0x31, 0x86, 0x3d, 0xbd, 0x1b, 0x16, 0xbf, 0x8b, 0x0a, 0x15, 0x3e,
  0x05, 0xd1, 0x35, 0x3e, 0x3b, 0xc8, 0x1c, 0x3c, 0xe6, 0x4c, 0x50, 0x3d,
  0x57, 0xc4, 0xc1, 0x3e, 0x3b, 0x9f, 0x88, 0x3e, 0xaf, 0x69, 0x28, 0x3f,
  0x54, 0x00, 0x09, 0x3f, 0x80, 0x63, 0x84, 0x3b, 0x32, 0xfb, 0x75, 0x3f,
  0x7a, 0x62, 0xac, 0xbd, 0xea, 0x16, 0xa0, 0xbd, 0xb8, 0x28, 0x6e, 0xbe,
  0x18, 0x6e, 0xb3, 0x3e, 0x7f, 0x67, 0xbc, 0xbd, 0x23, 0x6e, 0x70, 0xbe,
  0xbe, 0x79, 0x92, 0x3e, 0xcc, 0xfd, 0xd4, 0xbf, 0x04, 0xb5, 0xcb, 0xbd,
  0xe1, 0xac, 0xb0, 0xbe, 0x7e, 0x3e, 0xbe, 0xbd, 0xec, 0x0d, 0xd0, 0x3d,
  0x1f, 0x9b, 0x90, 0x3e, 0x23, 0x89, 0xf5, 0xbf, 0x0f, 0x1d, 0x83, 0x3c,
  0x94, 0x70, 0xdf, 0xbf, 0x10, 0x90, 0x93, 0x3c, 0x84, 0xa7, 0x9a, 0xbe,
  0xe0, 0x3d, 0xf7, 0xbe, 0x85, 0x64, 0x83, 0xbf, 0x07, 0xfb, 0xce, 0x3d,
  0x86, 0xf5, 0x77, 0x3f, 0xa9, 0xc4, 0x99, 0xbf, 0x2b, 0xa7, 0xff, 0x3e,
  0xd2, 0xcd, 0x09, 0x3e, 0xc8, 0xf4, 0x3d, 0xbe, 0x66, 0x7f, 0xec, 0x3e,
  0xd3, 0x33, 0x9a, 0xbe, 0x83, 0x04, 0x1f, 0x3f, 0x28, 0xfc, 0x78, 0xbc,
  0xd4, 0x2d, 0x2c, 0xbf, 0x78, 0x35, 0x84, 0x3e, 0x53, 0x89, 0x78, 0xbe,
  0xc8, 0x38, 0xa8, 0xbe, 0x9a, 0x17, 0x85, 0xbd, 0x33, 0x9f, 0xf1, 0x3b,
  0xfa, 0x8e, 0x2c, 0x3e, 0x70, 0xac, 0x7a, 0xbd, 0xad, 0xc5, 0xe4, 0x3d,
  0xc3, 0xd7, 0x32, 0xbf, 0xcd, 0x85, 0x8e, 0x3d, 0x47, 0x4e, 0xff, 0xbd,
  0xf0, 0xfd, 0x4f, 0x3d, 0xef, 0x5e, 0xf1, 0xbe, 0xd0, 0xed, 0xcf, 0xbc,
  0xc9, 0xea, 0x87, 0xbd, 0xe2, 0xe5, 0xcb, 0xbe, 0xbf, 0x82, 0xfb, 0xbb,
  0x87, 0xa0, 0x0e, 0x3d, 0xa2, 0xd8, 0xba, 0xbd, 0x28, 0xda, 0xaf, 0xbe,
  0x76, 0x5e, 0xa7, 0xbe, 0x7c, 0xf9, 0x97, 0xbe, 0xdf, 0xd6, 0x39, 0x3e,
  0x33, 0x2f, 0x82, 0xbe, 0x63, 0xe0, 0x15, 0xbf, 0x3c, 0x84, 0x5c, 0x3e,
  0xac, 0x66, 0x2c, 0x3d, 0x9a, 0x9f, 0x27, 0xbe, 0x8d, 0x39, 0xe2, 0xbe,
  0x1f, 0x9e, 0x8c, 0xbd, 0xed, 0x16, 0x51, 0xbe, 0x5a, 0x7f, 0x13, 0xbf,
  0xed, 0x19, 0x2a, 0xbd, 0xde, 0xd7, 0x8f, 0xbe, 0x16, 0x88, 0x64, 0x3e,
  0x9b, 0xd9, 0x06, 0xbf, 0xed, 0x38, 0xb2, 0x3e, 0xcd, 0x42, 0xb6, 0xbc,
  0xbb, 0x49, 0xda, 0xbe, 0x44, 0x10, 0xaf, 0xbd, 0x0a, 0x54, 0xeb, 0x3d,
  0xdc, 0x1f, 0x85, 0x3e, 0x7c, 0x67, 0xfd, 0xbd, 0xcc, 0x40, 0x6c, 0xbe,
  0x6a, 0x0e, 0x3e, 0xbf, 0x0f, 0x3b, 0xf2, 0xbe, 0x6b, 0xb5, 0x92, 0x3d,
  0x38, 0x36, 0x92, 0xbe, 0xe9, 0x37, 0x25, 0x3c, 0x58, 0x2d, 0x05, 0xbd,
  0x68, 0x16, 0x7e, 0xbe, 0x0a, 0x46, 0xae, 0xbe, 0xa4, 0xc1, 0x42, 0x3d,
  0xb5, 0xea, 0xcf, 0xbd, 0xa4, 0x14, 0x97, 0xbe, 0x71, 0x12, 0xdc, 0xbe,
  0xba, 0xe7, 0xa9, 0xbe, 0xb0, 0x7d, 0x2a, 0x3d, 0xe8, 0x31, 0x50, 0xbe,
  0x78, 0xa9, 0x73, 0xbd, 0xc6, 0x68, 0x2a, 0xbf, 0x08, 0xa9, 0xbc, 0x3e,
  0xa5, 0xda, 0x8d, 0x3c, 0xe2, 0x86, 0x81, 0x3c, 0x72, 0x4c, 0x9d, 0xbe,
  0x43, 0x43, 0x04, 0xbc, 0x86, 0xc0, 0x03, 0xbf, 0xf9, 0x8b, 0x0c, 0xbf,
  0x20, 0x5d, 0x92, 0xbe, 0xe1, 0xe3, 0xd1, 0xbe, 0xb4, 0x4e, 0x80, 0x3d,
  0x1f, 0x5f, 0xab, 0xbe, 0xf1, 0xd6, 0x42, 0xbe, 0xc1, 0x6b, 0xdb, 0xbd,
  0xcf, 0xaf, 0x41, 0xbe, 0x2c, 0xe6, 0xf5, 0x3d, 0x25, 0xdb, 0x4b, 0xbe,
  0xc8, 0x41, 0x9f, 0x3e, 0x78, 0x1b, 0xd9, 0x3d, 0xa5, 0x85, 0x92, 0xbe,
  0x5d, 0xf7, 0xba, 0xbd, 0xdc, 0x68, 0x45, 0xbd, 0xac, 0x4a, 0x1a, 0xbe,
  0xc6, 0x3e, 0x99, 0xbe, 0x0a, 0x92, 0xfb, 0xbd, 0x00, 0x75, 0x49, 0x3b,
  0x25, 0x9d, 0x05, 0xbf, 0xfc, 0x02, 0x0b, 0xbf, 0x7a, 0x7f, 0x83, 0xbe,
  0x39, 0xd8, 0xee, 0xbc, 0x60, 0xfc, 0x43, 0xbe, 0x92, 0x65, 0x2d, 0xbf,
  0x3c, 0xc3, 0x5d, 0x3c, 0x42, 0x30, 0xc6, 0xbd, 0x42, 0xf7, 0x97, 0x3e,
  0x7b, 0x6d, 0xf0, 0xbe, 0x83, 0x5b, 0xc7, 0xbd, 0xcb, 0x52, 0xab, 0xbd,
  0x74, 0x42, 0xa7, 0xbd, 0xd8, 0x6d, 0x8c, 0xbc, 0xea, 0xa9, 0xfa, 0xbe,
  0xd1, 0xdc, 0xef, 0xbe, 0x22, 0xfb, 0x0c, 0xbf, 0xb6, 0x8f, 0xed, 0xbd,
  0x8e, 0x35, 0x94, 0xbe, 0x5b, 0x6d, 0x8a, 0xbe, 0x0e, 0x3a, 0x17, 0xbf,
  0x32, 0x1b, 0xca, 0xbd, 0x64, 0x81, 0x39, 0xbf, 0x01, 0x59, 0x05, 0xbe,
  0xc8, 0xbd, 0xf1, 0xbd, 0xd8, 0x74, 0x1d, 0x3d, 0x40, 0x08, 0x91, 0xbe,
  0x5e, 0x93, 0x96, 0x3e, 0x28, 0x45, 0x95, 0x3e, 0xa6, 0x25, 0x1a, 0xbf,
  0xfe, 0xb2, 0xb9, 0xbe, 0xaf, 0x53, 0xdb, 0xbc, 0x22, 0x43, 0x25, 0xbf,
  0xe4, 0xa5, 0x7d, 0xbe, 0x6f, 0xd8, 0x5e, 0x3e, 0x30, 0xec, 0xd8, 0x3d,
  0xec, 0x1f, 0xe8, 0xbe, 0xc2, 0x32, 0x55, 0x3e, 0x25, 0xc0, 0xf3, 0xbe,
  0x33, 0xe2, 0x31, 0xbf, 0xaf, 0xb2, 0xae, 0xbe, 0x32, 0xdb, 0xb6, 0x3d,
  0x21, 0xb2, 0x6b, 0x3b, 0x90, 0x62, 0x89, 0x3e, 0x90, 0x92, 0x4d, 0x3d,
  0x77, 0x24, 0x1d, 0xbc, 0x45, 0x1b, 0x1d, 0xbd, 0x41, 0x41, 0x54, 0xbd,
  0x54, 0xdb, 0x5a, 0xbf, 0x4d, 0x4f, 0xb3, 0x3d, 0x69, 0x6f, 0x02, 0xbf,
  0x8c, 0xf5, 0xe0, 0xbd, 0x38, 0x68, 0xf5, 0xbd, 0x2d, 0xcb, 0x13, 0xbf,
  0x40, 0x78, 0x81, 0x3c, 0xb9, 0xba, 0x2a, 0xbe, 0xe2, 0x66, 0xcd, 0xbf,
  0x42, 0xe3, 0xe5, 0x3e, 0x49, 0xce, 0xbe, 0xbf, 0x15, 0x5f, 0x45, 0x3f,
  0xeb, 0xcf, 0xe8, 0xbe, 0x14, 0xd0, 0x9b, 0x3d, 0x94, 0x9a, 0xe4, 0xbe,
  0x0c, 0x15, 0x9b, 0x3d, 0x72, 0xef, 0xb3, 0xbd, 0xec, 0x03, 0xac, 0xbf,
  0xf9, 0xde, 0x40, 0x3f, 0xe6, 0x4d, 0xea, 0xbd, 0x74, 0xdc, 0xb1, 0xbf,
  0xc0, 0x99, 0xbf, 0xbd, 0x4c, 0xbe, 0xef, 0x3e, 0x5c, 0x3e, 0x87, 0xbe,
  0x9e, 0xf9, 0xfc, 0xbf, 0x3e, 0xbf, 0x34, 0x3f, 0xe1, 0x12, 0xc0, 0xbf,
  0x91, 0x15, 0xa5, 0xbf, 0x7c, 0x5c, 0x1b, 0xbd, 0x65, 0xd8, 0x46, 0x3f,
  0x13, 0x91, 0x94, 0x3e, 0x44, 0x42, 0x95, 0x3e, 0x48, 0xca, 0x64, 0x3e,
  0x75, 0x4b, 0xd6, 0x3e, 0xd0, 0xfd, 0x53, 0xbd, 0xa8, 0x8c, 0xad, 0xbf,
  0xbe, 0x8d, 0xf3, 0xbe, 0xad, 0x2b, 0x13, 0x3f, 0x54, 0xf7, 0xb1, 0xbe,
  0x80, 0xa9, 0xde, 0x3d, 0xfa, 0x94, 0x27, 0xbe, 0xa0, 0xcd, 0xef, 0xbc,
  0x74, 0x67, 0xb2, 0x3e, 0xdf, 0x46, 0x9c, 0x3e, 0xa8, 0x21, 0x54, 0xbe,
  0x63, 0xe4, 0x13, 0x3e, 0x38, 0xaa, 0xf6, 0x3c, 0x97, 0x1e, 0xc6, 0xbe,
  0x52, 0x6e, 0x4b, 0x3e, 0xe0, 0x19, 0xde, 0x3c, 0xc5, 0x6b, 0x74, 0x3d,
  0x68, 0x02, 0x4b, 0xbd, 0xec, 0xe3, 0x53, 0x3e, 0xab, 0x6e, 0x1c, 0x3c,
  0x84, 0x96, 0x68, 0x3e, 0x9d, 0xbd, 0xf4, 0xbb, 0x57, 0x36, 0x1e, 0xbf,
  0x9e, 0x0b, 0x97, 0x3e, 0xc7, 0x64, 0x68, 0xbe, 0x59, 0x6b, 0x3c, 0xbe,
  0xf4, 0x55, 0xa1, 0xbe, 0x9f, 0xef, 0xbb, 0xbe, 0x9b, 0xd5, 0xab, 0xbd,
  0x6e, 0x8e, 0x75, 0xbe, 0x77, 0x7c, 0x10, 0xbf, 0x1d, 0xad, 0xd1, 0xbe,
  0xfc, 0xf3, 0x85, 0xbe, 0x3c, 0x1a, 0x8e, 0x3e, 0x1b, 0x41, 0x61, 0x3d,
  0xb2, 0x62, 0xa6, 0xbe, 0xde, 0x39, 0x90, 0x3d, 0x5b, 0x93, 0x08, 0xbe,
  0x9e, 0x08, 0xbc, 0xbe, 0x2f, 0x42, 0x86, 0xbe, 0x16, 0x4d, 0x83, 0xbe,
  0x97, 0xa0, 0x26, 0xbf, 0x41, 0xc3, 0xf1, 0xbe, 0x54, 0x64, 0xd9, 0xbd,
  0xb2, 0x9a, 0xb0, 0x3c, 0x99, 0x2c, 0xac, 0x3e, 0x3f, 0x01, 0xe5, 0x3d,
  0x40, 0x64, 0x16, 0xbf, 0x53, 0x6d, 0xa2, 0xbd, 0xa6, 0xc2, 0xcf, 0xbe,
  0x89, 0xa3, 0x7b, 0xbe, 0x04, 0x2e, 0x5e, 0x3e, 0x01, 0x9a, 0xb2, 0xbe,
  0x66, 0x0a, 0x99, 0x3e, 0xd4, 0x39, 0x10, 0x3e, 0x81, 0x8b, 0x6d, 0xbe,
  0xc0, 0x1d, 0x12, 0xbf, 0xa7, 0x05, 0xbb, 0xbe, 0xc8, 0xe6, 0x41, 0xbc,
  0xe0, 0xb8, 0x2a, 0x3d, 0x4e, 0x9a, 0x61, 0xbe, 0x48, 0x9b, 0xcb, 0x3d,
  0xe5, 0x85, 0xaf, 0xbe, 0x99, 0x13, 0x60, 0xbe, 0x6c, 0x67, 0x5c, 0xbe,
  0xb9, 0x80, 0xb2, 0xbe, 0x0c, 0x9f, 0xf0, 0xbe, 0xc1, 0x35, 0x8f, 0xbe,
  0xe2, 0x61, 0xf6, 0xbd, 0x5e, 0x36, 0xda, 0xbd, 0x2b, 0xb0, 0x58, 0x3e,
  0xb4, 0xff, 0x1d, 0xbf, 0xa8, 0x72, 0xba, 0xbe, 0xc8, 0x61, 0x93, 0xbe,
  0xed, 0x05, 0x10, 0x3e, 0xb8, 0x22, 0x1b, 0xbf, 0x31, 0x8a, 0x98, 0xbd,
  0xb4, 0x7f, 0x50, 0xbe, 0xff, 0x1b, 0xbe, 0x3d, 0xa6, 0xac, 0x26, 0xbf,
  0x9e, 0xd4, 0x76, 0xbe, 0xdc, 0xe7, 0xf6, 0xbd, 0xfa, 0x4f, 0xb9, 0xbe,
  0x39, 0xa4, 0x3e, 0xbe, 0xc5, 0xac, 0x83, 0xbd, 0xba, 0xc2, 0x81, 0xbe,
  0x02, 0xa9, 0x1e, 0xbf, 0x3c, 0x48, 0x62, 0x3e, 0xcc, 0x8d, 0x13, 0xbf,
  0xc8, 0x49, 0x65, 0x3e, 0xb6, 0x05, 0x35, 0xbe, 0xe0, 0x06, 0xad, 0xbe,
  0xf4, 0x71, 0x2b, 0xbe, 0x31, 0xf2, 0xd5, 0xbe, 0x10, 0xd3, 0x3a, 0xbd,
  0x06, 0xa2, 0x8b, 0x3e, 0x1e, 0x27, 0x45, 0xbe, 0x38, 0xbb, 0x59, 0x3d,
  0xba, 0xaf, 0xad, 0xbe, 0x62, 0xd1, 0x9a, 0xbe, 0x5c, 0x62, 0x7d, 0xbe,
  0x30, 0x78, 0xc6, 0xbe, 0x15, 0xe7, 0x80, 0xbd, 0xf6, 0x9d, 0x0c, 0xbf,
  0x8c, 0xe2, 0x87, 0xbc, 0xd8, 0xe4, 0x83, 0xbe, 0xcc, 0xa7, 0xc3, 0x3d,
  0x73, 0x08, 0x25, 0xbe, 0x50, 0x46, 0x7a, 0xbe, 0xa6, 0x1d, 0x3c, 0x3d,
  0x02, 0xbf, 0x99, 0xbe, 0xa9, 0xaa, 0x81, 0xbe, 0x3c, 0x06, 0xe9, 0xbc,
  0x8a, 0xbd, 0x32, 0xbe, 0x08, 0x91, 0xb2, 0xbd, 0xeb, 0x72, 0x87, 0xbe,
  0x54, 0x13, 0x2f, 0x3e, 0xe3, 0xbc, 0x97, 0xbe, 0x8b, 0x69, 0xa8, 0xbf,
  0xa5, 0x5c, 0x8a, 0x3e, 0x8d, 0x15, 0x91, 0xbd, 0xcf, 0x87, 0x1a, 0xbd,
  0x80, 0x6b, 0x4d, 0x3f, 0xc8, 0xfe, 0x9c, 0xbe, 0x26, 0xb6, 0xa7, 0x3e,
  0xac, 0x17, 0x80, 0x3e, 0x68, 0x0d, 0x14, 0x3d, 0x47, 0x45, 0xd7, 0x3e,
  0x84, 0x16, 0x32, 0x3f, 0x70, 0x51, 0xa6, 0x3e, 0xc3, 0xfa, 0xbe, 0xbf,
  0x7b, 0x21, 0x9e, 0xbe, 0x3f, 0xa0, 0x49, 0xbf, 0x20, 0x05, 0x69, 0xbd,
  0xd5, 0xd7, 0x78, 0xbf, 0x28, 0x65, 0x28, 0xbf, 0x99, 0xc4, 0x89, 0x3c,
  0x5b, 0xe1, 0xda, 0xbe, 0xaf, 0xf1, 0x61, 0xbf, 0x2f, 0x46, 0x69, 0x3d,
  0x4b, 0x2c, 0xac, 0xbe, 0x40, 0x8c, 0x53, 0xbd, 0x29, 0xb0, 0x99, 0xbe,
  0xef, 0x95, 0x09, 0x3e, 0x73, 0x61, 0x5e, 0x3f, 0xad, 0x62, 0xfb, 0xbe,
  0xc3, 0x96, 0x0f, 0x3e, 0x52, 0x77, 0xd5, 0x3d, 0x7e, 0x41, 0xa4, 0x3e,
  0xa4, 0x04, 0x80, 0x3e, 0xf1, 0x0f, 0x9a, 0xbf, 0x13, 0xad, 0x4d, 0x3f,
  0xf6, 0xe2, 0x06, 0x3f, 0xad, 0x0e, 0x48, 0x3f, 0x7e, 0xc4, 0xaf, 0xbe,
  0x65, 0xcb, 0x3a, 0xbe, 0x5b, 0x5a, 0x38, 0x3e, 0xe8, 0x47, 0xd0, 0xbc,
  0xc7, 0xc8, 0xae, 0x3c, 0x98, 0x5e, 0x95, 0xbe, 0xe7, 0x3d, 0x46, 0x3e,
  0xcb, 0x83, 0x7e, 0xbe, 0x40, 0x81, 0xbd, 0xbb, 0xa6, 0xd1, 0x82, 0x3e,
  0xb4, 0xcc, 0xe9, 0x3d, 0x7b, 0x64, 0x9e, 0x3e, 0x1e, 0xb5, 0x0d, 0xbe,
  0x5c, 0xd7, 0x3e, 0x3e, 0x62, 0x5f, 0x6d, 0xbf, 0xd3, 0x61, 0x56, 0xbe,
  0xad, 0xb2, 0x88, 0xbe, 0xdb, 0xf3, 0x3a, 0xbf, 0xe2, 0x93, 0x06, 0xbe,
  0xd2, 0xf4, 0x81, 0x3e, 0x5f, 0xa4, 0x4d, 0xbf, 0xb5, 0x44, 0x1d, 0xbf,
  0x64, 0xad, 0x35, 0xbf, 0x61, 0x51, 0x88, 0xbe, 0xd3, 0xb5, 0xcf, 0xbc,
  0x0f, 0xa9, 0x1d, 0xbf, 0xc8, 0x64, 0x91, 0x3e, 0x57, 0x06, 0x55, 0x3e,
  0x8b, 0x4e, 0x97, 0x3e, 0xbc, 0x59, 0x09, 0xbf, 0x95, 0x0e, 0x60, 0x3e,
  0x74, 0xbe, 0x62, 0x3a, 0xdb, 0xc5, 0x5f, 0xbf, 0xe8, 0x3f, 0x8b, 0x3c,
  0x1c, 0xcc, 0x74, 0x3e, 0x5b, 0xef, 0x82, 0x3e, 0xc9, 0xac, 0xef, 0xbe,
  0x28, 0x85, 0xca, 0x3d, 0x7c, 0xf6, 0x34, 0x3e, 0x51, 0x99, 0xab, 0xbf,
  0x81, 0xa0, 0xb3, 0x3e, 0x94, 0xd6, 0x7a, 0xbd, 0x3a, 0x7f, 0x08, 0xbf,
  0x9c, 0x47, 0x49, 0x3e, 0x4c, 0x4d, 0xcc, 0x3d, 0xcb, 0x23, 0x12, 0x3f,
  0x97, 0x4c, 0x98, 0x3e, 0xa3, 0xfe, 0x2c, 0x3f, 0x5e, 0x70, 0xcc, 0xbd,
  0x8e, 0x99, 0x36, 0x3e, 0xd7, 0x3a, 0x95, 0x3e, 0x46, 0x78, 0x36, 0x3e,
  0x1f, 0x97, 0x47, 0xbf, 0xdb, 0xfe, 0x34, 0xbf, 0x09, 0x22, 0xab, 0x3e,
  0xa5, 0xaa, 0x26, 0xbf, 0x55, 0x7d, 0x11, 0x3f, 0x18, 0x70, 0xbb, 0xbf,
  0x6e, 0xc8, 0x36, 0x3e, 0x12, 0xbc, 0xb6, 0xbd, 0x33, 0x1c, 0x43, 0xbe,
  0xde, 0xc3, 0x1b, 0xbf, 0x68, 0xaa, 0x31, 0x3f, 0xef, 0xd6, 0x9b, 0x3e,
  0x9a, 0xe3, 0x80, 0xbf, 0x0e, 0x7f, 0x1d, 0x3f, 0xc4, 0x93, 0xa6, 0x3e,
  0xec, 0x3e, 0x04, 0x3e, 0x10, 0x3c, 0x8c, 0xbf, 0xaa, 0x1d, 0xcd, 0x3e,
  0x1f, 0xa6, 0xf4, 0x3e, 0x73, 0xb7, 0xb9, 0x3e, 0xf4, 0x49, 0x0e, 0x3f,
  0xb0, 0x1c, 0xf8, 0xbf, 0xb9, 0xa2, 0x56, 0x3d, 0xc5, 0xa9, 0xeb, 0x3e,
  0x16, 0x9a, 0xe7, 0xbe, 0x02, 0x6f, 0x79, 0xbe, 0x05, 0xa6, 0xe6, 0x3e,
  0xb8, 0x92, 0x8d, 0xbe, 0x48, 0x99, 0x57, 0xbe, 0x17, 0x21, 0xed, 0xbe,
  0x7f, 0x79, 0x0a, 0xbf, 0xaa, 0xda, 0xd8, 0xbf, 0xb7, 0x0e, 0x15, 0x3f,
  0x46, 0xb8, 0x08, 0x3e, 0x43, 0x92, 0xd8, 0xbe, 0x4c, 0xcb, 0x8f, 0x3e,
  0x73, 0x99, 0x1d, 0x3f, 0xaf, 0x45, 0x28, 0x3f, 0x36, 0xee, 0xb2, 0x3c,
  0xbf, 0xcb, 0x9d, 0x3e, 0x9c, 0x7c, 0x30, 0xbf, 0x1f, 0xe6, 0x13, 0x3f,
  0x82, 0xfb, 0xae, 0xbe, 0xe4, 0x93, 0x8d, 0x3e, 0xb4, 0x7f, 0x8f, 0xbe,
  0x98, 0xee, 0xa9, 0xbe, 0x3a, 0xea, 0x25, 0xbf, 0x2b, 0x78, 0x65, 0x3e,
  0x03, 0xe8, 0x48, 0x3f, 0xbb, 0xe1, 0xfb, 0xbf, 0xa8, 0x9d, 0x5c, 0xbf,
  0x34, 0x5e, 0x22, 0x3e, 0xad, 0x9d, 0x93, 0x3e, 0x19, 0x3f, 0xbb, 0xbe,
  0x8f, 0x0b, 0xae, 0xbf, 0x20, 0xa0, 0x74, 0xbf, 0x58, 0x17, 0x68, 0xbd,
  0xdb, 0xe9, 0xe3, 0xbd, 0x4a, 0x61, 0xb9, 0xbc, 0xb9, 0x1c, 0xd2, 0xbe,
  0x1c, 0xa0, 0xf8, 0xbe, 0x15, 0xa1, 0x9b, 0xbe, 0x49, 0xde, 0x03, 0xbf,
  0x60, 0x67, 0xc5, 0xbc, 0xd6, 0x0f, 0x08, 0x3e, 0x47, 0xfb, 0x85, 0xbe,
  0x15, 0xba, 0x4c, 0xbe, 0x0f, 0x0d, 0xc8, 0xbe, 0xa6, 0x18, 0xcc, 0xbe,
  0x78, 0xc8, 0x78, 0xbd, 0x3e, 0xe1, 0xa8, 0x3d, 0xc8, 0x47, 0xec, 0x3d,
  0x43, 0x8e, 0xb5, 0xbc, 0x2b, 0x59, 0xad, 0xbd, 0x09, 0x02, 0xa0, 0x3d,
  0xc2, 0x43, 0xb2, 0x3c, 0xfd, 0xde, 0x0d, 0x3e, 0xaa, 0x29, 0x8f, 0xbe,
  0xe2, 0xdc, 0x31, 0x3d, 0xb3, 0x27, 0x22, 0xbe, 0xfe, 0xe2, 0xf2, 0xbd,
  0xfd, 0x5a, 0x07, 0xbf, 0x91, 0x07, 0x32, 0xbf, 0x13, 0x7d, 0x63, 0xbd,
  0xd6, 0x73, 0xac, 0xbe, 0x33, 0x94, 0x3b, 0xbe, 0xfb, 0x6b, 0xc6, 0xbe,
  0xec, 0x4e, 0x5e, 0xbe, 0x8a, 0xdb, 0xbd, 0xbe, 0x35, 0x74, 0xe2, 0xbd,
  0xe7, 0xe3, 0x90, 0xbe, 0x38, 0xd4, 0x5a, 0xbe, 0x18, 0xa2, 0xfd, 0xbc,
  0x35, 0xc8, 0x04, 0x3e, 0x17, 0x28, 0x19, 0xbf, 0x57, 0x4c, 0x52, 0x3f,
  0x90, 0x6a, 0x8b, 0xbe, 0x55, 0xa3, 0x97, 0xbe, 0x93, 0xd9, 0x3b, 0x3e,
  0xd0, 0x46, 0x2d, 0xbe, 0x80, 0xf6, 0x26, 0x3c, 0x4d, 0xeb, 0x45, 0xbf,
  0xd3, 0xab, 0x34, 0x3e, 0x9c, 0x1a, 0x49, 0xbf, 0x4d, 0x2e, 0x31, 0xbe,
  0x30, 0x99, 0x9d, 0x3d, 0x4f, 0x7c, 0xa5, 0x3e, 0x4e, 0xab, 0xb9, 0xbd,
  0x3f, 0x6a, 0x7e, 0xbd, 0x9e, 0xa8, 0xf6, 0x3e, 0x4b, 0x53, 0x6a, 0xbe,
  0xe5, 0x2a, 0xef, 0x3c, 0x36, 0xdf, 0xb2, 0xbe, 0xc4, 0xa6, 0xa7, 0x3e,
  0xd0, 0x42, 0x6a, 0xbd, 0xe8, 0x48, 0x85, 0xbd, 0x52, 0x26, 0x6e, 0x3e,
  0x98, 0x4d, 0x75, 0x3e, 0x75, 0x8e, 0x6a, 0xc0, 0x18, 0xe4, 0xcc, 0xbb,
  0x8a, 0x83, 0x33, 0x3f, 0x5e, 0xb6, 0x92, 0x3b, 0x7a, 0x5f, 0x0d, 0xbf,
  0x51, 0xad, 0xcc, 0xbe, 0xd6, 0xbd, 0x97, 0x3d, 0x23, 0x2f, 0x55, 0x3e,
  0xd3, 0x89, 0x8f, 0x3e, 0x5a, 0xda, 0x01, 0xbe, 0x00, 0x00, 0x00, 0x00,
  0xfa, 0xf6, 0xff, 0xff, 0x04, 0x00, 0x00, 0x00, 0xa0, 0x05, 0x00, 0x00,
  0x74, 0x76, 0x1a, 0x40, 0x0d, 0x95, 0x9d, 0xbe, 0xb8, 0x1e, 0x1c, 0xbf,
  0x06, 0x6f, 0x4d, 0x3e, 0x60, 0x5f, 0x84, 0x3f, 0x3d, 0xd2, 0xde, 0x3d,
  0x93, 0xdd, 0xb3, 0xbe, 0x66, 0x95, 0x3d, 0x3f, 0xe8, 0xf3, 0x07, 0x3f,
  0x82, 0xb2, 0x10, 0xbe, 0x1e, 0xef, 0x86, 0xbf, 0xa5, 0x5f, 0x3e, 0x3e,
  0x35, 0x1a, 0xf5, 0x3e, 0xf0, 0x63, 0x77, 0xbe, 0x6b, 0x31, 0x05, 0x3f,
  0x4d, 0x90, 0x4f, 0xbc, 0xf0, 0xa9, 0x88, 0x3f, 0xb5, 0x8d, 0xf9, 0xbe,
  0x8d, 0x6e, 0x10, 0xbf, 0x75, 0x11, 0xaa, 0x3e, 0xee, 0x69, 0x8f, 0x3e,
  0xe3, 0x28, 0xd5, 0xbe, 0x85, 0x86, 0x24, 0x3e, 0x13, 0x74, 0x8e, 0x3e,
  0xaf, 0x65, 0xb0, 0x3e, 0xc6, 0x48, 0x83, 0xbd, 0x55, 0xb7, 0xb7, 0x3e,
  0x78, 0xd7, 0x00, 0x3f, 0x0d, 0xc6, 0x4f, 0xbe, 0x35, 0xd8, 0xb6, 0x3e,
  0xde, 0x9d, 0xa9, 0xbe, 0xa4, 0xa8, 0xba, 0xbe, 0x76, 0x8b, 0x13, 0xbf,
  0x6c, 0x8a, 0x86, 0x3d, 0x5d, 0xab, 0x0a, 0x3e, 0x9d, 0x4a, 0xd1, 0x3f,
  0x3d, 0x6e, 0x0a, 0x3f, 0x96, 0xa6, 0x80, 0xbf, 0x66, 0xce, 0x39, 0x3f,
  0x0d, 0xf8, 0xaf, 0xbe, 0xf7, 0x36, 0xce, 0xbf, 0xbf, 0x41, 0x9d, 0x3e,
  0xf1, 0xca, 0x13, 0x3e, 0x52, 0xe0, 0x1f, 0x3e, 0xdc, 0xa8, 0x5d, 0x3e,
  0x92, 0x50, 0x4c, 0x3f, 0x5f, 0xbe, 0x50, 0x3f, 0xbe, 0xd7, 0xe4, 0x3e,
  0x1c, 0x0b, 0x51, 0xbe, 0xe4, 0xa8, 0xf4, 0xbd, 0x0a, 0x0e, 0xb0, 0xbe,
  0x63, 0xd0, 0x1b, 0xbe, 0xc0, 0x35, 0xc7, 0xbd, 0x40, 0xe2, 0x44, 0xbd,
  0x3e, 0xc5, 0xee, 0xbd, 0x52, 0x8c, 0x60, 0x3e, 0xb4, 0xf7, 0x8d, 0xbe,
  0x45, 0xc1, 0x8d, 0xbe, 0x97, 0x73, 0x83, 0xbe, 0x18, 0x58, 0x0a, 0xbd,
  0xe0, 0xb0, 0x1b, 0xbf, 0xc8, 0xf9, 0x7c, 0xbf, 0x7b, 0x88, 0x04, 0xbf,
  0x00, 0x11, 0x64, 0x3d, 0xfb, 0x74, 0x48, 0x3f, 0x4d, 0xd8, 0xc7, 0x3f,
  0x6e, 0xe1, 0x0c, 0x3f, 0xbd, 0xba, 0xe6, 0xbd, 0x1a, 0xd6, 0xd3, 0xbc,
  0x04, 0x95, 0x02, 0xbe, 0xfd, 0x94, 0x16, 0xbe, 0x47, 0xdc, 0x83, 0x3e,
  0x59, 0xfb, 0xb2, 0xbe, 0x4b, 0xee, 0x9b, 0x3e, 0x28, 0x87, 0x05, 0xbe,
  0x6e, 0xce, 0x24, 0x3e, 0xd3, 0x42, 0x13, 0xbe, 0x1c, 0x4c, 0x85, 0xbe,
  0xc8, 0xd3, 0x4e, 0xbd, 0x85, 0xfe, 0x6c, 0xbe, 0xe2, 0x1a, 0x99, 0xbe,
  0x10, 0x2c, 0xe2, 0xbc, 0xc0, 0xd5, 0x14, 0xbc, 0x66, 0x10, 0x6a, 0xbe,
  0x6c, 0x45, 0xb6, 0xbe, 0xa0, 0xd7, 0x95, 0x3d, 0x99, 0xdc, 0xb0, 0xbe,
  0x96, 0x02, 0x39, 0x3e, 0x40, 0x84, 0xe3, 0x3c, 0xc6, 0x38, 0x6f, 0x3e,
  0x51, 0x32, 0xb3, 0x3d, 0x8c, 0x1b, 0x36, 0xbe, 0xda, 0x5e, 0x62, 0x3f,
  0xf2, 0x66, 0x18, 0x3e, 0xf5, 0x1f, 0x01, 0x3f, 0x3e, 0xee, 0x7c, 0xbf,
  0x05, 0x8a, 0x22, 0x3f, 0x5b, 0x7c, 0x36, 0x3f, 0xdf, 0x95, 0x26, 0xbf,
  0x1f, 0xb4, 0x12, 0xbe, 0x68, 0x88, 0xed, 0xbf, 0x13, 0x3d, 0x27, 0x3e,
  0xfd, 0xa5, 0x2b, 0x3f, 0xb3, 0x38, 0x25, 0xbe, 0xf4, 0xf7, 0x95, 0x3e,
  0x47, 0x23, 0x91, 0x3f, 0xa7, 0x19, 0x9d, 0x3f, 0xc4, 0xcd, 0xa8, 0xbe,
  0x48, 0xa4, 0xd5, 0xbe, 0x4e, 0xef, 0x3d, 0x3e, 0xda, 0xb2, 0x62, 0xbf,
  0x47, 0xec, 0x5a, 0x3f, 0xbf, 0xb6, 0x9b, 0x3f, 0x5d, 0x7d, 0xaf, 0x3e,
  0xdb, 0xac, 0x33, 0x3f, 0x5d, 0x63, 0x73, 0xbf, 0xad, 0xda, 0x71, 0x3f,
  0x47, 0x58, 0x79, 0x3f, 0x0b, 0xa1, 0xda, 0xbe, 0x20, 0xe8, 0xd0, 0xbd,
  0x18, 0xb6, 0x20, 0x40, 0x72, 0x3d, 0x8e, 0x3c, 0xb7, 0x1e, 0x08, 0xbf,
  0x2e, 0x8e, 0x0b, 0xbe, 0xc8, 0x43, 0x66, 0x3f, 0x91, 0x4a, 0x17, 0xbe,
  0x98, 0x18, 0xb3, 0xbe, 0xf9, 0x74, 0x51, 0x3f, 0xc3, 0x6d, 0x49, 0x3f,
  0x7a, 0x53, 0x64, 0x3e, 0xfb, 0x13, 0x61, 0xbe, 0x85, 0x45, 0x42, 0xbe,
  0x80, 0xb6, 0xf1, 0x3b, 0x23, 0x6d, 0xab, 0xbe, 0xe0, 0xb3, 0x8c, 0x3d,
  0x20, 0x23, 0xe4, 0xbc, 0x00, 0xc9, 0xce, 0xbb, 0x79, 0x93, 0x74, 0xbe,
  0xf6, 0x59, 0x96, 0xbe, 0x60, 0xe5, 0x2a, 0xbd, 0xd3, 0x95, 0xae, 0x3f,
  0x19, 0x23, 0xc9, 0x3f, 0x94, 0x94, 0x93, 0x3f, 0xf0, 0xd5, 0x91, 0x3c,
  0x33, 0x9f, 0x7f, 0xbe, 0x79, 0x21, 0x76, 0xbf, 0x0f, 0xe4, 0x5b, 0xbe,
  0x32, 0x94, 0xa3, 0x3e, 0x87, 0xae, 0x32, 0x3f, 0x60, 0x9a, 0xaf, 0xbc,
  0xb4, 0xca, 0xf4, 0x3d, 0x30, 0xfb, 0xa7, 0x3c, 0x0d, 0xe4, 0xb1, 0xbe,
  0x39, 0x6b, 0x88, 0x3e, 0xa0, 0x62, 0x6d, 0xbd, 0xc0, 0x07, 0x2f, 0x3d,
  0x8c, 0x7b, 0xa4, 0xbd, 0x0c, 0x8a, 0x82, 0xbd, 0x14, 0xca, 0xab, 0xbe,
  0xa0, 0x79, 0x3c, 0xbc, 0xfd, 0x47, 0xf7, 0x3f, 0xec, 0xa2, 0xc3, 0xbe,
  0xe7, 0x12, 0x24, 0xbf, 0x61, 0x36, 0xae, 0x3e, 0x20, 0x8d, 0x5d, 0x3e,
  0xe5, 0xaf, 0xde, 0x3d, 0x55, 0xba, 0x4c, 0xbf, 0x89, 0xf7, 0xbb, 0x3f,
  0x10, 0xdf, 0x88, 0x3f, 0xe9, 0xf4, 0xa0, 0x3e, 0x95, 0xa0, 0x0f, 0x40,
  0xbd, 0x04, 0x31, 0x3e, 0x90, 0xff, 0x4c, 0x3d, 0xb6, 0x42, 0x77, 0x3e,
  0xf4, 0x3b, 0x48, 0xbe, 0x64, 0xa2, 0x8b, 0x3f, 0xa2, 0xa4, 0x6e, 0xb7,
  0xfb, 0x2c, 0xfa, 0xbe, 0x48, 0x84, 0xca, 0x3f, 0x91, 0xff, 0xab, 0x3e,
  0xe2, 0x7e, 0x71, 0x3f, 0x55, 0x0e, 0xad, 0xbd, 0x9a, 0x91, 0x08, 0xbe,
  0xcb, 0xed, 0x9c, 0x3e, 0x94, 0x4c, 0x68, 0x3f, 0x03, 0x63, 0x0f, 0xbf,
  0xcc, 0x64, 0x19, 0x3f, 0xba, 0x83, 0x8c, 0x3f, 0x6b, 0x51, 0x13, 0xbc,
  0xd4, 0x79, 0x99, 0x3d, 0xb8, 0xdc, 0xca, 0x3f, 0x9c, 0x9f, 0x8e, 0xbf,
  0x3a, 0xe6, 0xa7, 0xbe, 0xbf, 0x0e, 0x03, 0xbe, 0xc9, 0x00, 0x2c, 0x3f,
  0x6d, 0x66, 0xbd, 0x3e, 0x52, 0x9c, 0xe5, 0x3e, 0xc4, 0xc5, 0xda, 0xbd,
  0x0e, 0x08, 0x70, 0x3d, 0xf5, 0x68, 0xa0, 0xbe, 0x81, 0xad, 0xdd, 0x3f,
  0x79, 0x1b, 0xbf, 0x3f, 0xab, 0x4b, 0xb5, 0x3f, 0x54, 0xe7, 0xb7, 0xbe,
  0xd4, 0x45, 0x03, 0x3e, 0x0b, 0x16, 0xd4, 0xbf, 0x7b, 0x53, 0xd5, 0x3d,
  0x74, 0xe2, 0x17, 0x3f, 0x40, 0xfb, 0xf3, 0x3e, 0xeb, 0xd1, 0xa8, 0x3e,
  0xdf, 0xe8, 0x4f, 0xbf, 0x0d, 0xd6, 0x61, 0x3e, 0x2e, 0x41, 0x70, 0xbe,
  0xa8, 0x51, 0x0b, 0xbd, 0x82, 0xc4, 0x1b, 0xbc, 0xc9, 0xfc, 0xf5, 0x3f,
  0x74, 0xd3, 0x00, 0xbc, 0x1d, 0x71, 0x5b, 0xbf, 0x2f, 0x2d, 0x8e, 0x3f,
  0xc6, 0x57, 0x39, 0xbe, 0xe6, 0x97, 0x96, 0x3f, 0xff, 0xe1, 0x91, 0x3f,
  0x21, 0x94, 0xb6, 0x3f, 0x08, 0x93, 0xb6, 0x3d, 0x28, 0x4d, 0x1e, 0xbe,
  0xe6, 0x66, 0x95, 0xbf, 0x43, 0x0b, 0x45, 0xbd, 0xe6, 0x2c, 0xc7, 0x3e,
  0x6e, 0x8a, 0xfa, 0x3e, 0x94, 0xb2, 0xa1, 0xbd, 0xd8, 0x9c, 0xcc, 0xbd,
  0xe0, 0x8a, 0xa0, 0xbd, 0x95, 0x0d, 0x8a, 0x3e, 0xde, 0x57, 0xb7, 0xbe,
  0x24, 0x1a, 0xbf, 0xbd, 0xa4, 0x0b, 0x3c, 0xbe, 0x39, 0x6f, 0x23, 0xbe,
  0xbd, 0x4f, 0xa1, 0xbe, 0x80, 0x69, 0x08, 0xbe, 0xe1, 0x39, 0x82, 0x3e,
  0x61, 0x62, 0x2e, 0xbe, 0x34, 0x25, 0xb8, 0xbe, 0x45, 0xa5, 0x00, 0xbe,
  0xb2, 0x63, 0x6d, 0x3e, 0xdc, 0x82, 0x67, 0xbe, 0xca, 0x34, 0x5a, 0x3e,
  0xb1, 0xb3, 0x03, 0xbe, 0x55, 0xc2, 0x15, 0xbd, 0xf0, 0xe2, 0xb8, 0x3d,
  0x54, 0xd4, 0x9d, 0xbd, 0x3a, 0xa8, 0x3b, 0xbf, 0x89, 0x76, 0x32, 0x3f,
  0xee, 0x4c, 0x1f, 0x3f, 0x5a, 0x4b, 0x34, 0xbe, 0x7a, 0x16, 0xe7, 0xbe,
  0x11, 0xa6, 0x7c, 0x3e, 0xfb, 0xb0, 0xe0, 0xbe, 0x7f, 0x9e, 0x26, 0x3f,
  0xa5, 0x13, 0x51, 0x3f, 0xa4, 0x7c, 0x5c, 0xbe, 0xc2, 0xfc, 0x19, 0xc0,
  0x5f, 0x25, 0x89, 0x3f, 0x92, 0x8f, 0x81, 0x3f, 0xac, 0x99, 0x68, 0xbe,
  0xd8, 0x76, 0x0a, 0x3e, 0xe4, 0xcf, 0x57, 0xbf, 0xf2, 0xd1, 0x10, 0x3f,
  0x24, 0x96, 0x29, 0x3f, 0x41, 0xb2, 0xdd, 0xbc, 0xd8, 0x27, 0xb8, 0x3d,
  0xd1, 0xc7, 0x04, 0x40, 0xc6, 0x87, 0x0b, 0xbf, 0xdc, 0x76, 0x8f, 0xbd,
  0x59, 0x03, 0xb0, 0x3e, 0x89, 0xcb, 0x50, 0x3f, 0xd6, 0xae, 0x05, 0xbd,
  0xfa, 0x59, 0x16, 0x3f, 0xf5, 0x49, 0x78, 0xbc, 0xcd, 0xf9, 0xed, 0xbe,
  0xa9, 0xe2, 0x84, 0x3e, 0x41, 0x82, 0x19, 0x3f, 0x8d, 0x8d, 0x9f, 0xbf,
  0xe2, 0x4c, 0x60, 0xbf, 0x1a, 0xa1, 0x01, 0x3e, 0xff, 0x31, 0xfa, 0x3e,
  0x24, 0xb2, 0xd4, 0x3f, 0xa3, 0x55, 0x19, 0x3f, 0x0c, 0xe5, 0x19, 0xbf,
  0xda, 0x9b, 0x8f, 0x3e, 0x00, 0xb4, 0x71, 0x3a, 0x18, 0x5a, 0x30, 0xbf,
  0x8d, 0x85, 0xcd, 0x3f, 0x9f, 0xe4, 0xa0, 0x3f, 0x56, 0x55, 0x89, 0xbe,
  0x9c, 0xbc, 0xa3, 0xbe, 0x0a, 0x8a, 0xf4, 0xbe, 0xbe, 0xa2, 0xd5, 0x3e,
  0x8b, 0x6b, 0x05, 0x3f, 0x7f, 0xd9, 0xe1, 0xbd, 0x22, 0x8c, 0x1b, 0x3e,
  0xa6, 0xd6, 0xd8, 0xbe, 0xfa, 0x4d, 0x25, 0xbe, 0xbf, 0x02, 0x25, 0x3f,
  0xa8, 0x9a, 0x7d, 0xbe, 0x5d, 0xa3, 0x9a, 0x3f, 0x0c, 0x3b, 0x21, 0xbf,
  0x7d, 0x9f, 0x93, 0x3f, 0x32, 0xc9, 0xe9, 0x3c, 0x75, 0xce, 0x10, 0xbf,
  0x20, 0x30, 0x09, 0xbd, 0xb0, 0x25, 0x79, 0xbf, 0x61, 0x7d, 0x46, 0x3f,
  0x61, 0x22, 0x1c, 0xbe, 0xf1, 0x59, 0x85, 0x3e, 0xdc, 0x87, 0x56, 0xbe,
  0xb9, 0xa4, 0x75, 0x3e, 0x46, 0xb2, 0x7d, 0xbe, 0x80, 0x3c, 0x8d, 0x3f,
  0xbc, 0xbd, 0x56, 0x3f, 0x45, 0x88, 0xa9, 0xbe, 0x9f, 0xb9, 0xc0, 0x3f,
  0x2b, 0x7d, 0xaf, 0x3e, 0xa3, 0x9e, 0xaf, 0xbe, 0x80, 0xed, 0x4c, 0xbe,
  0x76, 0xe7, 0xce, 0x3e, 0xd7, 0x65, 0x9f, 0x3f, 0x92, 0x9d, 0x09, 0xbf,
  0xe4, 0x9d, 0xba, 0x3e, 0x41, 0x78, 0x83, 0x3f, 0x75, 0x1d, 0x58, 0xbe,
  0x8a, 0x23, 0xb5, 0xbf, 0xc7, 0xe5, 0x2f, 0x3e, 0xf2, 0x0e, 0xc7, 0x3e,
  0x80, 0xc6, 0x1d, 0x3d, 0x1a, 0x38, 0xc9, 0x3e, 0x03, 0x90, 0x4d, 0x3f,
  0x82, 0xf7, 0x3f, 0x3f, 0xa5, 0x07, 0x1f, 0x3d, 0x8d, 0x1e, 0xc9, 0xbe,
  0x34, 0x9a, 0x81, 0xbe, 0x41, 0x26, 0xf8, 0x3d, 0x50, 0xea, 0x0d, 0xbc,
  0xf7, 0xa1, 0x51, 0x3f, 0x68, 0x80, 0x12, 0xbd, 0xad, 0x70, 0x83, 0x3d,
  0x14, 0xcb, 0x2a, 0xbf, 0xc2, 0xa3, 0x87, 0x3f, 0x9b, 0xe3, 0xc8, 0xbe,
  0x26, 0x70, 0x1e, 0xbf, 0x86, 0x50, 0x20, 0xbe, 0x77, 0xd8, 0xe3, 0xbf,
  0x1a, 0xc1, 0x05, 0x3f, 0xc6, 0x11, 0x2d, 0x3e, 0xba, 0x6c, 0x2b, 0x3e,
  0x70, 0x74, 0xfe, 0x3e, 0xbd, 0x26, 0x48, 0x3f, 0x6a, 0x5f, 0xb7, 0x3f,
  0x99, 0xac, 0x75, 0xbd, 0x4d, 0x50, 0x27, 0xbf, 0xf0, 0x4a, 0x9a, 0xbd,
  0x00, 0x00, 0x00, 0x00, 0xaa, 0xfc, 0xff, 0xff, 0x04, 0x00, 0x00, 0x00,
  0x40, 0x01, 0x00, 0x00, 0x0a, 0x8a, 0xc0, 0xbf, 0x0d, 0x78, 0xf0, 0xbf,
  0x1e, 0xf5, 0x8e, 0xbf, 0xb7, 0x5d, 0x84, 0x3f, 0x49, 0x15, 0x98, 0x3f,
  0xb5, 0x62, 0x4c, 0xbf, 0xc6, 0x31, 0x53, 0x3e, 0x52, 0x69, 0x69, 0x3f,
  0x1c, 0xea, 0x7a, 0xbf, 0x99, 0x44, 0xbf, 0x3a, 0xcb, 0x77, 0xf8, 0x3f,
  0x59, 0x36, 0x9c, 0x3f, 0x82, 0x13, 0x2f, 0xbf, 0x14, 0x97, 0x8a, 0x3f,
  0x5b, 0xa4, 0xcd, 0x3e, 0xb8, 0xe1, 0x50, 0xbf, 0xee, 0x2f, 0xb1, 0xbe,
  0x8b, 0x90, 0xed, 0xbd, 0xdb, 0x9a, 0x23, 0x40, 0xf1, 0x79, 0x9c, 0x3f,
  0x3d, 0xd7, 0x3e, 0x3f, 0xd9, 0x5c, 0x93, 0xbc, 0xed, 0xb9, 0xf8, 0x3e,
  0xa4, 0x61, 0x2c, 0xbf, 0x02, 0xfc, 0x25, 0xbe, 0xc0, 0x6f, 0x69, 0xbc,
  0xe0, 0xff, 0xb6, 0xbe, 0x12, 0xd3, 0xf8, 0xbe, 0x44, 0x55, 0x97, 0xbe,
  0x7f, 0x68, 0x91, 0xbe, 0x00, 0x26, 0x1f, 0x3c, 0x8a, 0x64, 0xee, 0xbe,
  0xcf, 0x35, 0x89, 0x3f, 0x9d, 0xe3, 0xd8, 0x3e, 0x63, 0x39, 0x1e, 0xbf,
  0x56, 0x28, 0xe9, 0x3f, 0xd8, 0x81, 0x9e, 0x3f, 0x15, 0x3b, 0xcc, 0xbe,
  0xff, 0x29, 0x07, 0xbd, 0xe2, 0x2e, 0x81, 0x3f, 0x58, 0xb2, 0x33, 0x3f,
  0x56, 0x89, 0xb1, 0x3f, 0xf1, 0x14, 0xfe, 0xbf, 0xd9, 0xa1, 0x8b, 0xbf,
  0x25, 0x27, 0xc3, 0x3e, 0x80, 0xee, 0x09, 0x3f, 0xd3, 0x45, 0x18, 0x3f,
  0xad, 0xa8, 0xbc, 0x3e, 0x77, 0x22, 0x08, 0x40, 0xd1, 0xc4, 0xe5, 0x3f,
  0xaa, 0xda, 0xb5, 0x3f, 0x27, 0xd4, 0x9e, 0x3f, 0xaf, 0xf5, 0x8c, 0x3f,
  0x59, 0xd8, 0x91, 0xbf, 0x36, 0x98, 0x3c, 0x3e, 0x35, 0xfe, 0xcd, 0x3e,
  0x22, 0x46, 0xb4, 0xbf, 0x8a, 0x77, 0x9a, 0xbe, 0x0e, 0x14, 0x8c, 0x3f,
  0xa9, 0xa7, 0xc3, 0x3f, 0x36, 0xa5, 0x19, 0x3f, 0xe8, 0xe0, 0x82, 0x3f,
  0xad, 0x6d, 0x61, 0xbe, 0xd2, 0xe1, 0x9e, 0x3f, 0xfc, 0xa5, 0xb1, 0xbf,
  0xcb, 0x4a, 0x7a, 0xbf, 0xcd, 0x90, 0x7e, 0xbf, 0x01, 0x82, 0xc5, 0xbd,
  0x7d, 0xd3, 0x85, 0x3e, 0xaf, 0x8f, 0x8e, 0x3f, 0x99, 0x23, 0x69, 0x3f,
  0x56, 0x66, 0x2c, 0x3e, 0x8e, 0x0f, 0x20, 0xbe, 0x4c, 0xbf, 0x91, 0xbe,
  0xf0, 0xcd, 0xd3, 0xbe, 0x35, 0x70, 0xcd, 0xbe, 0x30, 0x92, 0xbc, 0x3e,
  0x80, 0xe0, 0x39, 0xbd, 0x1f, 0x3b, 0x91, 0xbe, 0xea, 0xe4, 0x8e, 0xbe,
  0x00, 0x00, 0x00, 0x00, 0xfa, 0xfd, 0xff, 0xff, 0x04, 0x00, 0x00, 0x00,
  0x68, 0x00, 0x00, 0x00, 0x23, 0x46, 0xa4, 0xbd, 0xfc, 0x70, 0xef, 0xbd,
  0x99, 0xf0, 0xd0, 0x3d, 0xeb, 0x9f, 0xc6, 0xbd, 0x3b, 0x45, 0x06, 0x3f,
  0x11, 0x49, 0xc0, 0xbd, 0xec, 0x6f, 0x3e, 0xbe, 0xcf, 0x22, 0xd7, 0xbc,
  0x7f, 0x12, 0x80, 0xbd, 0x45, 0xc1, 0xec, 0xbd, 0x12, 0x04, 0x8b, 0xbd,
  0x42, 0xe2, 0x04, 0xbe, 0xe6, 0xd2, 0x8e, 0xbd, 0xa5, 0xfd, 0x76, 0xbc,
  0xa2, 0x64, 0x0c, 0xbe, 0x22, 0x2e, 0xb6, 0xbd, 0x10, 0x57, 0x26, 0x3e,
  0xa2, 0xe7, 0x15, 0xbe, 0x6c, 0x1e, 0x89, 0xbd, 0xaa, 0x53, 0xff, 0xbd,
  0xae, 0xf3, 0x26, 0x3e, 0xed, 0xea, 0x47, 0xbd, 0x21, 0xfd, 0xa7, 0xbe,
  0xd0, 0x5b, 0x36, 0x3e, 0x59, 0xdc, 0xae, 0xbd, 0x6a, 0xcb, 0x21, 0x3f,
  0x00, 0x00, 0x00, 0x00, 0x00, 0x00, 0x00, 0x00, 0x00, 0x00, 0x00, 0x00,
  0x7a, 0xfe, 0xff, 0xff, 0x04, 0x00, 0x00, 0x00, 0x90, 0x00, 0x00, 0x00,
  0x72, 0x1f, 0x0d, 0x3f, 0x73, 0x3d, 0xda, 0x3d, 0x4e, 0xf7, 0x86, 0xbe,
  0xc2, 0x77, 0x66, 0x3f, 0xa3, 0xf3, 0x5f, 0xbe, 0x00, 0x00, 0x00, 0x00,
  0x16, 0xfc, 0xa7, 0x3e, 0x00, 0x00, 0x00, 0x00, 0x00, 0x00, 0x00, 0x00,
  0xac, 0x6f, 0xc2, 0xbd, 0x85, 0x5b, 0xb9, 0x3e, 0x2e, 0xa7, 0xa7, 0xbe,
  0x2e, 0x5d, 0x4b, 0x3e, 0x00, 0x00, 0x00, 0x00, 0xac, 0x02, 0xd9, 0x3e,
  0x00, 0x00, 0x00, 0x00, 0xbb, 0x54, 0xae, 0x3e, 0x18, 0x80, 0x84, 0x3f,
  0xfb, 0x97, 0x13, 0xbe, 0xaf, 0xf3, 0xce, 0x3e, 0x20, 0xbf, 0xab, 0x3d,
  0x1e, 0xd2, 0x4b, 0x3f, 0x52, 0x27, 0xa1, 0x3e, 0x00, 0x00, 0x00, 0x00,
  0x3b, 0x64, 0xbe, 0xbc, 0x3f, 0x64, 0xe5, 0x3e, 0x05, 0xf6, 0xdd, 0xbe,
  0xdb, 0xc6, 0x46, 0x3e, 0x16, 0xb6, 0x4b, 0x3f, 0x9e, 0xe9, 0x13, 0x3e,
  0xaf, 0x6f, 0x85, 0xbe, 0x76, 0x31, 0x85, 0xbe, 0x0e, 0x24, 0xb4, 0x3e,
  0x2f, 0x4a, 0x59, 0xbc, 0xf4, 0xcb, 0xdc, 0x3e, 0x01, 0xc2, 0xe1, 0x3d,
  0x00, 0x00, 0x00, 0x00, 0x1a, 0xff, 0xff, 0xff, 0x04, 0x00, 0x00, 0x00,
  0x28, 0x00, 0x00, 0x00, 0xe1, 0x2f, 0x6d, 0x3f, 0x27, 0x6c, 0x10, 0x3e,
  0x14, 0xfe, 0x60, 0x3d, 0x00, 0x00, 0x00, 0x00, 0xbe, 0x41, 0x3b, 0x3c,
  0x52, 0x4d, 0x13, 0x3f, 0xb5, 0x4c, 0x8f, 0x3d, 0x47, 0x3c, 0x18, 0xbe,
  0x84, 0x63, 0x5a, 0x3f, 0x00, 0x00, 0x00, 0x00, 0x00, 0x00, 0x00, 0x00,
  0x60, 0xfa, 0xff, 0xff, 0x00, 0x00, 0x00, 0x00, 0x00, 0x00, 0x00, 0x00,
  0x00, 0x00, 0x00, 0x00, 0x70, 0xfa, 0xff, 0xff, 0x00, 0x00, 0x00, 0x00,
  0x00, 0x00, 0x00, 0x00, 0x00, 0x00, 0x00, 0x00, 0x0f, 0x00, 0x00, 0x00,
  0x4d, 0x4c, 0x49, 0x52, 0x20, 0x43, 0x6f, 0x6e, 0x76, 0x65, 0x72, 0x74,
  0x65, 0x64, 0x2e, 0x00, 0x01, 0x00, 0x00, 0x00, 0x14, 0x00, 0x00, 0x00,
  0x00, 0x00, 0x0e, 0x00, 0x18, 0x00, 0x04, 0x00, 0x08, 0x00, 0x0c, 0x00,
  0x10, 0x00, 0x14, 0x00, 0x0e, 0x00, 0x00, 0x00, 0x4c, 0x01, 0x00, 0x00,
  0x40, 0x01, 0x00, 0x00, 0x34, 0x01, 0x00, 0x00, 0x14, 0x00, 0x00, 0x00,
  0x04, 0x00, 0x00, 0x00, 0x04, 0x00, 0x00, 0x00, 0x6d, 0x61, 0x69, 0x6e,
  0x00, 0x00, 0x00, 0x00, 0x04, 0x00, 0x00, 0x00, 0xdc, 0x00, 0x00, 0x00,
  0x94, 0x00, 0x00, 0x00, 0x50, 0x00, 0x00, 0x00, 0x14, 0x00, 0x00, 0x00,
  0x00, 0x00, 0x0e, 0x00, 0x1a, 0x00, 0x08, 0x00, 0x0c, 0x00, 0x10, 0x00,
  0x07, 0x00, 0x14, 0x00, 0x0e, 0x00, 0x00, 0x00, 0x00, 0x00, 0x00, 0x09,
  0x01, 0x00, 0x00, 0x00, 0x24, 0x00, 0x00, 0x00, 0x18, 0x00, 0x00, 0x00,
  0x0c, 0x00, 0x00, 0x00, 0x00, 0x00, 0x06, 0x00, 0x08, 0x00, 0x04, 0x00,
  0x06, 0x00, 0x00, 0x00, 0x00, 0x00, 0x80, 0x3f, 0x01, 0x00, 0x00, 0x00,
  0x0a, 0x00, 0x00, 0x00, 0x01, 0x00, 0x00, 0x00, 0x09, 0x00, 0x00, 0x00,
  0xce, 0xff, 0xff, 0xff, 0x00, 0x00, 0x00, 0x08, 0x18, 0x00, 0x00, 0x00,
  0x0c, 0x00, 0x00, 0x00, 0x04, 0x00, 0x00, 0x00, 0x40, 0xfb, 0xff, 0xff,
  0x01, 0x00, 0x00, 0x00, 0x09, 0x00, 0x00, 0x00, 0x03, 0x00, 0x00, 0x00,
  0x08, 0x00, 0x00, 0x00, 0x06, 0x00, 0x00, 0x00, 0x03, 0x00, 0x00, 0x00,
  0x00, 0x00, 0x0e, 0x00, 0x14, 0x00, 0x00, 0x00, 0x08, 0x00, 0x0c, 0x00,
  0x07, 0x00, 0x10, 0x00, 0x0e, 0x00, 0x00, 0x00, 0x00, 0x00, 0x00, 0x08,
  0x1c, 0x00, 0x00, 0x00, 0x10, 0x00, 0x00, 0x00, 0x04, 0x00, 0x00, 0x00,
  0xba, 0xff, 0xff, 0xff, 0x00, 0x00, 0x00, 0x01, 0x01, 0x00, 0x00, 0x00,
  0x08, 0x00, 0x00, 0x00, 0x03, 0x00, 0x00, 0x00, 0x07, 0x00, 0x00, 0x00,
  0x05, 0x00, 0x00, 0x00, 0x02, 0x00, 0x00, 0x00, 0x00, 0x00, 0x0e, 0x00,
  0x16, 0x00, 0x00, 0x00, 0x08, 0x00, 0x0c, 0x00, 0x07, 0x00, 0x10, 0x00,
  0x0e, 0x00, 0x00, 0x00, 0x00, 0x00, 0x00, 0x08, 0x24, 0x00, 0x00, 0x00,
  0x18, 0x00, 0x00, 0x00, 0x0c, 0x00, 0x00, 0x00, 0x00, 0x00, 0x06, 0x00,
  0x08, 0x00, 0x07, 0x00, 0x06, 0x00, 0x00, 0x00, 0x00, 0x00, 0x00, 0x01,
  0x01, 0x00, 0x00, 0x00, 0x07, 0x00, 0x00, 0x00, 0x03, 0x00, 0x00, 0x00,
  0x00, 0x00, 0x00, 0x00, 0x04, 0x00, 0x00, 0x00, 0x01, 0x00, 0x00, 0x00,
  0x01, 0x00, 0x00, 0x00, 0x0a, 0x00, 0x00, 0x00, 0x01, 0x00, 0x00, 0x00,
  0x00, 0x00, 0x00, 0x00, 0x0b, 0x00, 0x00, 0x00, 0xdc, 0x03, 0x00, 0x00,
  0x6c, 0x03, 0x00, 0x00, 0x00, 0x03, 0x00, 0x00, 0xa4, 0x02, 0x00, 0x00,
  0x60, 0x02, 0x00, 0x00, 0x18, 0x02, 0x00, 0x00, 0xd0, 0x01, 0x00, 0x00,
  0x4c, 0x01, 0x00, 0x00, 0xc0, 0x00, 0x00, 0x00, 0x4c, 0x00, 0x00, 0x00,
  0x04, 0x00, 0x00, 0x00, 0x64, 0xfc, 0xff, 0xff, 0x34, 0x00, 0x00, 0x00,
  0x0b, 0x00, 0x00, 0x00, 0x1c, 0x00, 0x00, 0x00, 0x14, 0x00, 0x00, 0x00,
  0x04, 0x00, 0x00, 0x00, 0x02, 0x00, 0x00, 0x00, 0xff, 0xff, 0xff, 0xff,
  0x1a, 0x00, 0x00, 0x00, 0x50, 0xfc, 0xff, 0xff, 0x08, 0x00, 0x00, 0x00,
  0x49, 0x64, 0x65, 0x6e, 0x74, 0x69, 0x74, 0x79, 0x00, 0x00, 0x00, 0x00,
  0x02, 0x00, 0x00, 0x00, 0x01, 0x00, 0x00, 0x00, 0x1a, 0x00, 0x00, 0x00,
  0xa8, 0xfc, 0xff, 0xff, 0x60, 0x00, 0x00, 0x00, 0x0a, 0x00, 0x00, 0x00,
  0x1c, 0x00, 0x00, 0x00, 0x14, 0x00, 0x00, 0x00, 0x04, 0x00, 0x00, 0x00,
  0x02, 0x00, 0x00, 0x00, 0xff, 0xff, 0xff, 0xff, 0x1a, 0x00, 0x00, 0x00,
  0x94, 0xfc, 0xff, 0xff, 0x34, 0x00, 0x00, 0x00, 0x73, 0x65, 0x71, 0x75,
  0x65, 0x6e, 0x74, 0x69, 0x61, 0x6c, 0x2f, 0x64, 0x65, 0x6e, 0x73, 0x65,
  0x5f, 0x32, 0x2f, 0x4d, 0x61, 0x74, 0x4d, 0x75, 0x6c, 0x3b, 0x73, 0x65,
  0x71, 0x75, 0x65, 0x6e, 0x74, 0x69, 0x61, 0x6c, 0x2f, 0x64, 0x65, 0x6e,
  0x73, 0x65, 0x5f, 0x32, 0x2f, 0x42, 0x69, 0x61, 0x73, 0x41, 0x64, 0x64,
  0x00, 0x00, 0x00, 0x00, 0x02, 0x00, 0x00, 0x00, 0x01, 0x00, 0x00, 0x00,
  0x1a, 0x00, 0x00, 0x00, 0x18, 0xfd, 0xff, 0xff, 0x78, 0x00, 0x00, 0x00,
  0x09, 0x00, 0x00, 0x00, 0x1c, 0x00, 0x00, 0x00, 0x14, 0x00, 0x00, 0x00,
  0x04, 0x00, 0x00, 0x00, 0x02, 0x00, 0x00, 0x00, 0xff, 0xff, 0xff, 0xff,
  0x24, 0x00, 0x00, 0x00, 0x04, 0xfd, 0xff, 0xff, 0x4c, 0x00, 0x00, 0x00,
  0x73, 0x65, 0x71, 0x75, 0x65, 0x6e, 0x74, 0x69, 0x61, 0x6c, 0x2f, 0x64,
  0x65, 0x6e, 0x73, 0x65, 0x5f, 0x31, 0x2f, 0x4d, 0x61, 0x74, 0x4d, 0x75,
  0x6c, 0x3b, 0x73, 0x65, 0x71, 0x75, 0x65, 0x6e, 0x74, 0x69, 0x61, 0x6c,
  0x2f, 0x64, 0x65, 0x6e, 0x73, 0x65, 0x5f, 0x31, 0x2f, 0x52, 0x65, 0x6c,
  0x75, 0x3b, 0x73, 0x65, 0x71, 0x75, 0x65, 0x6e, 0x74, 0x69, 0x61, 0x6c,
  0x2f, 0x64, 0x65, 0x6e, 0x73, 0x65, 0x5f, 0x31, 0x2f, 0x42, 0x69, 0x61,
  0x73, 0x41, 0x64, 0x64, 0x00, 0x00, 0x00, 0x00, 0x02, 0x00, 0x00, 0x00,
  0x01, 0x00, 0x00, 0x00, 0x24, 0x00, 0x00, 0x00, 0xa0, 0xfd, 0xff, 0xff,
  0x70, 0x00, 0x00, 0x00, 0x08, 0x00, 0x00, 0x00, 0x1c, 0x00, 0x00, 0x00,
  0x14, 0x00, 0x00, 0x00, 0x04, 0x00, 0x00, 0x00, 0x02, 0x00, 0x00, 0x00,
  0xff, 0xff, 0xff, 0xff, 0x0a, 0x00, 0x00, 0x00, 0x8c, 0xfd, 0xff, 0xff,
  0x46, 0x00, 0x00, 0x00, 0x73, 0x65, 0x71, 0x75, 0x65, 0x6e, 0x74, 0x69,
  0x61, 0x6c, 0x2f, 0x64, 0x65, 0x6e, 0x73, 0x65, 0x2f, 0x4d, 0x61, 0x74,
  0x4d, 0x75, 0x6c, 0x3b, 0x73, 0x65, 0x71, 0x75, 0x65, 0x6e, 0x74, 0x69,
  0x61, 0x6c, 0x2f, 0x64, 0x65, 0x6e, 0x73, 0x65, 0x2f, 0x52, 0x65, 0x6c,
  0x75, 0x3b, 0x73, 0x65, 0x71, 0x75, 0x65, 0x6e, 0x74, 0x69, 0x61, 0x6c,
  0x2f, 0x64, 0x65, 0x6e, 0x73, 0x65, 0x2f, 0x42, 0x69, 0x61, 0x73, 0x41,
  0x64, 0x64, 0x00, 0x00, 0x02, 0x00, 0x00, 0x00, 0x01, 0x00, 0x00, 0x00,
  0x0a, 0x00, 0x00, 0x00, 0x86, 0xfe, 0xff, 0xff, 0x34, 0x00, 0x00, 0x00,
  0x07, 0x00, 0x00, 0x00, 0x0c, 0x00, 0x00, 0x00, 0x04, 0x00, 0x00, 0x00,
  0xfc, 0xfd, 0xff, 0xff, 0x19, 0x00, 0x00, 0x00, 0x73, 0x65, 0x71, 0x75,
  0x65, 0x6e, 0x74, 0x69, 0x61, 0x6c, 0x2f, 0x64, 0x65, 0x6e, 0x73, 0x65,
  0x5f, 0x32, 0x2f, 0x4d, 0x61, 0x74, 0x4d, 0x75, 0x6c, 0x00, 0x00, 0x00,
  0x02, 0x00, 0x00, 0x00, 0x1a, 0x00, 0x00, 0x00, 0x24, 0x00, 0x00, 0x00,
  0xca, 0xfe, 0xff, 0xff, 0x34, 0x00, 0x00, 0x00, 0x06, 0x00, 0x00, 0x00,
  0x0c, 0x00, 0x00, 0x00, 0x04, 0x00, 0x00, 0x00, 0x40, 0xfe, 0xff, 0xff,
  0x19, 0x00, 0x00, 0x00, 0x73, 0x65, 0x71, 0x75, 0x65, 0x6e, 0x74, 0x69,
  0x61, 0x6c, 0x2f, 0x64, 0x65, 0x6e, 0x73, 0x65, 0x5f, 0x31, 0x2f, 0x4d,
  0x61, 0x74, 0x4d, 0x75, 0x6c, 0x00, 0x00, 0x00, 0x02, 0x00, 0x00, 0x00,
  0x24, 0x00, 0x00, 0x00, 0x0a, 0x00, 0x00, 0x00, 0x0e, 0xff, 0xff, 0xff,
  0x30, 0x00, 0x00, 0x00, 0x05, 0x00, 0x00, 0x00, 0x0c, 0x00, 0x00, 0x00,
  0x04, 0x00, 0x00, 0x00, 0x84, 0xfe, 0xff, 0xff, 0x17, 0x00, 0x00, 0x00,
  0x73, 0x65, 0x71, 0x75, 0x65, 0x6e, 0x74, 0x69, 0x61, 0x6c, 0x2f, 0x64,
  0x65, 0x6e, 0x73, 0x65, 0x2f, 0x4d, 0x61, 0x74, 0x4d, 0x75, 0x6c, 0x00,
  0x02, 0x00, 0x00, 0x00, 0x0a, 0x00, 0x00, 0x00, 0x08, 0x00, 0x00, 0x00,
  0x4e, 0xff, 0xff, 0xff, 0x4c, 0x00, 0x00, 0x00, 0x04, 0x00, 0x00, 0x00,
  0x0c, 0x00, 0x00, 0x00, 0x04, 0x00, 0x00, 0x00, 0xc4, 0xfe, 0xff, 0xff,
  0x32, 0x00, 0x00, 0x00, 0x73, 0x65, 0x71, 0x75, 0x65, 0x6e, 0x74, 0x69,
  0x61, 0x6c, 0x2f, 0x64, 0x65, 0x6e, 0x73, 0x65, 0x5f, 0x32, 0x2f, 0x42,
  0x69, 0x61, 0x73, 0x41, 0x64, 0x64, 0x2f, 0x52, 0x65, 0x61, 0x64, 0x56,
  0x61, 0x72, 0x69, 0x61, 0x62, 0x6c, 0x65, 0x4f, 0x70, 0x2f, 0x72, 0x65,
  0x73, 0x6f, 0x75, 0x72, 0x63, 0x65, 0x00, 0x00, 0x01, 0x00, 0x00, 0x00,
  0x1a, 0x00, 0x00, 0x00, 0xa6, 0xff, 0xff, 0xff, 0x4c, 0x00, 0x00, 0x00,
  0x03, 0x00, 0x00, 0x00, 0x0c, 0x00, 0x00, 0x00, 0x04, 0x00, 0x00, 0x00,
  0x1c, 0xff, 0xff, 0xff, 0x32, 0x00, 0x00, 0x00, 0x73, 0x65, 0x71, 0x75,
  0x65, 0x6e, 0x74, 0x69, 0x61, 0x6c, 0x2f, 0x64, 0x65, 0x6e, 0x73, 0x65,
  0x5f, 0x31, 0x2f, 0x42, 0x69, 0x61, 0x73, 0x41, 0x64, 0x64, 0x2f, 0x52,
  0x65, 0x61, 0x64, 0x56, 0x61, 0x72, 0x69, 0x61, 0x62, 0x6c, 0x65, 0x4f,
  0x70, 0x2f, 0x72, 0x65, 0x73, 0x6f, 0x75, 0x72, 0x63, 0x65, 0x00, 0x00,
  0x01, 0x00, 0x00, 0x00, 0x24, 0x00, 0x00, 0x00, 0x00, 0x00, 0x0e, 0x00,
  0x14, 0x00, 0x04, 0x00, 0x00, 0x00, 0x08, 0x00, 0x0c, 0x00, 0x10, 0x00,
  0x0e, 0x00, 0x00, 0x00, 0x4c, 0x00, 0x00, 0x00, 0x02, 0x00, 0x00, 0x00,
  0x0c, 0x00, 0x00, 0x00, 0x04, 0x00, 0x00, 0x00, 0x84, 0xff, 0xff, 0xff,
  0x30, 0x00, 0x00, 0x00, 0x73, 0x65, 0x71, 0x75, 0x65, 0x6e, 0x74, 0x69,
  0x61, 0x6c, 0x2f, 0x64, 0x65, 0x6e, 0x73, 0x65, 0x2f, 0x42, 0x69, 0x61,
  0x73, 0x41, 0x64, 0x64, 0x2f, 0x52, 0x65, 0x61, 0x64, 0x56, 0x61, 0x72,
  0x69, 0x61, 0x62, 0x6c, 0x65, 0x4f, 0x70, 0x2f, 0x72, 0x65, 0x73, 0x6f,
  0x75, 0x72, 0x63, 0x65, 0x00, 0x00, 0x00, 0x00, 0x01, 0x00, 0x00, 0x00,
  0x0a, 0x00, 0x00, 0x00, 0x14, 0x00, 0x18, 0x00, 0x04, 0x00, 0x00, 0x00,
  0x08, 0x00, 0x0c, 0x00, 0x10, 0x00, 0x00, 0x00, 0x00, 0x00, 0x14, 0x00,
  0x14, 0x00, 0x00, 0x00, 0x38, 0x00, 0x00, 0x00, 0x01, 0x00, 0x00, 0x00,
  0x20, 0x00, 0x00, 0x00, 0x18, 0x00, 0x00, 0x00, 0x04, 0x00, 0x00, 0x00,
  0x02, 0x00, 0x00, 0x00, 0xff, 0xff, 0xff, 0xff, 0x08, 0x00, 0x00, 0x00,
  0x04, 0x00, 0x04, 0x00, 0x04, 0x00, 0x00, 0x00, 0x0b, 0x00, 0x00, 0x00,
  0x64, 0x65, 0x6e, 0x73, 0x65, 0x5f, 0x69, 0x6e, 0x70, 0x75, 0x74, 0x00,
  0x02, 0x00, 0x00, 0x00, 0x01, 0x00, 0x00, 0x00, 0x08, 0x00, 0x00, 0x00,
  0x02, 0x00, 0x00, 0x00, 0x2c, 0x00, 0x00, 0x00, 0x10, 0x00, 0x00, 0x00,
  0x0c, 0x00, 0x0c, 0x00, 0x07, 0x00, 0x00, 0x00, 0x00, 0x00, 0x08, 0x00,
  0x0c, 0x00, 0x00, 0x00, 0x00, 0x00, 0x00, 0x19, 0x19, 0x00, 0x00, 0x00,
  0x0c, 0x00, 0x10, 0x00, 0x07, 0x00, 0x00, 0x00, 0x08, 0x00, 0x0c, 0x00,
  0x0c, 0x00, 0x00, 0x00, 0x00, 0x00, 0x00, 0x09, 0x09, 0x00, 0x00, 0x00,
  0x09, 0x00, 0x00, 0x00
};

#endif //MY_MODEL_H