#ifndef THREE_MODEL_H
#define THREE_MODEL_H


unsigned int three_model_len = 7728;
unsigned char three_model[] = {
 0x1c, 0x00, 0x00, 0x00, 0x54, 0x46, 0x4c, 0x33, 0x00, 0x00, 0x12, 0x00,
  0x1c, 0x00, 0x04, 0x00, 0x08, 0x00, 0x0c, 0x00, 0x10, 0x00, 0x14, 0x00,
  0x00, 0x00, 0x18, 0x00, 0x12, 0x00, 0x00, 0x00, 0x03, 0x00, 0x00, 0x00,
  0xcc, 0x1d, 0x00, 0x00, 0x10, 0x18, 0x00, 0x00, 0xf8, 0x17, 0x00, 0x00,
  0x3c, 0x00, 0x00, 0x00, 0x04, 0x00, 0x00, 0x00, 0x01, 0x00, 0x00, 0x00,
  0x0c, 0x00, 0x00, 0x00, 0x08, 0x00, 0x0c, 0x00, 0x04, 0x00, 0x08, 0x00,
  0x08, 0x00, 0x00, 0x00, 0x08, 0x00, 0x00, 0x00, 0x0c, 0x00, 0x00, 0x00,
  0x13, 0x00, 0x00, 0x00, 0x6d, 0x69, 0x6e, 0x5f, 0x72, 0x75, 0x6e, 0x74,
  0x69, 0x6d, 0x65, 0x5f, 0x76, 0x65, 0x72, 0x73, 0x69, 0x6f, 0x6e, 0x00,
  0x0d, 0x00, 0x00, 0x00, 0xac, 0x17, 0x00, 0x00, 0x98, 0x17, 0x00, 0x00,
  0x5c, 0x17, 0x00, 0x00, 0xb8, 0x16, 0x00, 0x00, 0x34, 0x16, 0x00, 0x00,
  0xe0, 0x14, 0x00, 0x00, 0x2c, 0x0f, 0x00, 0x00, 0x78, 0x00, 0x00, 0x00,
  0x6c, 0x00, 0x00, 0x00, 0x58, 0x00, 0x00, 0x00, 0x44, 0x00, 0x00, 0x00,
  0x30, 0x00, 0x00, 0x00, 0x04, 0x00, 0x00, 0x00, 0xf2, 0xe7, 0xff, 0xff,
  0x04, 0x00, 0x00, 0x00, 0x10, 0x00, 0x00, 0x00, 0x31, 0x2e, 0x35, 0x2e,
  0x30, 0x00, 0x00, 0x00, 0x00, 0x00, 0x00, 0x00, 0x00, 0x00, 0x00, 0x00,
  0x00, 0x00, 0x00, 0x00, 0x00, 0x00, 0x00, 0x00, 0x00, 0x00, 0x00, 0x00,
  0x04, 0xe3, 0xff, 0xff, 0x00, 0x00, 0x00, 0x00, 0x00, 0x00, 0x00, 0x00,
  0x00, 0x00, 0x00, 0x00, 0x14, 0xe3, 0xff, 0xff, 0x00, 0x00, 0x00, 0x00,
  0x00, 0x00, 0x00, 0x00, 0x00, 0x00, 0x00, 0x00, 0x24, 0xe3, 0xff, 0xff,
  0x00, 0x00, 0x00, 0x00, 0x00, 0x00, 0x00, 0x00, 0x00, 0x00, 0x00, 0x00,
  0x34, 0xe3, 0xff, 0xff, 0x00, 0x00, 0x00, 0x00, 0x52, 0xe8, 0xff, 0xff,
  0x04, 0x00, 0x00, 0x00, 0xa0, 0x0e, 0x00, 0x00, 0xae, 0xc5, 0x40, 0xbf,
  0x56, 0xb6, 0x14, 0x3e, 0x06, 0xac, 0x87, 0xbf, 0x87, 0x89, 0x3e, 0x3e,
  0xc8, 0x75, 0x05, 0xbe, 0x67, 0xfe, 0xf9, 0x3c, 0x4a, 0x48, 0xae, 0xbe,
  0x4d, 0x9e, 0x00, 0xbf, 0xfa, 0xd0, 0xc9, 0x3c, 0xde, 0x91, 0x19, 0xbe,
  0x01, 0xf3, 0x36, 0xbf, 0x01, 0x5e, 0xfc, 0x3e, 0xa0, 0x6a, 0xa6, 0xbf,
  0x2e, 0x77, 0x7b, 0xbf, 0x21, 0x07, 0x64, 0x3e, 0x63, 0x30, 0xbd, 0x3e,
  0x1a, 0x02, 0x05, 0xbe, 0x5c, 0x02, 0x04, 0x3f, 0x18, 0x75, 0x8c, 0x3e,
  0xca, 0x5a, 0x8a, 0x3e, 0x34, 0x5e, 0x05, 0xbe, 0xb3, 0xbe, 0xb0, 0xbf,
  0xc4, 0xe8, 0xfc, 0xbe, 0xe9, 0x71, 0xf0, 0xbd, 0x5e, 0xd1, 0xd9, 0x3e,
  0x9d, 0x96, 0x0c, 0xc0, 0x4c, 0x75, 0x1c, 0xbf, 0x2e, 0xff, 0x68, 0xbd,
  0x98, 0x81, 0x2a, 0xbe, 0x53, 0x20, 0xf3, 0x3e, 0x2d, 0x16, 0xe6, 0xbe,
  0xf0, 0x79, 0x01, 0x3e, 0x38, 0xa5, 0x0c, 0xc0, 0x3d, 0x99, 0x5d, 0x3e,
  0xa7, 0xf8, 0xe5, 0x3e, 0x38, 0xc6, 0x39, 0xbf, 0xd2, 0x5a, 0xff, 0xbd,
  0x18, 0x6a, 0x8c, 0x3e, 0x69, 0x80, 0x6e, 0x3f, 0x0a, 0x3a, 0x72, 0xbf,
  0xff, 0xc4, 0x80, 0xbf, 0x0d, 0xca, 0x1c, 0x3e, 0xff, 0xcb, 0x42, 0x3f,
  0x79, 0xae, 0x84, 0x3f, 0xc1, 0xfd, 0x8b, 0xbe, 0xac, 0x92, 0x10, 0x3e,
  0xe3, 0x85, 0x9c, 0x3d, 0xbc, 0x3a, 0xdc, 0xbf, 0x27, 0xa5, 0x6c, 0x3e,
  0x9a, 0x69, 0x47, 0xbf, 0xe6, 0x77, 0xbd, 0x3e, 0x63, 0xc3, 0x80, 0x3d,
  0xb9, 0x0a, 0xad, 0xbf, 0x53, 0xae, 0x5a, 0xbf, 0x7c, 0xae, 0x2d, 0xbf,
  0x73, 0xa6, 0x6d, 0xbf, 0x4e, 0x42, 0x0f, 0x3f, 0xce, 0xb5, 0x1d, 0x3f,
  0x0a, 0xee, 0x93, 0xbf, 0x8a, 0x7e, 0x01, 0x3f, 0xad, 0xfa, 0x94, 0xbf,
  0x1b, 0xaa, 0x83, 0x3e, 0xc5, 0xd7, 0x8b, 0x3d, 0xdc, 0xa1, 0x52, 0xbe,
  0xd5, 0xdd, 0xe5, 0x3d, 0x8b, 0x67, 0xcd, 0xbf, 0x7c, 0xb6, 0x9d, 0xbf,
  0x4d, 0x9f, 0xc2, 0xbf, 0x1d, 0xe0, 0x05, 0xc0, 0x40, 0x72, 0xfa, 0xbe,
  0x5a, 0xf9, 0xc7, 0xbf, 0x8b, 0x24, 0x73, 0x3e, 0xd9, 0x4c, 0x47, 0xbf,
  0x54, 0x83, 0x03, 0x3f, 0xb8, 0xc2, 0x02, 0x3f, 0xbd, 0xa1, 0x8e, 0xbf,
  0xd4, 0xeb, 0xa3, 0xbf, 0xfe, 0x51, 0x38, 0x3f, 0x80, 0x88, 0xe3, 0x3e,
  0x09, 0x26, 0x70, 0x3f, 0x8c, 0x6a, 0x61, 0x3e, 0x7e, 0x6d, 0x09, 0x3f,
  0x45, 0xc1, 0xd3, 0xbd, 0xf9, 0x7b, 0x88, 0xbf, 0xf5, 0x57, 0x9c, 0x3d,
  0xc8, 0x8d, 0xdf, 0xbd, 0x20, 0xec, 0x50, 0x3f, 0x2e, 0xde, 0x06, 0xbf,
  0x44, 0xf6, 0x7f, 0xbf, 0x6e, 0xc7, 0x5c, 0xbe, 0x62, 0xb3, 0x2a, 0x3e,
  0x6c, 0x0e, 0x3b, 0xbf, 0xf6, 0xf1, 0x45, 0x3f, 0xe5, 0x44, 0xbe, 0xbd,
  0x4f, 0x2b, 0x15, 0xbe, 0x6f, 0x68, 0x02, 0x3e, 0x6a, 0x07, 0xf8, 0xbe,
  0xcd, 0x3d, 0xb4, 0xbe, 0x70, 0x5b, 0x2a, 0x3d, 0x9e, 0x7f, 0xe2, 0x3e,
  0xa4, 0x51, 0x98, 0xbd, 0xc4, 0xf9, 0x55, 0xbe, 0xdc, 0x88, 0x23, 0xbf,
  0x0c, 0xda, 0x68, 0xbe, 0xeb, 0xc9, 0xe9, 0xbf, 0x5c, 0x81, 0x80, 0xbf,
  0x24, 0x7e, 0x9c, 0xbe, 0xaa, 0x5e, 0x0d, 0xbf, 0x9c, 0x4a, 0x83, 0xbe,
  0x69, 0xed, 0x25, 0xbe, 0xd5, 0x21, 0x0a, 0x3f, 0xb6, 0x03, 0x2f, 0xc0,
  0xe8, 0xd7, 0xe4, 0xbe, 0x58, 0xae, 0xb0, 0x3e, 0x6b, 0xf4, 0x62, 0xbc,
  0xc1, 0x80, 0xf9, 0x3e, 0x43, 0x48, 0x17, 0x3f, 0x8c, 0x39, 0x71, 0xbe,
  0x66, 0xca, 0x2c, 0x3f, 0x1f, 0xde, 0x15, 0xbf, 0x50, 0x56, 0x1b, 0x3f,
  0x05, 0xc7, 0x18, 0x3f, 0x8e, 0x5d, 0x82, 0xbf, 0x98, 0x99, 0x73, 0xbf,
  0x01, 0xba, 0xe1, 0x3e, 0x6c, 0x8a, 0xc6, 0xbe, 0x50, 0x20, 0x89, 0xbf,
  0x1c, 0x35, 0xdb, 0xbe, 0xd9, 0x1e, 0x19, 0x3f, 0x3e, 0xe7, 0x9e, 0x3e,
  0x36, 0x61, 0x2b, 0x3e, 0x08, 0xf7, 0xec, 0x3e, 0xfa, 0xd0, 0x8f, 0x3d,
  0x4a, 0xf2, 0x8b, 0xbf, 0xf0, 0xca, 0x25, 0x3f, 0x19, 0xb3, 0x00, 0x3f,
  0xa5, 0x68, 0x2f, 0x3e, 0x3b, 0xbd, 0x07, 0xbf, 0x0c, 0x60, 0x33, 0xbf,
  0x03, 0x02, 0x8e, 0xbe, 0x13, 0x87, 0x15, 0xbf, 0xb0, 0xd0, 0xbe, 0xbe,
  0x1a, 0x6d, 0xd1, 0xbd, 0x61, 0x32, 0x66, 0xbf, 0x02, 0x7e, 0x0a, 0xbe,
  0x89, 0x7f, 0x7b, 0x3d, 0x41, 0x9d, 0x99, 0xbf, 0x15, 0x7e, 0xa8, 0xbf,
  0x9b, 0x4a, 0x8a, 0x3e, 0x50, 0xb9, 0x27, 0x3d, 0x04, 0x76, 0x37, 0xbf,
  0x3d, 0x33, 0xcc, 0x3e, 0x32, 0x41, 0x99, 0x3e, 0x3e, 0x7c, 0xd6, 0x3e,
  0x25, 0xab, 0x09, 0xc0, 0xf4, 0x58, 0x7c, 0x3f, 0x85, 0xaf, 0x1b, 0xbf,
  0x58, 0xc9, 0xec, 0xbf, 0x09, 0x52, 0x12, 0xbf, 0xd7, 0xa0, 0xcd, 0x3d,
  0x5d, 0xca, 0x52, 0xbf, 0x28, 0x63, 0x82, 0x3e, 0x68, 0x0c, 0x01, 0xc0,
  0x60, 0x5e, 0x0a, 0x3f, 0x9d, 0x77, 0xcd, 0x3e, 0x3a, 0xf4, 0xf8, 0xbf,
  0x2f, 0x27, 0xd5, 0xbf, 0xca, 0xe2, 0x32, 0x3e, 0xab, 0xc2, 0x79, 0x3f,
  0x8c, 0x09, 0x2f, 0xc0, 0x5c, 0x97, 0xf8, 0xbf, 0x60, 0x42, 0xdf, 0xbf,
  0xa3, 0x06, 0x25, 0x3e, 0xc8, 0x42, 0x56, 0x3e, 0x76, 0x15, 0x1d, 0xc0,
  0x7f, 0x40, 0x43, 0x3d, 0xa6, 0x56, 0x3d, 0xc0, 0xf2, 0x08, 0xca, 0x3e,
  0x1d, 0x1e, 0xbc, 0x3e, 0xdb, 0x52, 0x86, 0xbf, 0xe4, 0x09, 0xb7, 0xbe,
  0x90, 0x50, 0x0d, 0x3f, 0x01, 0x73, 0x24, 0x3f, 0x94, 0xf8, 0xb3, 0xbf,
  0x9b, 0xa5, 0x61, 0xbe, 0x58, 0xfe, 0x2f, 0xbe, 0xcb, 0x26, 0x5d, 0x3f,
  0x23, 0x52, 0xfa, 0x3e, 0x95, 0xb3, 0x54, 0xbe, 0xe7, 0x77, 0x16, 0x3f,
  0x5f, 0xfb, 0x17, 0xc0, 0x73, 0x56, 0x51, 0xbf, 0xec, 0xa7, 0x0b, 0xbe,
  0x22, 0x92, 0x18, 0xc0, 0xfc, 0x80, 0xc4, 0x3e, 0x8d, 0x1c, 0x1e, 0x3e,
  0x8f, 0x8d, 0x93, 0xbf, 0x9a, 0xc8, 0x12, 0xbf, 0xe0, 0x52, 0x82, 0xbf,
  0x14, 0xb2, 0xbf, 0x3e, 0x99, 0xfc, 0xd6, 0x3e, 0x4f, 0x47, 0x31, 0xbe,
  0x2e, 0x53, 0x0c, 0xc0, 0x25, 0x12, 0xfc, 0xbe, 0xf5, 0x6d, 0xaa, 0x3d,
  0xd5, 0x08, 0x24, 0x3f, 0x6a, 0xcb, 0x05, 0xc0, 0x74, 0xc4, 0xcb, 0xbf,
  0x0d, 0xf7, 0xe2, 0xbc, 0x9c, 0xec, 0xb4, 0xbf, 0x62, 0xf9, 0x01, 0xc0,
  0x68, 0x57, 0x12, 0xc0, 0x1c, 0x64, 0x9e, 0xbe, 0x8a, 0xf3, 0x36, 0x3f,
  0xf9, 0xe5, 0x4d, 0xbe, 0x49, 0xe1, 0x32, 0x3f, 0xc0, 0xad, 0x0e, 0xbd,
  0xe0, 0x07, 0x38, 0xbf, 0x76, 0x77, 0x82, 0xbf, 0x9c, 0x77, 0xef, 0xbc,
  0xc5, 0xc4, 0xdd, 0xbd, 0x09, 0xd6, 0x2b, 0x3c, 0xb8, 0xf7, 0x6a, 0xbf,
  0xd5, 0xdf, 0xd5, 0xbf, 0x2c, 0x31, 0xf1, 0x3e, 0xae, 0x40, 0x2b, 0xbe,
  0x44, 0x00, 0x4a, 0xbe, 0x74, 0xe3, 0xcb, 0x3e, 0x37, 0x8b, 0x82, 0xbe,
  0x8a, 0x6f, 0xd8, 0x3e, 0x8e, 0x7e, 0x82, 0xbe, 0x2d, 0x8b, 0xa4, 0xbe,
  0xc8, 0x8c, 0x05, 0x3d, 0x65, 0x47, 0xf2, 0x3e, 0x89, 0xc0, 0x54, 0xbe,
  0xf9, 0x5b, 0x01, 0x3f, 0xe6, 0x81, 0x2b, 0xc0, 0x02, 0x0f, 0x4d, 0xbf,
  0x73, 0xad, 0xb3, 0x3e, 0x99, 0x97, 0x8e, 0x3d, 0xd4, 0xc2, 0x0b, 0x3f,
  0xa8, 0x08, 0xf9, 0xbf, 0x44, 0x03, 0x9b, 0x3e, 0x44, 0x16, 0x95, 0x3e,
  0xbb, 0xb3, 0x20, 0x3e, 0x02, 0xe6, 0x1a, 0x3e, 0xab, 0x1b, 0x61, 0x3e,
  0x25, 0x9a, 0xad, 0x3e, 0x8b, 0x59, 0x69, 0xbc, 0x9e, 0xe4, 0x6b, 0xc0,
  0xce, 0x28, 0xc9, 0x3e, 0x25, 0x69, 0xd0, 0xbe, 0x08, 0x6c, 0xf5, 0x3e,
  0xa4, 0xb7, 0x23, 0xc0, 0x55, 0xc4, 0xed, 0xbf, 0xe1, 0x81, 0xb3, 0x3e,
  0xdb, 0xe8, 0xcf, 0x3e, 0xb3, 0x7b, 0xb2, 0xbf, 0x51, 0x59, 0x34, 0xbf,
  0x25, 0xdb, 0xb0, 0xbf, 0xed, 0x84, 0x2c, 0xc0, 0x43, 0x31, 0x5b, 0xbe,
  0xf6, 0x7a, 0x56, 0xbf, 0xa1, 0xea, 0x75, 0x3f, 0xf3, 0x9f, 0x2f, 0x3e,
  0x4a, 0x75, 0x59, 0x3e, 0x3b, 0x1f, 0x72, 0xbf, 0xf0, 0xc4, 0xe8, 0x3d,
  0x00, 0xe5, 0x2d, 0x3f, 0xc9, 0x6c, 0x5f, 0x3e, 0xa4, 0xc1, 0x03, 0xbf,
  0xcf, 0x16, 0xec, 0x3e, 0x42, 0x9d, 0x05, 0xc0, 0x39, 0xba, 0x83, 0xbe,
  0x95, 0x0b, 0xe8, 0x3d, 0xcc, 0xb8, 0xe5, 0xbf, 0x1d, 0x92, 0xc7, 0xbf,
  0x4e, 0xeb, 0xfc, 0xbe, 0x49, 0xc2, 0x34, 0xbe, 0x29, 0x7e, 0xa1, 0xbd,
  0x53, 0xb9, 0x47, 0x3d, 0x81, 0x68, 0xa4, 0x3e, 0xde, 0xa9, 0x01, 0x3f,
  0xff, 0x8d, 0x0b, 0x3f, 0x5a, 0x63, 0xf6, 0x3e, 0xb8, 0xa6, 0xc4, 0xbe,
  0x78, 0x7f, 0xd0, 0x3e, 0x8e, 0x26, 0x7f, 0x3e, 0xce, 0x91, 0xcd, 0xbf,
  0x57, 0xbb, 0x56, 0x3f, 0x65, 0x4a, 0x74, 0x3e, 0x7f, 0x85, 0xd7, 0xbf,
  0x9e, 0x83, 0x16, 0xbf, 0xeb, 0xad, 0x13, 0x3f, 0x1c, 0x8c, 0xf4, 0x3d,
  0xad, 0x7e, 0x2e, 0x3f, 0x62, 0xeb, 0x41, 0x3f, 0x6a, 0x0d, 0xbe, 0x3e,
  0x53, 0xd4, 0xdf, 0xbf, 0x46, 0x5c, 0x9d, 0xbd, 0xa0, 0x5c, 0x43, 0xbf,
  0xb2, 0x18, 0xd2, 0xbf, 0xaf, 0x61, 0xbe, 0x3e, 0x2b, 0x0d, 0xa8, 0x3e,
  0xc2, 0x79, 0xf5, 0xbf, 0xd3, 0x46, 0x48, 0xbd, 0xa0, 0x4a, 0x24, 0xbf,
  0x09, 0x1e, 0x9b, 0x3e, 0x20, 0x65, 0x40, 0x3f, 0xf0, 0xaa, 0xec, 0xbf,
  0x22, 0x6c, 0xfe, 0xbf, 0xd0, 0x1b, 0xde, 0x3e, 0x35, 0x7f, 0x3e, 0x3e,
  0xb9, 0x91, 0x9c, 0xbf, 0xcb, 0x1c, 0xd4, 0xbf, 0xaf, 0x6c, 0xb2, 0xbf,
  0x90, 0x32, 0x70, 0x3e, 0x9b, 0x54, 0x04, 0x3e, 0x3f, 0x87, 0xe9, 0xbf,
  0x06, 0x6d, 0x20, 0xbf, 0x20, 0xe2, 0x19, 0xbf, 0x49, 0x8c, 0x80, 0x3e,
  0x1b, 0x2d, 0x46, 0x3e, 0xe6, 0x3e, 0xd2, 0xbf, 0x3a, 0x32, 0xf4, 0xbf,
  0x8e, 0xe5, 0xc0, 0x3e, 0x81, 0x7c, 0x48, 0xbf, 0x83, 0x9b, 0x4b, 0x3f,
  0x7c, 0x2f, 0x0a, 0xc0, 0xd9, 0x95, 0x9b, 0x3e, 0x22, 0x72, 0x65, 0xbf,
  0xe8, 0xf3, 0xb1, 0xbf, 0xa7, 0xec, 0xf1, 0x3e, 0x64, 0x3a, 0xc0, 0xbd,
  0xa7, 0x77, 0x1c, 0x3d, 0xcb, 0x59, 0xa4, 0x3b, 0xf2, 0x4b, 0xb8, 0xbf,
  0x5e, 0xfa, 0xce, 0xbe, 0x07, 0x53, 0x2e, 0x3f, 0xe7, 0x99, 0xdb, 0xbe,
  0xa3, 0x88, 0x6d, 0x3e, 0x5a, 0xd8, 0x16, 0x3f, 0x8f, 0x1b, 0x39, 0x3f,
  0xb9, 0xad, 0xac, 0xbe, 0xac, 0xc1, 0x98, 0xbf, 0x44, 0xe4, 0xde, 0xbf,
  0xbd, 0x35, 0xef, 0x3d, 0xf3, 0x45, 0xa0, 0x3e, 0x72, 0xc3, 0xd7, 0x3d,
  0xa5, 0x6d, 0xef, 0xbf, 0xe7, 0xbc, 0x19, 0xbe, 0x92, 0x4e, 0xa3, 0x3e,
  0x58, 0xce, 0x92, 0xbd, 0x9e, 0xcd, 0x01, 0x3f, 0x0e, 0x2a, 0x9e, 0x3d,
  0xed, 0x24, 0x9b, 0x3e, 0x29, 0x4b, 0x0d, 0xbf, 0xeb, 0xd5, 0x05, 0xc0,
  0x14, 0x35, 0xb9, 0x3d, 0x4b, 0x74, 0x97, 0xbf, 0x72, 0xfe, 0x05, 0xbe,
  0x11, 0x1e, 0x64, 0xbf, 0xbf, 0xcc, 0x08, 0x3f, 0x4a, 0xc5, 0x1c, 0xc0,
  0xaa, 0xa4, 0xf1, 0xbe, 0xdf, 0x73, 0xae, 0x3e, 0xe8, 0x6f, 0xb4, 0xbd,
  0x99, 0xe5, 0xcd, 0xbd, 0xb0, 0x40, 0x83, 0xbf, 0x7a, 0x31, 0x94, 0x3d,
  0x20, 0x3e, 0xd3, 0x3e, 0xd6, 0x32, 0x91, 0xbf, 0xa1, 0x21, 0xde, 0x3e,
  0x6b, 0xf2, 0x00, 0x3f, 0x9b, 0x29, 0xbe, 0xbd, 0x79, 0x0e, 0xb7, 0xbe,
  0x4c, 0xb2, 0xe6, 0x3e, 0xa5, 0x30, 0xfe, 0xbe, 0x32, 0x30, 0x83, 0xbe,
  0xf6, 0xd9, 0x2a, 0xbf, 0x85, 0x12, 0x52, 0xbd, 0x5e, 0xd0, 0xea, 0x3e,
  0x4b, 0x2f, 0x00, 0x3f, 0x5a, 0xa0, 0x9f, 0x3e, 0x27, 0x63, 0xaa, 0xbf,
  0xe1, 0xc1, 0x9b, 0x3e, 0xaa, 0x84, 0x6f, 0x3e, 0x40, 0x56, 0xff, 0x3e,
  0xfe, 0x31, 0x49, 0x3e, 0xfe, 0x72, 0x41, 0xbf, 0xb0, 0x3c, 0xd6, 0x3d,
  0x43, 0x71, 0x3f, 0xbd, 0x5f, 0xa4, 0xcf, 0xbe, 0x66, 0xba, 0xa8, 0xbf,
  0x02, 0x14, 0xc5, 0xbf, 0x3f, 0x01, 0x19, 0xbe, 0x60, 0x68, 0xb8, 0xbf,
  0xf8, 0x52, 0x48, 0xbd, 0x60, 0x3e, 0xee, 0x3e, 0x4c, 0xcd, 0xe1, 0xbe,
  0x06, 0x19, 0xe0, 0xbf, 0x26, 0x9f, 0xef, 0x3e, 0xc0, 0xdc, 0xf3, 0xbd,
  0xbc, 0x00, 0xeb, 0x3e, 0x22, 0x89, 0xe3, 0x3e, 0xe8, 0x4c, 0x88, 0xbe,
  0x07, 0x72, 0xda, 0x3d, 0x5b, 0x8e, 0x72, 0xbf, 0xee, 0x5c, 0x20, 0x3e,
  0x89, 0x47, 0xe4, 0x3e, 0x36, 0x97, 0xf3, 0x37, 0x71, 0xad, 0x2c, 0xbf,
  0x5e, 0xd2, 0xd7, 0x3e, 0x75, 0x8c, 0x5f, 0x3e, 0x6a, 0x08, 0x05, 0x3f,
  0x70, 0xe4, 0x22, 0xbf, 0x85, 0x73, 0x20, 0x3e, 0x8e, 0x26, 0xd4, 0xbe,
  0x05, 0x40, 0xe7, 0x3e, 0xd6, 0x83, 0x43, 0x3f, 0x9e, 0x32, 0x60, 0x3e,
  0xb4, 0x16, 0x22, 0xc0, 0xed, 0x0d, 0x1b, 0x3f, 0xe1, 0x0b, 0x9b, 0x3e,
  0xfd, 0x8f, 0xa9, 0xbe, 0xf8, 0x19, 0xf4, 0x3d, 0x43, 0x6b, 0x94, 0xbe,
  0x32, 0x6f, 0xfa, 0xbc, 0xbc, 0x5c, 0x7d, 0xbf, 0x23, 0x3e, 0x0f, 0xc0,
  0xa4, 0xd5, 0x11, 0xbd, 0x90, 0x70, 0x8e, 0xbf, 0x9d, 0x41, 0x9b, 0x3e,
  0x14, 0xe5, 0xa7, 0x3d, 0x38, 0x67, 0xaa, 0xbc, 0xb9, 0x19, 0x99, 0xbf,
  0x4e, 0xd2, 0x2c, 0x3e, 0xa6, 0xe7, 0x0b, 0xbf, 0xb2, 0x8a, 0xbe, 0x3e,
  0x78, 0x21, 0x88, 0x3d, 0xfe, 0x49, 0xe4, 0xbe, 0x8e, 0xf5, 0x48, 0xbe,
  0x09, 0xd4, 0x2c, 0xbf, 0x82, 0xe8, 0xbe, 0xbe, 0x85, 0x8b, 0x02, 0x3d,
  0xb8, 0x91, 0xfc, 0xbe, 0x35, 0xe4, 0x7d, 0x3e, 0xca, 0x32, 0x21, 0x3f,
  0x82, 0x7b, 0x32, 0xc0, 0xab, 0x7f, 0x77, 0xbe, 0x34, 0x62, 0xf0, 0x3b,
  0x21, 0x88, 0xd8, 0xbd, 0x78, 0x90, 0x4b, 0x3e, 0x41, 0x43, 0xe3, 0x3e,
  0x75, 0x13, 0x0c, 0xbf, 0x7a, 0xbb, 0x84, 0xbe, 0x78, 0x63, 0xd4, 0x3d,
  0x62, 0xba, 0x5c, 0x3f, 0x51, 0x1b, 0x06, 0xbf, 0xe6, 0x17, 0x0c, 0xbe,
  0x42, 0x76, 0x13, 0xbe, 0xc1, 0xc2, 0x1d, 0xbf, 0x5f, 0xc0, 0x15, 0xbd,
  0x8a, 0xcc, 0xf8, 0xbe, 0xc3, 0xe8, 0x68, 0xc0, 0x99, 0xe7, 0xef, 0x3d,
  0x30, 0x53, 0xba, 0xbe, 0x30, 0x4c, 0xff, 0x3e, 0xfa, 0x03, 0x42, 0xbf,
  0xfd, 0x14, 0xb2, 0x3e, 0x0b, 0x54, 0x45, 0x3e, 0x16, 0xd2, 0x0f, 0x3f,
  0xf1, 0x2d, 0x0c, 0xbf, 0xfe, 0xac, 0x85, 0xbe, 0x0b, 0xcc, 0xc5, 0x3e,
  0x80, 0x90, 0x0d, 0xbf, 0x09, 0xc7, 0xb2, 0xbe, 0x10, 0x80, 0xc9, 0xbd,
  0x70, 0x6e, 0xb5, 0x3d, 0x31, 0xb4, 0x09, 0xbf, 0x99, 0x56, 0xae, 0xbe,
  0x40, 0x6d, 0x0b, 0xbf, 0xfa, 0xe0, 0x41, 0x3f, 0x10, 0x31, 0x84, 0x3e,
  0xee, 0xe1, 0x82, 0xbf, 0xc1, 0xf9, 0x56, 0x3e, 0x34, 0xe2, 0x3d, 0x3f,
  0xf3, 0xf6, 0x51, 0xbe, 0xad, 0x16, 0xc3, 0xbe, 0xa4, 0xeb, 0x17, 0x3e,
  0xfe, 0xfc, 0xc3, 0xbd, 0xe9, 0x36, 0x50, 0xbe, 0x8f, 0xcf, 0xa5, 0xbe,
  0x37, 0xa6, 0x26, 0xbd, 0xce, 0x35, 0x94, 0xbe, 0x55, 0x2a, 0x90, 0x3d,
  0x2f, 0x05, 0x6b, 0xbe, 0x74, 0xcc, 0x36, 0x3e, 0xd7, 0xf1, 0xa3, 0x3e,
  0x80, 0x35, 0x95, 0xbe, 0x8c, 0xcd, 0x58, 0xbf, 0x14, 0xfc, 0x49, 0xbf,
  0x7a, 0x66, 0xa8, 0xbe, 0xec, 0xb7, 0x42, 0x3e, 0x8e, 0x32, 0x05, 0x3f,
  0x8a, 0x79, 0xad, 0x3c, 0x31, 0x4f, 0x6f, 0xbe, 0x87, 0xef, 0x0b, 0xc0,
  0xb4, 0x02, 0x2b, 0x3f, 0x8d, 0x39, 0x93, 0xbe, 0xf1, 0xc9, 0x5f, 0xbe,
  0xdb, 0x0f, 0x3d, 0xbe, 0x82, 0x84, 0x0c, 0x3d, 0x2d, 0x8d, 0x3a, 0xbe,
  0x32, 0x1f, 0xe9, 0xbd, 0xfd, 0xc5, 0x3c, 0x3f, 0xdb, 0x53, 0x4d, 0x3d,
  0x75, 0x69, 0x86, 0xbd, 0x56, 0x37, 0x78, 0xbf, 0x88, 0xca, 0x6b, 0xbc,
  0xa3, 0xc6, 0xe8, 0xbe, 0x15, 0xed, 0x16, 0xbf, 0x55, 0xf2, 0xd9, 0xbf,
  0xc6, 0x9d, 0x3e, 0xbc, 0xb3, 0x0c, 0x4a, 0x3e, 0xe6, 0x8f, 0xf1, 0x3e,
  0x4a, 0x04, 0xb0, 0xbe, 0x5c, 0xb6, 0x89, 0xbc, 0x04, 0xc7, 0x12, 0x3f,
  0x47, 0x50, 0x07, 0xbd, 0x8b, 0x5d, 0x01, 0xbf, 0x5e, 0x2d, 0xa8, 0xbf,
  0xc0, 0xb7, 0x80, 0xbe, 0x82, 0x4a, 0x06, 0xbe, 0x4b, 0x26, 0x7c, 0xbf,
  0xf9, 0x1a, 0xe2, 0xbd, 0x43, 0xc9, 0x73, 0xbf, 0x18, 0x16, 0x63, 0x3f,
  0xc0, 0xac, 0x1d, 0xbe, 0x71, 0xbc, 0x8e, 0xbe, 0x01, 0x25, 0x88, 0x3e,
  0xe3, 0xf6, 0x84, 0xbf, 0xf9, 0x4f, 0x5d, 0x3d, 0x4c, 0x1b, 0x56, 0xbe,
  0xa6, 0xd1, 0xbd, 0xbe, 0x6d, 0x0b, 0x19, 0xbd, 0x63, 0x98, 0x80, 0x3d,
  0xf2, 0x1e, 0xd4, 0xbf, 0x70, 0x91, 0xdf, 0xbf, 0x87, 0x32, 0x97, 0xbf,
  0x7b, 0xb7, 0x07, 0x3e, 0x6e, 0x79, 0xb0, 0xbf, 0xdd, 0x66, 0x01, 0x3f,
  0x7b, 0x5c, 0x98, 0x3e, 0xc9, 0xd4, 0x9f, 0xbd, 0x4d, 0x0e, 0x36, 0xbf,
  0x02, 0x1f, 0x12, 0xbe, 0xd5, 0x05, 0xc7, 0xbe, 0xab, 0x77, 0x07, 0x3d,
  0x63, 0x43, 0x5f, 0xbf, 0x13, 0xbc, 0xad, 0xbf, 0x80, 0x00, 0x0f, 0x3f,
  0x26, 0x4c, 0xfb, 0x3e, 0x7a, 0x87, 0x26, 0xbf, 0x70, 0x3e, 0x1a, 0xbf,
  0xf0, 0x1a, 0xd8, 0x3e, 0xe1, 0xbf, 0xf1, 0xbd, 0xb9, 0x90, 0x01, 0x3f,
  0xd2, 0xdd, 0x7b, 0xbe, 0x6a, 0x32, 0x54, 0x3e, 0xd3, 0xd1, 0xdf, 0x3e,
  0x25, 0x21, 0x8d, 0x3d, 0x6c, 0x6e, 0x04, 0x3f, 0x1a, 0xba, 0x1b, 0xc0,
  0x4d, 0x2a, 0xdf, 0xbf, 0x58, 0x03, 0x47, 0x3f, 0xf1, 0xe2, 0x09, 0xc0,
  0xc5, 0x12, 0x32, 0x3f, 0x67, 0x28, 0x46, 0x3e, 0x54, 0xdf, 0x01, 0x3f,
  0x22, 0xaa, 0xa4, 0xbf, 0x4b, 0xd0, 0xb3, 0x3e, 0x31, 0x75, 0xd8, 0xbf,
  0x96, 0xa7, 0x35, 0xbf, 0xf8, 0xe8, 0x84, 0x3e, 0xe5, 0x17, 0x7a, 0xbf,
  0x34, 0x32, 0xdd, 0x3e, 0x82, 0x9b, 0xcf, 0xbf, 0xd5, 0x56, 0x4e, 0xbf,
  0x9e, 0xa8, 0x4e, 0x3d, 0x43, 0x9b, 0xee, 0x3e, 0xa1, 0xc8, 0x2b, 0xc0,
  0xff, 0x6e, 0xc1, 0x3e, 0x1d, 0xaa, 0xfb, 0x3e, 0x41, 0x59, 0x1e, 0x3f,
  0x47, 0xe3, 0x1e, 0xc0, 0x4d, 0x9f, 0x51, 0xbf, 0xa7, 0x94, 0x61, 0xbf,
  0x09, 0xb3, 0xfb, 0x3d, 0x4c, 0x65, 0x0d, 0x3e, 0xf8, 0x5b, 0x79, 0xbf,
  0x65, 0x36, 0x90, 0xbf, 0x9c, 0x9c, 0x7e, 0x3e, 0x3a, 0x63, 0x1b, 0x3e,
  0x76, 0xb0, 0x64, 0x3e, 0xb5, 0x73, 0x14, 0x3f, 0x60, 0x0e, 0x36, 0x3e,
  0xe4, 0x00, 0xdf, 0x3e, 0x22, 0xa4, 0x18, 0x3f, 0x5b, 0x01, 0xca, 0xbe,
  0xa7, 0x83, 0xd7, 0xbe, 0x94, 0x4b, 0xd3, 0xbf, 0x0f, 0x23, 0xa0, 0x3e,
  0xc5, 0xcf, 0xd4, 0xbf, 0xf9, 0xbc, 0xd2, 0xbe, 0x39, 0xc3, 0x28, 0xc0,
  0x54, 0xba, 0xe0, 0x3e, 0x2d, 0xe3, 0x9f, 0xbf, 0xbc, 0xab, 0x6b, 0xbe,
  0x64, 0x90, 0xbb, 0xbf, 0xcf, 0x92, 0xdf, 0xbf, 0xc6, 0xb8, 0xa3, 0xbe,
  0x3f, 0x2a, 0xd7, 0x3c, 0xf5, 0xfd, 0x06, 0x3f, 0x14, 0x34, 0x17, 0x3e,
  0x25, 0x8c, 0x35, 0x3e, 0x86, 0x2d, 0x25, 0xc0, 0x19, 0xb1, 0x64, 0x3e,
  0x3f, 0xa2, 0x29, 0x3f, 0x3c, 0x2d, 0xad, 0xbc, 0x37, 0xa9, 0xae, 0xbf,
  0x8e, 0x3f, 0x91, 0x3e, 0x88, 0x1d, 0x05, 0xbf, 0x21, 0xce, 0x9f, 0x3e,
  0x0f, 0x9c, 0x95, 0x3e, 0xa2, 0x94, 0xd9, 0x3e, 0x90, 0x75, 0xc9, 0xbf,
  0x55, 0x4e, 0xd2, 0x3c, 0xc8, 0x22, 0x7a, 0xbe, 0x41, 0xaf, 0x02, 0xbf,
  0x26, 0x9b, 0x6e, 0xbd, 0xb1, 0x4b, 0x01, 0x3f, 0x28, 0xfd, 0xc4, 0x3e,
  0x10, 0x27, 0x6c, 0x3e, 0xb9, 0x74, 0xa8, 0x3e, 0xbd, 0x94, 0x49, 0x3d,
  0x01, 0x1a, 0xe2, 0xbf, 0x92, 0xb7, 0x83, 0x3d, 0xc6, 0x5b, 0xed, 0x3e,
  0xf5, 0xbf, 0x74, 0xbe, 0x25, 0x60, 0x34, 0xc0, 0x8b, 0x71, 0x2b, 0x3b,
  0x55, 0x84, 0x24, 0x3f, 0xee, 0x10, 0x87, 0xbf, 0xf0, 0x31, 0xdd, 0xbf,
  0x0c, 0xf6, 0xe9, 0xbf, 0x1b, 0x83, 0x88, 0xbe, 0x4c, 0x1f, 0xf5, 0xbe,
  0x71, 0x25, 0xe1, 0xbe, 0x52, 0x5e, 0x85, 0x3f, 0xe5, 0x38, 0xb0, 0xbf,
  0xb6, 0x06, 0x22, 0xbf, 0x24, 0xf3, 0x3f, 0xbf, 0x89, 0xc8, 0x01, 0x3f,
  0xd4, 0x18, 0x7f, 0xbd, 0xbe, 0x44, 0x61, 0x3e, 0xa6, 0x89, 0x72, 0xbf,
  0x4a, 0xd6, 0xce, 0x3e, 0xaa, 0x65, 0xda, 0xbe, 0x1e, 0x1a, 0x5d, 0xbf,
  0x76, 0x5f, 0xf5, 0xbd, 0x45, 0x71, 0xbf, 0xbe, 0x15, 0xa2, 0xfd, 0x3e,
  0x47, 0x24, 0x8e, 0xbf, 0xe1, 0xb6, 0x3f, 0xbf, 0xed, 0x1c, 0x09, 0xc0,
  0x5b, 0x5e, 0x5d, 0xbe, 0x63, 0x8a, 0xc7, 0x3e, 0x44, 0x3b, 0xb6, 0xbe,
  0xea, 0x1b, 0xcb, 0x3d, 0xa7, 0x67, 0xc8, 0xbd, 0x19, 0x9f, 0x36, 0x3f,
  0x90, 0xfa, 0xf2, 0x3e, 0x61, 0x9b, 0xb6, 0xbe, 0x55, 0xf5, 0xdb, 0x3e,
  0x6c, 0xd3, 0x28, 0xbf, 0xb9, 0x2d, 0xb8, 0xbf, 0xd1, 0x78, 0x04, 0x3f,
  0x98, 0x3a, 0x06, 0x3e, 0x21, 0x29, 0xfa, 0xbe, 0x4e, 0x06, 0x8e, 0xbe,
  0xa1, 0xf9, 0xc3, 0xbf, 0x3c, 0xae, 0x57, 0xbf, 0xdd, 0x0f, 0x95, 0xbe,
  0x67, 0xcb, 0x8f, 0xbf, 0x3d, 0x78, 0x92, 0x3e, 0x51, 0x05, 0x23, 0xbf,
  0x28, 0x9f, 0x05, 0xbf, 0x22, 0xef, 0xb6, 0x3e, 0x01, 0x26, 0x26, 0x3f,
  0xc6, 0xe8, 0x16, 0xbf, 0xe9, 0x01, 0x85, 0x3e, 0xce, 0x0c, 0x10, 0x3f,
  0x5f, 0xa5, 0xad, 0x3d, 0xde, 0x75, 0x3b, 0xbf, 0x99, 0x50, 0x3a, 0xbe,
  0x66, 0x50, 0xa3, 0x3e, 0xd5, 0x78, 0x63, 0xbf, 0x8f, 0xee, 0x78, 0xbe,
  0x7e, 0x34, 0xff, 0xbe, 0xf0, 0xb5, 0x6d, 0xbf, 0xcc, 0x4f, 0xd7, 0xbe,
  0xf6, 0x05, 0xaf, 0x3c, 0xc4, 0x30, 0x1c, 0x3e, 0x2f, 0xa3, 0x65, 0x3f,
  0x84, 0x0e, 0x46, 0x3e, 0xb2, 0x5f, 0x26, 0xbf, 0xfa, 0x80, 0xb0, 0x3d,
  0x8c, 0x69, 0x0c, 0x3e, 0xc6, 0xa9, 0x61, 0x3f, 0x4b, 0xcc, 0xea, 0x3e,
  0x75, 0x62, 0xa6, 0xbf, 0xbd, 0x48, 0x70, 0x3e, 0xbe, 0x43, 0x39, 0xbe,
  0x16, 0x47, 0x17, 0x3f, 0xd5, 0x89, 0x49, 0xbf, 0xd7, 0xc5, 0x18, 0x3f,
  0xa1, 0x67, 0xdf, 0x3d, 0x8d, 0x7f, 0x83, 0xbf, 0xbc, 0xc7, 0xfa, 0x3d,
  0xd9, 0x3f, 0x8b, 0xbf, 0x5f, 0x3a, 0x91, 0x3d, 0x09, 0x1e, 0x36, 0x3e,
  0x9d, 0xf9, 0xfe, 0xbe, 0x68, 0xb6, 0x61, 0xbf, 0xb0, 0x66, 0x53, 0x3e,
  0x57, 0xef, 0x58, 0xbf, 0x8e, 0xe8, 0xbf, 0xbf, 0x2d, 0xfa, 0x7c, 0xbf,
  0x05, 0x57, 0x26, 0x3f, 0xff, 0x01, 0xda, 0x3e, 0xed, 0x28, 0xf3, 0x3e,
  0xcf, 0xcc, 0x70, 0xbe, 0x80, 0xa0, 0x39, 0xbf, 0xf8, 0x63, 0xf2, 0xbf,
  0xe4, 0xd3, 0x58, 0x3f, 0x92, 0x1f, 0x14, 0xbf, 0x9d, 0xa3, 0x4a, 0xbf,
  0xdc, 0x9f, 0x4a, 0xbe, 0x53, 0xcf, 0xf8, 0xbf, 0x7f, 0x94, 0xb3, 0xbe,
  0x6c, 0x71, 0x3b, 0xbf, 0xbb, 0xc9, 0xac, 0xbf, 0xa3, 0x8b, 0x4f, 0x3f,
  0x9e, 0xa6, 0x09, 0xc0, 0x5c, 0x68, 0xca, 0x3e, 0x9f, 0x59, 0x14, 0x3f,
  0x28, 0x12, 0x12, 0xc0, 0x29, 0x90, 0xbc, 0x3e, 0xf0, 0x44, 0xea, 0xbf,
  0x2d, 0x66, 0x95, 0x3e, 0x43, 0xd3, 0x01, 0xc0, 0x81, 0x10, 0xd1, 0x3e,
  0x35, 0xf9, 0x8a, 0xbf, 0x4b, 0x45, 0x10, 0xbf, 0x8e, 0xfb, 0xff, 0xbe,
  0xab, 0x29, 0x5e, 0xbe, 0xa6, 0x6f, 0xe9, 0xbf, 0x4a, 0x7d, 0xa8, 0x3e,
  0x3e, 0xa7, 0xda, 0xbd, 0x8d, 0x2d, 0xa5, 0xbe, 0x53, 0xad, 0x4a, 0xbe,
  0x13, 0xc8, 0xf3, 0xbe, 0x01, 0x82, 0x24, 0xc0, 0x17, 0x6d, 0x02, 0xbe,
  0x9c, 0xa7, 0xe0, 0xbe, 0x39, 0x77, 0xb6, 0xbf, 0xba, 0x91, 0x12, 0x3f,
  0x65, 0x68, 0x79, 0x3e, 0xc9, 0x17, 0x22, 0xc0, 0xa0, 0x2a, 0x18, 0xbf,
  0x7f, 0xf4, 0x23, 0x3f, 0x33, 0x68, 0xa3, 0x3e, 0x0c, 0xaa, 0xc9, 0x3e,
  0xe7, 0xaf, 0xaf, 0xbd, 0xba, 0x05, 0xb0, 0xbf, 0x09, 0x85, 0x32, 0x3f,
  0x50, 0xae, 0x9d, 0xbe, 0x73, 0xdb, 0x77, 0x3c, 0x17, 0x0b, 0x0d, 0xbf,
  0x4e, 0x42, 0x32, 0xbf, 0xd8, 0xf6, 0x3b, 0x3f, 0x59, 0xdf, 0xab, 0x3e,
  0x73, 0x9a, 0x83, 0xbe, 0x2b, 0x44, 0x44, 0x3f, 0x19, 0xf4, 0xcb, 0xbe,
  0x7d, 0x14, 0x47, 0xbe, 0x36, 0xcb, 0x32, 0xbf, 0x83, 0x26, 0x34, 0x3f,
  0x1a, 0xd1, 0x55, 0x3f, 0x35, 0x84, 0xb1, 0xbf, 0x70, 0xca, 0xba, 0xbe,
  0xa6, 0xc8, 0x20, 0x3f, 0xf5, 0x92, 0x04, 0xc0, 0xdb, 0xfd, 0xbc, 0x3e,
  0xeb, 0xa9, 0xca, 0x3e, 0x01, 0xcd, 0xcb, 0xbf, 0x5b, 0xe7, 0x3b, 0x3e,
  0x9e, 0xee, 0x5a, 0xbf, 0x40, 0xae, 0x04, 0xc0, 0xff, 0xd4, 0x05, 0xc0,
  0x9c, 0xa7, 0x26, 0xbf, 0xd7, 0x2f, 0x46, 0x3e, 0x27, 0x78, 0xbf, 0x3e,
  0x91, 0xfd, 0xcd, 0xbe, 0x8c, 0x91, 0x5f, 0xbe, 0x5c, 0x49, 0xfa, 0xbe,
  0xf6, 0xa9, 0x25, 0x3f, 0xba, 0x96, 0xa1, 0x3e, 0x8d, 0xdb, 0x30, 0x3d,
  0x6c, 0xbb, 0x62, 0xbd, 0xce, 0xbb, 0x06, 0xc0, 0x56, 0xaa, 0x38, 0xbf,
  0x2f, 0x70, 0xe5, 0xbf, 0x5a, 0x47, 0x0e, 0xc0, 0xd9, 0xda, 0xc2, 0x3e,
  0x8f, 0xbe, 0x62, 0xbf, 0xd3, 0x01, 0x93, 0x3e, 0x1e, 0x44, 0x2e, 0xbe,
  0x05, 0x65, 0x84, 0xbe, 0xd1, 0x33, 0x16, 0xbf, 0x75, 0xc9, 0x28, 0xbf,
  0x74, 0x69, 0x5e, 0x3d, 0xac, 0x46, 0x80, 0xbe, 0x79, 0x0b, 0x92, 0xbf,
  0xcf, 0xbe, 0x4e, 0xbe, 0x7f, 0xdc, 0x10, 0x3e, 0xfb, 0x67, 0x26, 0xbf,
  0xed, 0x8c, 0xfb, 0x3e, 0xc2, 0x76, 0x07, 0x3f, 0xa0, 0x0c, 0xab, 0x3e,
  0xd4, 0xd1, 0xef, 0x3e, 0x61, 0xe0, 0xad, 0xbf, 0xbc, 0x36, 0x35, 0xbf,
  0xd5, 0x01, 0x38, 0x3f, 0x1a, 0xb3, 0x46, 0xbc, 0xf8, 0xa5, 0x9f, 0xbf,
  0x7a, 0x77, 0xed, 0xbe, 0x04, 0x76, 0xfc, 0x3d, 0xac, 0xbb, 0x45, 0x3e,
  0xef, 0x68, 0xbc, 0x3d, 0x50, 0x34, 0xeb, 0x3e, 0x10, 0x32, 0x4f, 0x3f,
  0x6a, 0xa8, 0xfb, 0xbf, 0x52, 0xf4, 0x1a, 0x3f, 0x01, 0xa9, 0xe2, 0xbe,
  0x18, 0xd1, 0x25, 0xbe, 0x51, 0x82, 0x49, 0x3e, 0x06, 0xd2, 0xc5, 0xbc,
  0x0d, 0x0f, 0x68, 0x3e, 0x30, 0x4f, 0xdf, 0x3e, 0x47, 0x48, 0x71, 0x3e,
  0x1a, 0xe8, 0x12, 0xbc, 0x96, 0x07, 0xb5, 0xbf, 0xe6, 0x40, 0x1e, 0xc0,
  0x0f, 0x88, 0x37, 0x3f, 0x66, 0x0d, 0x08, 0x3c, 0xd1, 0x07, 0x10, 0x3f,
  0x4c, 0xc5, 0xee, 0xbf, 0xef, 0xe3, 0xc4, 0x3e, 0x88, 0xd8, 0xe6, 0xbe,
  0xf1, 0xb6, 0x35, 0x3d, 0xb1, 0xc7, 0x14, 0x3f, 0xa9, 0xa5, 0xc7, 0x3e,
  0x93, 0xa7, 0x4e, 0xbf, 0xbc, 0x2e, 0xad, 0xbe, 0xc1, 0xfb, 0xdd, 0xbf,
  0x8c, 0x89, 0xc6, 0xbf, 0xfd, 0xb1, 0xf9, 0x3e, 0xc1, 0x21, 0x03, 0x3d,
  0xb6, 0xe0, 0x13, 0xbf, 0x8e, 0xe2, 0x09, 0x3f, 0x6d, 0xd6, 0x42, 0x3f,
  0x99, 0x14, 0x5a, 0xbe, 0x67, 0x04, 0x82, 0x3a, 0x88, 0xc4, 0xc8, 0xbf,
  0xac, 0x42, 0x20, 0x3d, 0xc5, 0x22, 0x86, 0xbd, 0x71, 0xb5, 0x3e, 0x3e,
  0x67, 0x06, 0xeb, 0xbf, 0x6a, 0x89, 0x5c, 0xbf, 0x71, 0x48, 0x27, 0x3e,
  0x94, 0xd4, 0x95, 0xbe, 0x59, 0xcf, 0x0e, 0x3f, 0xf3, 0x1d, 0xaf, 0xbf,
  0x81, 0x8e, 0x2f, 0xbe, 0x07, 0x8d, 0x17, 0xc0, 0x23, 0x04, 0xb3, 0xbf,
  0xb8, 0xde, 0x90, 0x3e, 0xc0, 0x7d, 0xa6, 0xbf, 0x57, 0x55, 0xa6, 0x3d,
  0x98, 0xa2, 0xbc, 0xbf, 0x39, 0x06, 0xec, 0x3d, 0x46, 0x30, 0x5d, 0x3d,
  0xcf, 0x81, 0x1c, 0xc0, 0x5e, 0xaf, 0x83, 0xbe, 0xd3, 0x50, 0x79, 0xbf,
  0xa2, 0x28, 0x13, 0xbf, 0xca, 0xd3, 0x6a, 0x3e, 0x5d, 0x64, 0xea, 0xbf,
  0x7f, 0x5d, 0xd2, 0x3e, 0x5f, 0xd2, 0xd1, 0x3d, 0xe2, 0xb8, 0x4f, 0x3e,
  0xd8, 0x51, 0xc4, 0x3e, 0x1c, 0xa2, 0xba, 0xbd, 0xdf, 0xac, 0x71, 0xbf,
  0x3c, 0xb5, 0x0d, 0x3f, 0x9c, 0x48, 0x31, 0xbe, 0xab, 0x53, 0x4c, 0xbd,
  0x02, 0xad, 0x58, 0x3c, 0x44, 0x23, 0x68, 0xbf, 0x01, 0x95, 0x9e, 0x3e,
  0x80, 0xef, 0x06, 0x3f, 0x67, 0x5b, 0x57, 0x3c, 0x36, 0x3a, 0xff, 0xbf,
  0x98, 0x53, 0x0d, 0xc0, 0xb7, 0x5f, 0x13, 0x3e, 0xf6, 0x98, 0x6a, 0x3e,
  0xa3, 0xfb, 0x1c, 0x3e, 0x91, 0x5c, 0xaa, 0x3e, 0x74, 0xcf, 0x92, 0x3e,
  0x61, 0x13, 0xdd, 0xbd, 0x5e, 0x59, 0x07, 0x3f, 0x7a, 0x88, 0x4f, 0xbf,
  0xbc, 0x06, 0x70, 0xbf, 0x05, 0x72, 0x9a, 0xbe, 0x00, 0x00, 0x00, 0x00,
  0x02, 0xf7, 0xff, 0xff, 0x04, 0x00, 0x00, 0x00, 0xa0, 0x05, 0x00, 0x00,
  0xa8, 0x01, 0x12, 0xbd, 0x8c, 0x0e, 0xf2, 0x3b, 0x0e, 0x38, 0xa8, 0x3f,
  0x94, 0x27, 0x8a, 0xbd, 0x91, 0x28, 0x56, 0xbf, 0x0f, 0x5d, 0xa6, 0x3f,
  0x18, 0x39, 0x08, 0xbd, 0xf0, 0xd5, 0xa1, 0xbf, 0x6f, 0x35, 0x97, 0x3e,
  0x32, 0x3f, 0x66, 0x3e, 0x3f, 0x8a, 0x84, 0x3e, 0x6f, 0x83, 0x3d, 0xbe,
  0x50, 0xdf, 0xe2, 0x3d, 0x20, 0xbc, 0x02, 0xbd, 0x81, 0x7b, 0x17, 0x3f,
  0x2c, 0xfb, 0x54, 0xbf, 0x4a, 0xc8, 0x37, 0xbe, 0x15, 0xe5, 0xca, 0x3f,
  0x1d, 0xfe, 0x3c, 0xbe, 0xde, 0xe3, 0x1f, 0x3e, 0x4a, 0x24, 0x29, 0x3e,
  0x33, 0x63, 0x6d, 0xbf, 0x66, 0x85, 0x7a, 0x3f, 0x37, 0x1f, 0x88, 0x3e,
  0x30, 0xc1, 0xe9, 0x3f, 0x56, 0x72, 0x23, 0xbf, 0xff, 0x48, 0x8e, 0x3e,
  0x1f, 0x08, 0x50, 0x3d, 0x00, 0x5e, 0x2e, 0x3c, 0x8d, 0x9b, 0x9d, 0x3e,
  0x4a, 0x83, 0x00, 0x3e, 0x93, 0x50, 0x31, 0x3f, 0xd4, 0xe6, 0x9e, 0xbf,
  0x48, 0x86, 0xde, 0x3d, 0x56, 0x7a, 0xd7, 0x3d, 0x06, 0x62, 0x89, 0x3f,
  0x73, 0xbb, 0xa0, 0x3e, 0x6c, 0x24, 0xae, 0x3f, 0x53, 0x28, 0xb0, 0xbe,
  0x12, 0xae, 0x0f, 0xbe, 0x12, 0x52, 0x01, 0x3e, 0xc9, 0xd3, 0xa8, 0x3e,
  0xfc, 0x40, 0x79, 0x3f, 0x28, 0x9f, 0xa0, 0xbe, 0x4a, 0xfa, 0xcb, 0xbf,
  0x50, 0x81, 0x80, 0x3f, 0x4f, 0x3f, 0x32, 0xbe, 0x27, 0x35, 0x2a, 0xbf,
  0xe2, 0x8d, 0x73, 0xbe, 0xbe, 0xbd, 0x54, 0x3e, 0xd1, 0xa8, 0x98, 0x3e,
  0x22, 0x72, 0xe2, 0x3e, 0xab, 0x7c, 0x4e, 0x3e, 0x7c, 0x37, 0xfc, 0x3d,
  0x83, 0x86, 0xb0, 0x3f, 0x0b, 0x22, 0x80, 0xbf, 0xf5, 0xb4, 0xb7, 0xbe,
  0xe5, 0xc1, 0x83, 0x3f, 0x80, 0xc3, 0x64, 0xbc, 0x6e, 0x36, 0x03, 0xbe,
  0xd0, 0x7a, 0x4c, 0xbd, 0xd3, 0xa6, 0xca, 0xbf, 0x1d, 0xe0, 0xa8, 0x3f,
  0x62, 0xb0, 0x3e, 0x3e, 0x01, 0xa2, 0x82, 0x3f, 0xa7, 0xf0, 0x98, 0x3e,
  0xb9, 0x76, 0x66, 0xbe, 0x27, 0x7b, 0x10, 0x3f, 0x98, 0xf8, 0xdb, 0x3d,
  0x73, 0x61, 0x61, 0xbe, 0x94, 0xab, 0xa1, 0xbd, 0xe4, 0xd3, 0x1e, 0xbf,
  0xe4, 0xd3, 0xa8, 0x3f, 0x60, 0xf9, 0x35, 0x3c, 0xd3, 0x26, 0x8f, 0x3f,
  0x8f, 0x54, 0xe3, 0xbf, 0x98, 0x79, 0xf2, 0x3d, 0x81, 0x38, 0xf8, 0x3e,
  0x10, 0x1f, 0x1c, 0xbd, 0x96, 0x20, 0x73, 0xbe, 0xe0, 0xc0, 0xd0, 0x3c,
  0x53, 0x1d, 0x80, 0x3f, 0x41, 0xf8, 0x84, 0x3d, 0xd2, 0xb9, 0x65, 0x3e,
  0x12, 0x36, 0xf1, 0x3e, 0x79, 0xdd, 0x96, 0xbf, 0x26, 0x89, 0x78, 0xbe,
  0x8b, 0xf8, 0x35, 0x3f, 0x79, 0xd8, 0x7b, 0xbe, 0x46, 0x0c, 0x7a, 0x3e,
  0x52, 0x68, 0x49, 0xbe, 0x1b, 0x0f, 0x24, 0xbe, 0x10, 0x6e, 0x71, 0x3f,
  0xf4, 0xd2, 0xab, 0x3d, 0xa8, 0x07, 0x26, 0x3e, 0xfe, 0x15, 0x06, 0xbf,
  0xf2, 0xe5, 0x86, 0xbe, 0xc2, 0xa5, 0xb6, 0x3f, 0x73, 0x76, 0x33, 0xbe,
  0x55, 0x3d, 0x95, 0x3e, 0xa9, 0x6b, 0xa1, 0x3e, 0xea, 0x2b, 0xc0, 0x3e,
  0x83, 0xb6, 0x1f, 0xbe, 0xd8, 0xdb, 0xe4, 0x3d, 0xdf, 0xf6, 0xb0, 0x3f,
  0x60, 0x92, 0xb7, 0x3c, 0x2c, 0x7e, 0xc8, 0xbd, 0xd4, 0x9d, 0x7f, 0xbf,
  0x3e, 0x2a, 0x67, 0x3e, 0x1e, 0x2c, 0x50, 0xbe, 0x8f, 0xf7, 0x47, 0xbe,
  0x7a, 0xa4, 0xe2, 0x3f, 0x3d, 0x23, 0xcb, 0x3e, 0x40, 0x75, 0xd1, 0xbc,
  0xbf, 0xa0, 0xcb, 0xbf, 0x44, 0xe5, 0x42, 0x3e, 0xd2, 0x18, 0x59, 0x3e,
  0x4d, 0xb8, 0x95, 0x3e, 0xcd, 0x4d, 0xb0, 0x3e, 0xbb, 0xe3, 0xab, 0x3e,
  0x4f, 0x01, 0xb6, 0xbe, 0xed, 0xa0, 0xaa, 0xbe, 0xd4, 0xb0, 0x9a, 0x3f,
  0xa4, 0xe8, 0xda, 0x3d, 0xc6, 0x08, 0x5b, 0x3f, 0xb0, 0x1c, 0x13, 0x3e,
  0x2d, 0x2e, 0x9d, 0x3e, 0xb9, 0x64, 0xb6, 0xbf, 0x80, 0x9d, 0x54, 0xbb,
  0x10, 0x1c, 0xb7, 0xbc, 0xd7, 0x03, 0xb4, 0x3e, 0xfa, 0x2d, 0x35, 0x3f,
  0x82, 0x08, 0x29, 0x3e, 0x49, 0x69, 0x81, 0x3e, 0x0a, 0xf1, 0x95, 0x3f,
  0x32, 0x43, 0x01, 0x3f, 0x78, 0xb6, 0x00, 0xbd, 0x5d, 0x6b, 0xc3, 0xbf,
  0x15, 0x34, 0x8a, 0x3e, 0xfd, 0xad, 0x94, 0xbe, 0x8e, 0x38, 0x03, 0x3e,
  0x5b, 0x5a, 0x34, 0xbf, 0x48, 0xe3, 0x96, 0xbe, 0x9c, 0x30, 0x23, 0xbe,
  0x45, 0x60, 0x48, 0x3f, 0x56, 0xf6, 0xc7, 0x3e, 0xae, 0xf8, 0x1b, 0x3e,
  0x4f, 0x63, 0x06, 0x40, 0x80, 0x16, 0xb2, 0xbd, 0x00, 0xd0, 0x26, 0xbd,
  0x5b, 0xa8, 0x8b, 0x3e, 0x2d, 0xcf, 0x1a, 0xbe, 0x58, 0xcf, 0x2d, 0x3f,
  0xd8, 0xd6, 0x6d, 0x3d, 0xc6, 0xd6, 0x5f, 0xbf, 0x1d, 0x04, 0x45, 0x3f,
  0x1f, 0xaa, 0x99, 0x3e, 0xa4, 0xaf, 0x84, 0x3f, 0x22, 0x50, 0x57, 0x3e,
  0x3f, 0x69, 0x49, 0xbe, 0x00, 0x54, 0xc7, 0xbd, 0x88, 0x9c, 0xf0, 0x3f,
  0x47, 0x5f, 0x9b, 0xbe, 0xfb, 0x53, 0x63, 0xbe, 0x4c, 0xcb, 0x2c, 0x3f,
  0x24, 0x47, 0x9b, 0x3e, 0xac, 0x4c, 0x82, 0xbe, 0xe5, 0xb1, 0x95, 0xbf,
  0x4a, 0x21, 0xa5, 0xbe, 0xfb, 0x75, 0x8a, 0x3e, 0xc8, 0x8f, 0x27, 0xbd,
  0x69, 0x13, 0x9b, 0x3f, 0x52, 0x89, 0xcf, 0xbe, 0x85, 0x39, 0x6e, 0xbe,
  0x89, 0xb1, 0x93, 0x3e, 0x84, 0xff, 0xb9, 0x3d, 0xe9, 0x51, 0x52, 0xbe,
  0x06, 0xb9, 0xd7, 0x3f, 0x6d, 0x79, 0x30, 0xbe, 0x78, 0xc3, 0xe5, 0x3d,
  0x9e, 0x99, 0x20, 0x3e, 0x4a, 0x16, 0x29, 0xbe, 0x4b, 0xca, 0x5a, 0xbf,
  0x1c, 0x27, 0xb8, 0x3d, 0x64, 0x27, 0x8c, 0x3f, 0xbc, 0x01, 0x6a, 0x3f,
  0x4f, 0x4e, 0xad, 0x3e, 0x63, 0xb8, 0xb5, 0x3f, 0x8c, 0x1a, 0xd7, 0xbd,
  0x8a, 0x94, 0x59, 0x3e, 0xeb, 0x5b, 0x14, 0xbe, 0xa8, 0x56, 0x59, 0x3f,
  0xdf, 0xc1, 0x87, 0x3f, 0x1c, 0x68, 0xf1, 0xbd, 0x69, 0x68, 0xb4, 0xbf,
  0xf2, 0x48, 0x0a, 0x3f, 0x8d, 0xa1, 0x3e, 0xbe, 0xe1, 0xa3, 0x56, 0x3f,
  0x60, 0x74, 0x87, 0xbe, 0x22, 0x92, 0x5c, 0x3e, 0x50, 0x65, 0x34, 0x3d,
  0xec, 0x7a, 0xa6, 0xbd, 0xd9, 0xa4, 0x8d, 0x3f, 0xa6, 0x6b, 0x2f, 0x3e,
  0x0e, 0xda, 0xbd, 0x3e, 0xcb, 0xfb, 0xb1, 0xbf, 0xb6, 0x6f, 0x5c, 0x3e,
  0xe8, 0x5d, 0xf2, 0x3e, 0xe2, 0x62, 0x1b, 0x3e, 0x38, 0x6b, 0xc5, 0xbd,
  0xe8, 0x5d, 0x1b, 0x3d, 0x5d, 0x23, 0x54, 0xbf, 0x78, 0x16, 0x73, 0x3f,
  0x0b, 0xd9, 0x09, 0xbe, 0xf6, 0x55, 0x28, 0x3f, 0xc7, 0xc7, 0x60, 0x3f,
  0x53, 0xb5, 0xb3, 0x3e, 0x10, 0x56, 0xa5, 0xbf, 0xc4, 0x55, 0xd9, 0xbd,
  0x44, 0x28, 0x55, 0xbe, 0x7a, 0xd1, 0x2a, 0x3e, 0x51, 0x32, 0x31, 0x3f,
  0xaf, 0xb8, 0xb8, 0xbe, 0xe8, 0x69, 0x06, 0x3d, 0x26, 0x38, 0x64, 0x3f,
  0x08, 0x72, 0x8e, 0x3f, 0x0e, 0x5a, 0x91, 0xbe, 0x41, 0x30, 0x1b, 0xbf,
  0x28, 0xcf, 0x9f, 0xbd, 0x00, 0x92, 0xc6, 0x3c, 0x5f, 0xfe, 0x14, 0xbe,
  0xe7, 0xa2, 0x73, 0x3f, 0x3d, 0xb5, 0x72, 0x3e, 0x02, 0x1e, 0xb3, 0xbe,
  0xc3, 0xbd, 0x79, 0x3f, 0x3a, 0xe4, 0x8a, 0xbf, 0xf4, 0x86, 0x49, 0xbe,
  0x45, 0xa4, 0xc6, 0x3c, 0x84, 0xd1, 0x8b, 0x3d, 0x2e, 0xf7, 0x60, 0xbe,
  0x74, 0x86, 0x50, 0xbe, 0xf0, 0x71, 0x92, 0x3f, 0xaa, 0x10, 0x70, 0x3e,
  0x12, 0x6d, 0x3e, 0xbe, 0xa3, 0xb8, 0x26, 0xbf, 0xf6, 0xe4, 0x6e, 0xbf,
  0x06, 0x93, 0x6e, 0x3e, 0xb9, 0x9d, 0x18, 0x3f, 0xa4, 0x06, 0x8b, 0x3d,
  0x5a, 0xea, 0x3a, 0x3e, 0x0d, 0x91, 0xa4, 0x3e, 0x51, 0xc7, 0xda, 0xbf,
  0xd7, 0xa2, 0x8b, 0x3f, 0x35, 0xe5, 0x64, 0xbe, 0xb2, 0x03, 0xa8, 0x3d,
  0xce, 0x10, 0x92, 0x3f, 0x0c, 0x4c, 0x5b, 0xbe, 0x9a, 0xb6, 0x3c, 0xbe,
  0x68, 0x01, 0xc3, 0xbd, 0xf2, 0x69, 0x43, 0xbe, 0xc0, 0xb2, 0xda, 0xbb,
  0x7c, 0x74, 0xf0, 0x3e, 0x48, 0x25, 0xd6, 0xbc, 0x1e, 0x26, 0x1c, 0x3e,
  0x86, 0x16, 0xc2, 0x3f, 0xb0, 0x89, 0xcd, 0x3d, 0x5c, 0x80, 0x2c, 0xbe,
  0x8f, 0x4b, 0x8a, 0xbf, 0xa9, 0xa8, 0x96, 0xbe, 0x6d, 0x73, 0xb7, 0x3e,
  0xe2, 0x98, 0x65, 0x3e, 0xd0, 0x9f, 0xf0, 0x3d, 0x1a, 0xe1, 0xf6, 0xbd,
  0x18, 0x5a, 0x95, 0xbe, 0x6b, 0x89, 0xbd, 0x3f, 0xe9, 0x25, 0xdf, 0x3e,
  0xca, 0xb5, 0x1c, 0xbe, 0x34, 0xec, 0xd6, 0xbb, 0x1b, 0xcf, 0x54, 0xbe,
  0xba, 0x06, 0x4b, 0xbe, 0xd6, 0xf8, 0x4f, 0x3e, 0x33, 0x53, 0xb5, 0xbe,
  0xef, 0x36, 0xaa, 0x3d, 0x1c, 0x40, 0xc5, 0x3d, 0x11, 0xf1, 0x62, 0xbe,
  0xa8, 0x55, 0xcc, 0xbc, 0x84, 0xb3, 0x04, 0x3e, 0x20, 0x73, 0x83, 0xbd,
  0x58, 0xad, 0x86, 0xbe, 0x5d, 0xd1, 0x54, 0xbe, 0x0d, 0x2d, 0x9d, 0x3e,
  0x4b, 0xc9, 0xc8, 0x3f, 0x30, 0xd9, 0x3b, 0xbf, 0x45, 0x9f, 0x75, 0xbe,
  0x3a, 0x98, 0x56, 0x3d, 0xd8, 0x20, 0x05, 0x3f, 0x35, 0x2d, 0xb7, 0xbe,
  0x04, 0x16, 0xa3, 0x3f, 0x62, 0xca, 0x07, 0x3e, 0x79, 0xcc, 0x8c, 0x3e,
  0xf2, 0xcb, 0x7e, 0xbe, 0xc1, 0x6d, 0x9c, 0x3e, 0x85, 0x4b, 0x13, 0xbf,
  0x1c, 0xb7, 0xe2, 0x3d, 0xc2, 0x68, 0xe6, 0x3e, 0x97, 0xb6, 0xef, 0x3f,
  0x70, 0x72, 0x45, 0xbd, 0x3b, 0x4b, 0x90, 0xbe, 0x80, 0xd3, 0x61, 0xbd,
  0xbb, 0x72, 0x4f, 0xbe, 0x40, 0x30, 0x09, 0x3e, 0x81, 0xa6, 0xc3, 0x3f,
  0x5c, 0xf7, 0x0f, 0xbf, 0x06, 0xa0, 0xa3, 0xbe, 0x67, 0x27, 0x3f, 0x3e,
  0x52, 0xde, 0x51, 0x3f, 0xf5, 0x48, 0x95, 0x3e, 0x47, 0x15, 0x9e, 0x3e,
  0x61, 0x23, 0x03, 0xbe, 0x08, 0xe2, 0xd0, 0x3d, 0x60, 0xe3, 0x04, 0x3e,
  0xeb, 0x4f, 0x82, 0x3f, 0xc0, 0x77, 0x2c, 0xbf, 0x82, 0x19, 0xb3, 0xbe,
  0x42, 0xb8, 0xd8, 0x3e, 0xba, 0x97, 0x9d, 0x3f, 0xc7, 0xc1, 0x0f, 0xbe,
  0x07, 0x69, 0x92, 0xbf, 0x46, 0x88, 0x3b, 0x3e, 0x40, 0xc2, 0x58, 0xbd,
  0xb0, 0x2f, 0xd0, 0x3c, 0x74, 0xb3, 0x85, 0x3e, 0x52, 0x6f, 0x88, 0x3f,
  0x66, 0xc6, 0xab, 0xbe, 0xc2, 0x8f, 0xb7, 0xbf, 0x6d, 0xbf, 0x48, 0x3d,
  0xd0, 0xa7, 0xce, 0x3c, 0x40, 0xa0, 0xa3, 0xbd, 0x78, 0xe2, 0x8d, 0xbd,
  0x2d, 0x50, 0x91, 0x3e, 0xa0, 0xdf, 0x2c, 0x3d, 0xb2, 0x51, 0xa2, 0x3f,
  0xfb, 0xc4, 0xbc, 0xbc, 0x54, 0xca, 0x63, 0xbe, 0xc9, 0xd2, 0xfd, 0xbe,
  0xbd, 0xf8, 0xd4, 0xbe, 0xb0, 0xd9, 0x6b, 0xbd, 0x4a, 0x19, 0xc0, 0x3f,
  0xfc, 0x0c, 0xd0, 0xbd, 0x5c, 0x11, 0xb0, 0x3d, 0x99, 0x32, 0x94, 0x3e,
  0xfa, 0x4f, 0x90, 0xbf, 0x48, 0x52, 0x46, 0x3f, 0x9e, 0x47, 0x66, 0x3e,
  0x7a, 0xbe, 0x9d, 0xbe, 0x24, 0x3c, 0xc8, 0x3f, 0xdc, 0xea, 0xbe, 0x3d,
  0x08, 0xc7, 0xc2, 0x3c, 0xcf, 0xe9, 0x99, 0x3e, 0x50, 0x81, 0x43, 0xbd,
  0x00, 0x00, 0x00, 0x00, 0xb2, 0xfc, 0xff, 0xff, 0x04, 0x00, 0x00, 0x00,
  0x40, 0x01, 0x00, 0x00, 0xae, 0x31, 0xef, 0xbe, 0x3d, 0xa7, 0x86, 0xbe,
  0x2c, 0x70, 0xe7, 0xbe, 0x63, 0x22, 0x07, 0xbf, 0x44, 0x97, 0x01, 0xbe,
  0x00, 0x38, 0x16, 0x3b, 0xd4, 0xc3, 0x78, 0x3e, 0xfe, 0x2c, 0xc0, 0xbe,
  0xd9, 0x75, 0x52, 0x3f, 0xea, 0xef, 0xeb, 0x3d, 0x27, 0xb8, 0xb3, 0xbf,
  0x8d, 0x68, 0xc3, 0xbf, 0x52, 0x0c, 0xeb, 0xbe, 0x9f, 0xff, 0xa6, 0x3f,
  0xb3, 0x47, 0xcd, 0x3f, 0x56, 0x5c, 0x86, 0x3f, 0x98, 0xa2, 0xa2, 0xbf,
  0xb1, 0x43, 0x84, 0x3f, 0x80, 0x6f, 0x95, 0x3f, 0xd1, 0xf8, 0x39, 0x3f,
  0x06, 0x0c, 0xa1, 0x3f, 0x18, 0xd9, 0x8b, 0x3e, 0x9f, 0x9e, 0xd7, 0xbf,
  0x16, 0x00, 0x7a, 0x3f, 0x1c, 0x0e, 0x01, 0xbf, 0x39, 0x3a, 0xfe, 0xbe,
  0x50, 0xf8, 0x68, 0x3e, 0x54, 0xa4, 0xd4, 0xbd, 0x70, 0xe5, 0xfe, 0x3d,
  0x04, 0xea, 0x85, 0x3e, 0xb8, 0xfc, 0x87, 0x3d, 0x82, 0xf8, 0xf7, 0xbe,
  0xcd, 0xc1, 0xb2, 0x3f, 0xeb, 0x5b, 0xfd, 0x3f, 0x1b, 0x45, 0x75, 0xbf,
  0xed, 0xb9, 0xb2, 0x3f, 0xaa, 0x86, 0xab, 0x3f, 0x20, 0xe2, 0x96, 0xbe,
  0x0e, 0x55, 0x40, 0x3f, 0x69, 0x9c, 0x27, 0xbf, 0x72, 0x6a, 0x87, 0x3f,
  0x33, 0x97, 0xa0, 0xbc, 0xad, 0x51, 0x05, 0x40, 0x75, 0x60, 0x37, 0xbf,
  0x3a, 0x82, 0x33, 0xbf, 0x05, 0xad, 0x3b, 0x3f, 0x45, 0xdc, 0xa2, 0x3f,
  0xee, 0x70, 0x56, 0xbf, 0x70, 0xfb, 0xa3, 0x3d, 0x12, 0x33, 0xf2, 0xbe,
  0x58, 0xf4, 0xd1, 0xbd, 0xb6, 0x49, 0x8c, 0xbe, 0x34, 0xec, 0xac, 0xbe,
  0xc8, 0x7b, 0xc2, 0xbe, 0x86, 0xf7, 0xe9, 0xbe, 0xa6, 0x13, 0x02, 0xbf,
  0x2e, 0xf0, 0x96, 0x3f, 0x34, 0xa1, 0xf7, 0xbf, 0xf3, 0x35, 0x12, 0xbf,
  0xd3, 0x6f, 0x89, 0x3e, 0xca, 0x97, 0x00, 0x40, 0x4c, 0x43, 0x63, 0x3c,
  0x45, 0xea, 0x21, 0x3e, 0xc8, 0x4c, 0xa9, 0x3e, 0x67, 0xe9, 0xf1, 0xbe,
  0x07, 0xb8, 0x13, 0xbf, 0xc2, 0x94, 0x4d, 0xbe, 0xd4, 0x96, 0xf9, 0x3e,
  0x74, 0x73, 0x4f, 0xbe, 0x8e, 0x6d, 0x35, 0xbe, 0x30, 0x8b, 0xb8, 0x3d,
  0x20, 0x0b, 0x80, 0x3d, 0xd0, 0x3d, 0x7b, 0x3d, 0x80, 0x3b, 0x2a, 0x3c,
  0xe8, 0xc3, 0x1e, 0xbe, 0x34, 0x62, 0x53, 0x3e, 0xfd, 0x23, 0xc2, 0xbe,
  0xec, 0x6a, 0x16, 0x3e, 0xbe, 0xb3, 0x87, 0xbe, 0xae, 0x1e, 0x56, 0xbe,
  0x00, 0x00, 0x00, 0x00, 0x02, 0xfe, 0xff, 0xff, 0x04, 0x00, 0x00, 0x00,
  0x68, 0x00, 0x00, 0x00, 0xc5, 0x43, 0x45, 0xbe, 0xdc, 0x50, 0xe5, 0xbd,
  0xf5, 0x74, 0x94, 0xbc, 0x20, 0xb8, 0xc8, 0xbd, 0x48, 0x32, 0x56, 0xbd,
  0xfa, 0x15, 0x16, 0xbe, 0x22, 0x65, 0x22, 0xbe, 0x78, 0xf3, 0x3b, 0xbe,
  0x2b, 0xec, 0xed, 0xbd, 0x62, 0x84, 0xa3, 0xbe, 0x42, 0xfa, 0x80, 0xbe,
  0x2a, 0x24, 0x46, 0xbe, 0x57, 0x1b, 0x1a, 0x3d, 0x30, 0xf2, 0xc5, 0x3e,
  0x86, 0xd5, 0x47, 0x3e, 0x84, 0xdb, 0x83, 0xbd, 0x45, 0x38, 0x62, 0xbe,
  0x2e, 0x8e, 0x9a, 0x3e, 0xa4, 0x11, 0xf0, 0x3e, 0x10, 0x1c, 0xc7, 0xbd,
  0x04, 0x0e, 0x63, 0xbd, 0xcc, 0xa2, 0x24, 0xbe, 0x6e, 0xa0, 0xfb, 0x3d,
  0xa3, 0x3a, 0xa9, 0x3e, 0x39, 0x41, 0x64, 0xbe, 0x7c, 0x59, 0x97, 0x3d,
  0x00, 0x00, 0x00, 0x00, 0x00, 0x00, 0x00, 0x00, 0x00, 0x00, 0x00, 0x00,
  0x82, 0xfe, 0xff, 0xff, 0x04, 0x00, 0x00, 0x00, 0x90, 0x00, 0x00, 0x00,
  0xdc, 0xc2, 0x44, 0x3f, 0xd7, 0x0e, 0xe8, 0x3e, 0x77, 0x07, 0x75, 0x3d,
  0xc8, 0xf9, 0x40, 0x3e, 0x69, 0xc3, 0x53, 0x3f, 0xf4, 0xc5, 0xdb, 0xbe,
  0x94, 0xad, 0x30, 0x3d, 0x30, 0x3b, 0x77, 0xbd, 0xc0, 0x82, 0x8f, 0x3d,
  0xd6, 0x42, 0x25, 0xbe, 0x76, 0x8d, 0x3c, 0x3f, 0x24, 0x81, 0x6f, 0x3f,
  0x8e, 0x25, 0xf7, 0x3d, 0xa5, 0x44, 0x9d, 0x3e, 0x22, 0x25, 0x65, 0xbe,
  0xd2, 0x8c, 0x16, 0x3f, 0x86, 0x17, 0x58, 0x3d, 0xe3, 0x95, 0x88, 0x3e,
  0x49, 0x4b, 0x71, 0xbe, 0x55, 0xae, 0xc4, 0x3e, 0xbc, 0xde, 0xa0, 0x3e,
  0xd8, 0x9c, 0x1c, 0x3f, 0xd7, 0x4f, 0x17, 0x3e, 0x77, 0x02, 0x7d, 0x3e,
  0x84, 0x61, 0x22, 0x3f, 0x4f, 0x26, 0x20, 0x3f, 0x20, 0xea, 0x78, 0x3e,
  0x8d, 0xf9, 0xc5, 0xbe, 0xee, 0x48, 0x7f, 0xbd, 0x7e, 0x64, 0x18, 0x3f,
  0xc6, 0xb3, 0x91, 0x3e, 0x46, 0xf7, 0x16, 0x3e, 0xb7, 0xe2, 0x2f, 0x3f,
  0x2c, 0xae, 0x80, 0x3f, 0xea, 0xfb, 0x96, 0x3e, 0xc4, 0xc1, 0x59, 0x3e,
  0x00, 0x00, 0x00, 0x00, 0x22, 0xff, 0xff, 0xff, 0x04, 0x00, 0x00, 0x00,
  0x28, 0x00, 0x00, 0x00, 0x00, 0x00, 0x00, 0x00, 0x23, 0x78, 0x66, 0x3f,
  0x99, 0x37, 0x4d, 0x3f, 0x00, 0x00, 0x00, 0x00, 0x64, 0x24, 0x28, 0xbe,
  0xd5, 0x96, 0x41, 0x3f, 0x00, 0x00, 0x00, 0x00, 0x4a, 0x70, 0xa7, 0x3e,
  0x00, 0x00, 0x00, 0x00, 0x00, 0x00, 0x00, 0x00, 0x00, 0x00, 0x00, 0x00,
  0x44, 0xfa, 0xff, 0xff, 0x00, 0x00, 0x00, 0x00, 0x00, 0x00, 0x00, 0x00,
  0x00, 0x00, 0x00, 0x00, 0x54, 0xfa, 0xff, 0xff, 0x00, 0x00, 0x00, 0x00,
  0x0f, 0x00, 0x00, 0x00, 0x4d, 0x4c, 0x49, 0x52, 0x20, 0x43, 0x6f, 0x6e,
  0x76, 0x65, 0x72, 0x74, 0x65, 0x64, 0x2e, 0x00, 0x01, 0x00, 0x00, 0x00,
  0x14, 0x00, 0x00, 0x00, 0x00, 0x00, 0x0e, 0x00, 0x18, 0x00, 0x04, 0x00,
  0x08, 0x00, 0x0c, 0x00, 0x10, 0x00, 0x14, 0x00, 0x0e, 0x00, 0x00, 0x00,
  0x4c, 0x01, 0x00, 0x00, 0x40, 0x01, 0x00, 0x00, 0x34, 0x01, 0x00, 0x00,
  0x14, 0x00, 0x00, 0x00, 0x04, 0x00, 0x00, 0x00, 0x04, 0x00, 0x00, 0x00,
  0x6d, 0x61, 0x69, 0x6e, 0x00, 0x00, 0x00, 0x00, 0x04, 0x00, 0x00, 0x00,
  0xdc, 0x00, 0x00, 0x00, 0x94, 0x00, 0x00, 0x00, 0x50, 0x00, 0x00, 0x00,
  0x14, 0x00, 0x00, 0x00, 0x00, 0x00, 0x0e, 0x00, 0x1a, 0x00, 0x08, 0x00,
  0x0c, 0x00, 0x10, 0x00, 0x07, 0x00, 0x14, 0x00, 0x0e, 0x00, 0x00, 0x00,
  0x00, 0x00, 0x00, 0x09, 0x01, 0x00, 0x00, 0x00, 0x24, 0x00, 0x00, 0x00,
  0x18, 0x00, 0x00, 0x00, 0x0c, 0x00, 0x00, 0x00, 0x00, 0x00, 0x06, 0x00,
  0x08, 0x00, 0x04, 0x00, 0x06, 0x00, 0x00, 0x00, 0x00, 0x00, 0x80, 0x3f,
  0x01, 0x00, 0x00, 0x00, 0x0a, 0x00, 0x00, 0x00, 0x01, 0x00, 0x00, 0x00,
  0x09, 0x00, 0x00, 0x00, 0xce, 0xff, 0xff, 0xff, 0x00, 0x00, 0x00, 0x08,
  0x18, 0x00, 0x00, 0x00, 0x0c, 0x00, 0x00, 0x00, 0x04, 0x00, 0x00, 0x00,
  0x1c, 0xfb, 0xff, 0xff, 0x01, 0x00, 0x00, 0x00, 0x09, 0x00, 0x00, 0x00,
  0x03, 0x00, 0x00, 0x00, 0x08, 0x00, 0x00, 0x00, 0x06, 0x00, 0x00, 0x00,
  0x03, 0x00, 0x00, 0x00, 0x00, 0x00, 0x0e, 0x00, 0x14, 0x00, 0x00, 0x00,
  0x08, 0x00, 0x0c, 0x00, 0x07, 0x00, 0x10, 0x00, 0x0e, 0x00, 0x00, 0x00,
  0x00, 0x00, 0x00, 0x08, 0x1c, 0x00, 0x00, 0x00, 0x10, 0x00, 0x00, 0x00,
  0x04, 0x00, 0x00, 0x00, 0xba, 0xff, 0xff, 0xff, 0x00, 0x00, 0x00, 0x01,
  0x01, 0x00, 0x00, 0x00, 0x08, 0x00, 0x00, 0x00, 0x03, 0x00, 0x00, 0x00,
  0x07, 0x00, 0x00, 0x00, 0x05, 0x00, 0x00, 0x00, 0x02, 0x00, 0x00, 0x00,
  0x00, 0x00, 0x0e, 0x00, 0x16, 0x00, 0x00, 0x00, 0x08, 0x00, 0x0c, 0x00,
  0x07, 0x00, 0x10, 0x00, 0x0e, 0x00, 0x00, 0x00, 0x00, 0x00, 0x00, 0x08,
  0x24, 0x00, 0x00, 0x00, 0x18, 0x00, 0x00, 0x00, 0x0c, 0x00, 0x00, 0x00,
  0x00, 0x00, 0x06, 0x00, 0x08, 0x00, 0x07, 0x00, 0x06, 0x00, 0x00, 0x00,
  0x00, 0x00, 0x00, 0x01, 0x01, 0x00, 0x00, 0x00, 0x07, 0x00, 0x00, 0x00,
  0x03, 0x00, 0x00, 0x00, 0x00, 0x00, 0x00, 0x00, 0x04, 0x00, 0x00, 0x00,
  0x01, 0x00, 0x00, 0x00, 0x01, 0x00, 0x00, 0x00, 0x0a, 0x00, 0x00, 0x00,
  0x01, 0x00, 0x00, 0x00, 0x00, 0x00, 0x00, 0x00, 0x0b, 0x00, 0x00, 0x00,
  0x00, 0x04, 0x00, 0x00, 0x8c, 0x03, 0x00, 0x00, 0x1c, 0x03, 0x00, 0x00,
  0xbc, 0x02, 0x00, 0x00, 0x74, 0x02, 0x00, 0x00, 0x2c, 0x02, 0x00, 0x00,
  0xe4, 0x01, 0x00, 0x00, 0x54, 0x01, 0x00, 0x00, 0xc4, 0x00, 0x00, 0x00,
  0x4c, 0x00, 0x00, 0x00, 0x04, 0x00, 0x00, 0x00, 0x40, 0xfc, 0xff, 0xff,
  0x34, 0x00, 0x00, 0x00, 0x0b, 0x00, 0x00, 0x00, 0x1c, 0x00, 0x00, 0x00,
  0x14, 0x00, 0x00, 0x00, 0x04, 0x00, 0x00, 0x00, 0x02, 0x00, 0x00, 0x00,
  0xff, 0xff, 0xff, 0xff, 0x1a, 0x00, 0x00, 0x00, 0x2c, 0xfc, 0xff, 0xff,
  0x08, 0x00, 0x00, 0x00, 0x49, 0x64, 0x65, 0x6e, 0x74, 0x69, 0x74, 0x79,
  0x00, 0x00, 0x00, 0x00, 0x02, 0x00, 0x00, 0x00, 0x01, 0x00, 0x00, 0x00,
  0x1a, 0x00, 0x00, 0x00, 0x84, 0xfc, 0xff, 0xff, 0x64, 0x00, 0x00, 0x00,
  0x0a, 0x00, 0x00, 0x00, 0x1c, 0x00, 0x00, 0x00, 0x14, 0x00, 0x00, 0x00,
  0x04, 0x00, 0x00, 0x00, 0x02, 0x00, 0x00, 0x00, 0xff, 0xff, 0xff, 0xff,
  0x1a, 0x00, 0x00, 0x00, 0x70, 0xfc, 0xff, 0xff, 0x38, 0x00, 0x00, 0x00,
  0x73, 0x65, 0x71, 0x75, 0x65, 0x6e, 0x74, 0x69, 0x61, 0x6c, 0x5f, 0x31,
  0x2f, 0x64, 0x65, 0x6e, 0x73, 0x65, 0x5f, 0x35, 0x2f, 0x4d, 0x61, 0x74,
  0x4d, 0x75, 0x6c, 0x3b, 0x73, 0x65, 0x71, 0x75, 0x65, 0x6e, 0x74, 0x69,
  0x61, 0x6c, 0x5f, 0x31, 0x2f, 0x64, 0x65, 0x6e, 0x73, 0x65, 0x5f, 0x35,
  0x2f, 0x42, 0x69, 0x61, 0x73, 0x41, 0x64, 0x64, 0x00, 0x00, 0x00, 0x00,
  0x02, 0x00, 0x00, 0x00, 0x01, 0x00, 0x00, 0x00, 0x1a, 0x00, 0x00, 0x00,
  0xf8, 0xfc, 0xff, 0xff, 0x7c, 0x00, 0x00, 0x00, 0x09, 0x00, 0x00, 0x00,
  0x1c, 0x00, 0x00, 0x00, 0x14, 0x00, 0x00, 0x00, 0x04, 0x00, 0x00, 0x00,
  0x02, 0x00, 0x00, 0x00, 0xff, 0xff, 0xff, 0xff, 0x24, 0x00, 0x00, 0x00,
  0xe4, 0xfc, 0xff, 0xff, 0x52, 0x00, 0x00, 0x00, 0x73, 0x65, 0x71, 0x75,
  0x65, 0x6e, 0x74, 0x69, 0x61, 0x6c, 0x5f, 0x31, 0x2f, 0x64, 0x65, 0x6e,
  0x73, 0x65, 0x5f, 0x34, 0x2f, 0x4d, 0x61, 0x74, 0x4d, 0x75, 0x6c, 0x3b,
  0x73, 0x65, 0x71, 0x75, 0x65, 0x6e, 0x74, 0x69, 0x61, 0x6c, 0x5f, 0x31,
  0x2f, 0x64, 0x65, 0x6e, 0x73, 0x65, 0x5f, 0x34, 0x2f, 0x52, 0x65, 0x6c,
  0x75, 0x3b, 0x73, 0x65, 0x71, 0x75, 0x65, 0x6e, 0x74, 0x69, 0x61, 0x6c,
  0x5f, 0x31, 0x2f, 0x64, 0x65, 0x6e, 0x73, 0x65, 0x5f, 0x34, 0x2f, 0x42,
  0x69, 0x61, 0x73, 0x41, 0x64, 0x64, 0x00, 0x00, 0x02, 0x00, 0x00, 0x00,
  0x01, 0x00, 0x00, 0x00, 0x24, 0x00, 0x00, 0x00, 0x84, 0xfd, 0xff, 0xff,
  0x7c, 0x00, 0x00, 0x00, 0x08, 0x00, 0x00, 0x00, 0x1c, 0x00, 0x00, 0x00,
  0x14, 0x00, 0x00, 0x00, 0x04, 0x00, 0x00, 0x00, 0x02, 0x00, 0x00, 0x00,
  0xff, 0xff, 0xff, 0xff, 0x0a, 0x00, 0x00, 0x00, 0x70, 0xfd, 0xff, 0xff,
  0x52, 0x00, 0x00, 0x00, 0x73, 0x65, 0x71, 0x75, 0x65, 0x6e, 0x74, 0x69,
  0x61, 0x6c, 0x5f, 0x31, 0x2f, 0x64, 0x65, 0x6e, 0x73, 0x65, 0x5f, 0x33,
  0x2f, 0x4d, 0x61, 0x74, 0x4d, 0x75, 0x6c, 0x3b, 0x73, 0x65, 0x71, 0x75,
  0x65, 0x6e, 0x74, 0x69, 0x61, 0x6c, 0x5f, 0x31, 0x2f, 0x64, 0x65, 0x6e,
  0x73, 0x65, 0x5f, 0x33, 0x2f, 0x52, 0x65, 0x6c, 0x75, 0x3b, 0x73, 0x65,
  0x71, 0x75, 0x65, 0x6e, 0x74, 0x69, 0x61, 0x6c, 0x5f, 0x31, 0x2f, 0x64,
  0x65, 0x6e, 0x73, 0x65, 0x5f, 0x33, 0x2f, 0x42, 0x69, 0x61, 0x73, 0x41,
  0x64, 0x64, 0x00, 0x00, 0x02, 0x00, 0x00, 0x00, 0x01, 0x00, 0x00, 0x00,
  0x0a, 0x00, 0x00, 0x00, 0x7a, 0xfe, 0xff, 0xff, 0x34, 0x00, 0x00, 0x00,
  0x07, 0x00, 0x00, 0x00, 0x0c, 0x00, 0x00, 0x00, 0x04, 0x00, 0x00, 0x00,
  0xec, 0xfd, 0xff, 0xff, 0x1b, 0x00, 0x00, 0x00, 0x73, 0x65, 0x71, 0x75,
  0x65, 0x6e, 0x74, 0x69, 0x61, 0x6c, 0x5f, 0x31, 0x2f, 0x64, 0x65, 0x6e,
  0x73, 0x65, 0x5f, 0x35, 0x2f, 0x4d, 0x61, 0x74, 0x4d, 0x75, 0x6c, 0x00,
  0x02, 0x00, 0x00, 0x00, 0x1a, 0x00, 0x00, 0x00, 0x24, 0x00, 0x00, 0x00,
  0xbe, 0xfe, 0xff, 0xff, 0x34, 0x00, 0x00, 0x00, 0x06, 0x00, 0x00, 0x00,
  0x0c, 0x00, 0x00, 0x00, 0x04, 0x00, 0x00, 0x00, 0x30, 0xfe, 0xff, 0xff,
  0x1b, 0x00, 0x00, 0x00, 0x73, 0x65, 0x71, 0x75, 0x65, 0x6e, 0x74, 0x69,
  0x61, 0x6c, 0x5f, 0x31, 0x2f, 0x64, 0x65, 0x6e, 0x73, 0x65, 0x5f, 0x34,
  0x2f, 0x4d, 0x61, 0x74, 0x4d, 0x75, 0x6c, 0x00, 0x02, 0x00, 0x00, 0x00,
  0x24, 0x00, 0x00, 0x00, 0x0a, 0x00, 0x00, 0x00, 0x02, 0xff, 0xff, 0xff,
  0x34, 0x00, 0x00, 0x00, 0x05, 0x00, 0x00, 0x00, 0x0c, 0x00, 0x00, 0x00,
  0x04, 0x00, 0x00, 0x00, 0x74, 0xfe, 0xff, 0xff, 0x1b, 0x00, 0x00, 0x00,
  0x73, 0x65, 0x71, 0x75, 0x65, 0x6e, 0x74, 0x69, 0x61, 0x6c, 0x5f, 0x31,
  0x2f, 0x64, 0x65, 0x6e, 0x73, 0x65, 0x5f, 0x33, 0x2f, 0x4d, 0x61, 0x74,
  0x4d, 0x75, 0x6c, 0x00, 0x02, 0x00, 0x00, 0x00, 0x0a, 0x00, 0x00, 0x00,
  0x08, 0x00, 0x00, 0x00, 0x46, 0xff, 0xff, 0xff, 0x50, 0x00, 0x00, 0x00,
  0x04, 0x00, 0x00, 0x00, 0x0c, 0x00, 0x00, 0x00, 0x04, 0x00, 0x00, 0x00,
  0xb8, 0xfe, 0xff, 0xff, 0x34, 0x00, 0x00, 0x00, 0x73, 0x65, 0x71, 0x75,
  0x65, 0x6e, 0x74, 0x69, 0x61, 0x6c, 0x5f, 0x31, 0x2f, 0x64, 0x65, 0x6e,
  0x73, 0x65, 0x5f, 0x35, 0x2f, 0x42, 0x69, 0x61, 0x73, 0x41, 0x64, 0x64,
  0x2f, 0x52, 0x65, 0x61, 0x64, 0x56, 0x61, 0x72, 0x69, 0x61, 0x62, 0x6c,
  0x65, 0x4f, 0x70, 0x2f, 0x72, 0x65, 0x73, 0x6f, 0x75, 0x72, 0x63, 0x65,
  0x00, 0x00, 0x00, 0x00, 0x01, 0x00, 0x00, 0x00, 0x1a, 0x00, 0x00, 0x00,
  0xa2, 0xff, 0xff, 0xff, 0x50, 0x00, 0x00, 0x00, 0x03, 0x00, 0x00, 0x00,
  0x0c, 0x00, 0x00, 0x00, 0x04, 0x00, 0x00, 0x00, 0x14, 0xff, 0xff, 0xff,
  0x34, 0x00, 0x00, 0x00, 0x73, 0x65, 0x71, 0x75, 0x65, 0x6e, 0x74, 0x69,
  0x61, 0x6c, 0x5f, 0x31, 0x2f, 0x64, 0x65, 0x6e, 0x73, 0x65, 0x5f, 0x34,
  0x2f, 0x42, 0x69, 0x61, 0x73, 0x41, 0x64, 0x64, 0x2f, 0x52, 0x65, 0x61,
  0x64, 0x56, 0x61, 0x72, 0x69, 0x61, 0x62, 0x6c, 0x65, 0x4f, 0x70, 0x2f,
  0x72, 0x65, 0x73, 0x6f, 0x75, 0x72, 0x63, 0x65, 0x00, 0x00, 0x00, 0x00,
  0x01, 0x00, 0x00, 0x00, 0x24, 0x00, 0x00, 0x00, 0x00, 0x00, 0x0e, 0x00,
  0x14, 0x00, 0x04, 0x00, 0x00, 0x00, 0x08, 0x00, 0x0c, 0x00, 0x10, 0x00,
  0x0e, 0x00, 0x00, 0x00, 0x50, 0x00, 0x00, 0x00, 0x02, 0x00, 0x00, 0x00,
  0x0c, 0x00, 0x00, 0x00, 0x04, 0x00, 0x00, 0x00, 0x80, 0xff, 0xff, 0xff,
  0x34, 0x00, 0x00, 0x00, 0x73, 0x65, 0x71, 0x75, 0x65, 0x6e, 0x74, 0x69,
  0x61, 0x6c, 0x5f, 0x31, 0x2f, 0x64, 0x65, 0x6e, 0x73, 0x65, 0x5f, 0x33,
  0x2f, 0x42, 0x69, 0x61, 0x73, 0x41, 0x64, 0x64, 0x2f, 0x52, 0x65, 0x61,
  0x64, 0x56, 0x61, 0x72, 0x69, 0x61, 0x62, 0x6c, 0x65, 0x4f, 0x70, 0x2f,
  0x72, 0x65, 0x73, 0x6f, 0x75, 0x72, 0x63, 0x65, 0x00, 0x00, 0x00, 0x00,
  0x01, 0x00, 0x00, 0x00, 0x0a, 0x00, 0x00, 0x00, 0x14, 0x00, 0x18, 0x00,
  0x04, 0x00, 0x00, 0x00, 0x08, 0x00, 0x0c, 0x00, 0x10, 0x00, 0x00, 0x00,
  0x00, 0x00, 0x14, 0x00, 0x14, 0x00, 0x00, 0x00, 0x3c, 0x00, 0x00, 0x00,
  0x01, 0x00, 0x00, 0x00, 0x20, 0x00, 0x00, 0x00, 0x18, 0x00, 0x00, 0x00,
  0x04, 0x00, 0x00, 0x00, 0x02, 0x00, 0x00, 0x00, 0xff, 0xff, 0xff, 0xff,
  0x08, 0x00, 0x00, 0x00, 0x04, 0x00, 0x04, 0x00, 0x04, 0x00, 0x00, 0x00,
  0x0d, 0x00, 0x00, 0x00, 0x64, 0x65, 0x6e, 0x73, 0x65, 0x5f, 0x33, 0x5f,
  0x69, 0x6e, 0x70, 0x75, 0x74, 0x00, 0x00, 0x00, 0x02, 0x00, 0x00, 0x00,
  0x01, 0x00, 0x00, 0x00, 0x08, 0x00, 0x00, 0x00, 0x02, 0x00, 0x00, 0x00,
  0x2c, 0x00, 0x00, 0x00, 0x10, 0x00, 0x00, 0x00, 0x0c, 0x00, 0x0c, 0x00,
  0x07, 0x00, 0x00, 0x00, 0x00, 0x00, 0x08, 0x00, 0x0c, 0x00, 0x00, 0x00,
  0x00, 0x00, 0x00, 0x19, 0x19, 0x00, 0x00, 0x00, 0x0c, 0x00, 0x10, 0x00,
  0x07, 0x00, 0x00, 0x00, 0x08, 0x00, 0x0c, 0x00, 0x0c, 0x00, 0x00, 0x00,
  0x00, 0x00, 0x00, 0x09, 0x09, 0x00, 0x00, 0x00, 0x09, 0x00, 0x00, 0x00
 
};

#endif //THREE_MODEL_H